#version: 0.2 - Trained by `huggingface/tokenizers`
Ġ t
Ġ a
e r
i n
Ġt h
Ġ s
Ġ w
Ġ i
Ġ .
o u
o n
Ġ m
Ġ b
r e
Ġ h
u s
Ġ f
Ġth e
Ġ c
in g
a t
o r
Ġ d
a n
e n
Ġt o
Ġ l
Ġ p
Ġ y
e s
Ġ n
l l
Ġ g
us er
Ġ ,
Ġ o
Ġy ou
i t
e d
Ġa n
i s
a r
Ġ in
a y
Ġ !
v e
a s
o m
o t
Ġo f
o w
Ġan d
e t
Ġi s
Ġw h
a l
Ġ e
Ġb e
l e
Ġ <
i c
Ġ \
Ġ on
Ġi t
Ġ re
Ġf or
Ġ u
a d
a c
t h
v er
Ġs t
Ġ ?
Ġ r
k e
a m
e l
u t
i d
g h
Ġh a
Ġ j
Ġm y
Ġl i
Ġg o
Ġth at
i on
o s
Ġ. .
c h
l d
ou t
en t
Ġ "
Ġs h
i m
i ll
o p
Ġ k
Ġ '
it h
Ġw e
Ġm e
l y
Ġh e
i r
Ġn ot
us t
Ġn e
a ll
gh t
Ġt r
Ġyou r
Ġd o
' t
Ġl o
Ġw ith
Ġ &
Ġs o
t er
' s
Ġa re
Ġc h
o d
Ġha ve
Ġc an
u r
Ġ 1
Ġb ut
er s
er e
Ġa ll
p p
Ġth is
Ġs e
om e
Ġa t
Ġw or
c t
on e
c e
Ġf r
es s
u m
Ġa s
s t
i ght
Ġp r
u n
i l
o l
es t
ou r
Ġ 2
o re
Ġd e
Ġw as
Ġj ust
Ġwh at
Ġ v
a k
f e
Ġa b
is t
en d
an t
a g
Ġg et
a in
Ġn o
Ġs u
d ay
ou ld
an d
Ġu p
c k
ac k
Ġthe y
Ġ :
Ġ out
i e
Ġa m
u l
at e
a ke
Ġd on
Ġp e
Ġa l
Ġw ill
Ġ us
Ġ or
ver y
Ġli ke
s e
o k
i g
Ġ -
Ġl e
Ġf e
at ion
all y
Ġk n
Ġwh en
ar t
Ġu n
Ġc on
Ġlo ve
Ġd ay
Ġwh o
p e
ou n
a b
as t
in d
Ġfr om
re s
i f
Ġab out
op le
Ġe x
Ġt im
Ġc om
Ġp l
Ġi f
i ve
ar d
Ġkn ow
q u
Ġpe ople
e p
Ġon e
Ġt e
Ġh ow
am e
a re
Ġn ow
Ġth an
r y
Ġb y
on g
i v
Ġse e
Ġh as
Ġm an
in k
Ġs ome
os t
Ġ /
ic e
Ġb r
h er
Ġb l
' m
w e
it y
w h
Ġtim e
Ġe very
Ġan y
re at
or t
Ġgo d
Ġli fe
Ġa g
v en
um p
Ġh is
Ġw ant
i es
ac e
o b
i p
Ġne w
h ing
Ġf o
Ġ our
Ġg r
g e
Ġgo od
a p
w ay
Ġm ore
Ġs p
Ġwor k
Ġs ay
ic k
os e
at ch
Ġne ed
Ġha pp
Ġth ere
e ar
Ġ )
us e
Ġs a
p l
u d
Ġc l
Ġ =
i a
Ġth ink
Ġthe m
Ġfe el
an s
Ġ (
e m
o y
ou s
Ġ 4
ing s
Ġd id
Ġ qu
Ġof f
Ġ 3
Ġ en
Ġc o
Ġc r
el f
t ing
Ġa f
u ck
as s
ow n
id e
Ġon ly
u e
in e
th e
Ġi m
Ġbe c
Ġwh y
Ġa r
i b
ou gh
Ġbe en
a use
Ġthe ir
Ġb ack
oun d
Ġd r
Ġf a
Ġto day
al k
Ġh er
u re
is h
Ġh im
Ġg ot
Ġo ver
t o
Ġw ould
Ġm u
i re
Ġsh e
Ġne ver
d er
Ġm ake
Ġy ear
Ġg u
e k
Ġe ven
n ing
it e
f f
Ġtr ump
Ġh ad
Ġ ke
Ġre s
Ġs c
Ġd is
Ġlo ok
v ing
Ġgo ing
t r
s o
m ent
Ġm o
h a
Ġdo es
Ġ ;
t s
en ce
Ġw ay
ac h
u b
Ġmu ch
Ġst ill
Ġo th
Ġl et
Ġa ct
Ġre al
Ġthe n
Ġthan k
o g
Ġw atch
Ġg reat
s h
Ġa d
as e
op e
Ġr ight
ag e
Ġt w
Ġwe ek
u p
c c
Ġsh ow
ll ow
res s
Ġag ain
Ġp o
f ul
Ġre ally
i z
Ġpl ay
Ġbe l
i le
' re
Ġbec ause
i end
Ġbe ing
Ġs m
Ġwor ld
Ġc all
b er
a z
Ġb et
Ġs er
h e
Ġsh ould
s elf
n e
0 0
ac t
Ġto o
Ġh el
c i
Ġe m
ou ght
Ġw on
om et
an ce
or d
a h
is s
ot her
a it
Ġb o
th ing
Ġaf ter
way s
u ll
Ġl ast
Ġw r
an g
ak ing
Ġth r
Ġbel ie
Ġb est
' ve
m y
at h
Ġr o
Ġ 5
Ġp re
Ġhel p
we et
p t
Ġm ay
Ġtr y
Ġd own
Ġt ake
v es
Ġh ope
re n
pe ct
Ġke ep
ir st
Ġc ould
or r
Ġal ways
Ġf l
Ġfo llow
Ġst r
oun t
ot e
i ly
n a
a ve
Ġfr iend
p er
ad e
Ġp h
Ġsome one
ion s
Ġp ers
Ġs omet
it t
a w
Ġn ight
wh en
Ġc ome
x t
Ġat t
o c
0 1
Ġe ver
re e
or y
Ġth ings
Ġst op
Ġa pp
os s
Ġw ait
Ġb ig
ab le
Ġt alk
ad y
Ġm on
Ġb ad
is e
b e
Ġu r
i ld
ak es
o f
Ġhapp y
n ess
Ġst art
in t
el y
ar y
Ġf irst
m s
Ġoth er
on d
l i
ir l
Ġgu y
Ġs pe
Ġin to
Ġit s
p r
as on
Ġw ere
Ġf uck
Ġre m
er ic
Ġpers on
w n
v ed
Ġ *
Ġwh ere
Ġ end
ib le
i ous
Ġsu pp
Ġman y
Ġ 7
Ġp er
f t
Ġg ive
f or
ar k
Ġp ut
Ġ1 0
Ġh o
Ġf ind
Ġth ing
i ed
ic h
Ġday s
Ġbelie ve
Ġin s
Ġh ere
Ġp art
Ġf in
ur n
Ġbet ter
i an
a il
Ġf am
Ġwe ll
en s
Ġw om
Ġte ll
Ġi d
n y
al s
g et
Ġl ong
o od
le ase
Ġwor d
Ġd es
Ġ very
Ġ 9
Ġm us
a u
ic t
Ġsomet hing
o ck
Ġm ost
Ġth ose
f ore
y ou
Ġm in
Ġdid n
re am
t y
Ġc ar
Ġch r
Ġf un
Ġb u
Ġm om
id ent
at ed
Ġli ve
Ġre p
Ġw in
Ġm or
Ġhe art
at ing
al th
Ġt er
Ġh ard
Ġh ome
ig n
Ġam eric
Ġp res
Ġsa id
Ġin d
ot h
Ġth ought
Ġas k
Ġo ld
Ġ1 2
Ġo wn
Ġp ol
es us
Ġre l
Ġh ate
Ġtr u
Ġdoes n
Ġch e
Ġg irl
u g
Ġthe se
Ġnot hing
Ġs ame
l o
Ġg ame
Ġs ad
' ll
Ġm ed
v ice
Ġne xt
Ġbe fore
Ġ 0
as h
Ġ ve
Ġe l
t e
an ge
Ġj o
i gh
od y
Ġyear s
Ġt weet
Ġ 6
b r
Ġm ade
Ġk id
Ġa w
Ġc are
Ġp lease
Ġm iss
Ġpr ay
Ġj esus
v ie
Ġd one
ul t
Ġo p
Ġh um
Ġm ind
itt le
Ġa cc
f er
Ġin ter
Ġdo ing
Ġr un
an k
Ġte am
in ess
le ep
Ġg l
Ġsh it
Ġs in
Ġe ar
Ġ $
Ġthr ough
Ġchr ist
or s
is m
Ġl ist
Ġb re
Ġl ittle
ow er
it ter
one y
Ġfam ily
Ġc ount
Ġo b
on s
Ġget ting
Ġm at
g r
Ġk ill
Ġh our
Ġpr o
Ġm ust
Ġh and
ct ion
o ol
Ġa way
Ġp ay
Ġde c
Ġt on
j ust
Ġre c
am p
Ġpr ob
Ġevery one
m e
Ġs l
it ed
Ġan other
Ġj ob
ic al
u ally
Ġhapp en
Ġter r
at her
Ġas s
Ġre ad
Ġy es
Ġcom p
n ot
Ġl ot
Ġ 8
it ch
Ġd el
ar s
Ġle ad
Ġs ch
Ġe v
Ġcom m
Ġb us
l es
Ġm akes
Ġsu re
Ġs un
i x
Ġy et
Ġch ild
Ġg iv
Ġnew s
Ġwh ile
im e
ou se
Ġevery thing
Ġthank s
m an
i ver
Ġfriend s
Ġtry ing
Ġcon t
at s
l ess
Ġst ay
Ġex c
Ġch ar
w ard
Ġmor ning
ic s
Ġin c
Ġse c
r a
Ġ z
Ġlo l
Ġm ar
Ġto m
Ġle ft
us s
Ġsu ch
Ġm oney
Ġin st
Ġton ight
er t
d ers
Ġwh ich
Ġfa ith
a pp
Ġany thing
Ġam az
r o
Ġbl ess
re d
Ġs leep
Ġus e
Ġatt ack
Ġhe ad
Ġbo ok
Ġm ent
Ġsupp ort
Ġ %
Ġmon th
ou d
a v
sh ip
Ġim p
Ġal so
Ġst and
u es
ci al
Ġpe ace
Ġ x
ud e
Ġd if
at er
Ġf ight
Ġa c
Ġtw itter
f r
orr ow
w or
01 7
Ġf ace
Ġtw o
it ing
a ut
Ġcount ry
Ġar ound
Ġs ur
Ġk ind
Ġl ost
Ġha ving
ar n
Ġany one
Ġwith out
Ġw alk
Ġhe ar
Ġwatch ing
Ġl ord
a x
Ġc le
Ġch ange
Ġde f
i al
ter s
Ġwr ong
Ġt urn
Ġw ish
Ġb oy
Ġs ing
ut e
Ġyour self
Ġtr ust
Ġh igh
Ġme an
g er
Ġres pect
Ġoth ers
Ġtr ue
Ġtru th
ire d
it s
m a
Ġs elf
fe ct
Ġg on
Ġ +
Ġsin ce
Ġfeel ing
Ġp ass
Ġwom en
Ġguy s
Ġo h
ent s
o ke
id ay
em ber
b o
et s
at es
Ġlist en
Ġs it
Ġh ur
n er
re ady
or ry
u al
Ġ ~
Ġh ouse
Ġw ar
Ġen ough
y ing
Ġfa il
ation s
Ġmus ic
iz e
Ġp ower
Ġf ree
i o
Ġd ream
wh at
Ġtim es
Ġf ull
Ġb ir
Ġis n
Ġpres ident
Ġcom pl
are n
Ġhe alth
Ġser vice
Ġel se
Ġgon na
Ġop en
Ġo k
Ġre f
am a
Ġpl an
w s
i k
Ġun ders
Ġs k
Ġkid s
ve l
Ġsch ool
f l
Ġamaz ing
n o
Ġh on
Ġwon der
ll e
Ġsay s
i ence
a ff
Ġbe aut
Ġtom orrow
Ġl os
Ġ ent
j oy
Ġp ost
al e
Ġs y
t and
Ġact ually
a f
Ġmy self
e ver
Ġb ab
en c
d on
t il
Ġp os
Ġde m
g o
l ed
Ġ1 1
Ġagain st
Ġre st
Ġm aking
Ġn ame
ce pt
li fe
Ġwh ite
Ġc our
Ġp ain
Ġf ar
Ġ: )
Ġcl ass
Ġre ason
Ġ ed
ou p
Ġch o
Ġy e
Ġal ready
Ġph one
i et
Ġb oth
Ġs n
' d
Ġunders tand
ot t
y s
b ody
Ġterr or
ub l
in s
Ġun til
c o
Ġle g
Ġpl ace
Ġp pl
Ġcon s
Ġe ur
Ġcom ing
Ġse en
Ġs ong
Ġe le
au ght
b s
it ion
Ġfe ar
im es
ust om
Ġre t
Ġhe ll
Ġs ou
Ġg en
Ġ es
Ġf an
ist s
Ġs w
r i
Ġlook ing
Ġbl ack
Ġhum an
am es
Ġe p
Ġde p
Ġfe w
Ġ et
Ġr ac
Ġto ld
a ir
d o
Ġn or
Ġm ag
Ġdon t
Ġpol it
Ġfa v
Ġmed ia
u c
l ing
Ġm en
th is
for m
Ġin v
Ġf il
um b
at t
b y
Ġse ason
Ġrem ember
wh y
en se
Ġdif fer
Ġcon f
h ow
Ġle arn
e ad
Ġb ed
Ġc e
Ġl ess
Ġcon tr
g n
cc ess
Ġprob le
Ġword s
Ġbre ak
Ġ2 0
Ġc ustom
Ġins p
Ġe as
b all
i er
Ġm a
Ġhour s
an c
Ġm ess
Ġbir th
an e
Ġre g
Ġid e
Ġs et
Ġs orry
Ġf re
Ġameric a
Ġwork ing
Ġmo vie
Ġs ick
Ġun der
Ġs im
us h
Ġe y
ou b
Ġsa w
Ġho ld
Ġv ote
Ġneed s
Ġwho le
Ġmom ent
Ġd am
Ġh orr
Ġa p
s w
on t
Ġwor st
Ġs at
Ġp ast
Ġus ed
Ġst ory
Ġc ry
Ġpr om
p h
Ġp s
l and
Ġsu ccess
Ġcall ed
Ġv ide
ol og
Ġf ound
c r
Ġl a
ubl ic
Ġen joy
Ġw ent
if ul
Ġment al
Ġc ause
Ġe ach
en e
Ġor der
Ġbr ing
Ġb as
Ġi r
Ġt v
Ġm ight
Ġmat ter
l im
Ġqu e
are d
Ġad d
or n
Ġp a
Ġp ar
Ġres p
u ff
Ġr ub
m er
Ġweek end
Ġj e
ver s
an y
Ġn ice
o ve
Ġcom es
Ġle ave
r s
Ġwom an
Ġsu per
al f
j e
is ion
Ġsay ing
Ġp at
i ans
Ġstr ong
ious ly
Ġfuck ing
Ġf all
Ġar t
Ġwait ing
Ġst ate
Ġso on
Ġpo int
Ġf act
od e
Ġs al
az y
Ġgr ow
it er
Ġmo ve
Ġme m
Ġis s
Ġd a
Ġon ce
Ġde ad
m ore
ot s
Ġc ur
er n
ation al
Ġto p
Ġche ck
Ġpr oud
c on
Ġc re
t a
Ġbeaut iful
an n
Ġh ar
os ed
1 7
wor k
oc r
m ost
Ġd ad
Ġqu ote
tr ump
Ġtalk ing
Ġpre t
Ġex per
Ġs end
Ġag o
i fe
un ch
m ed
Ġp ot
Ġsh o
h o
d om
Ġfo od
lo ve
Ġh it
Ġre d
Ġf ake
Ġbab y
Ġget s
Ġg b
Ġp ur
Ġm ot
Ġexc ited
Ġbirth day
Ġv ot
al d
Ġli ght
m in
Ġb ar
Ġr a
Ġwant s
Ġqu est
Ġdo g
Ġs ound
Ġgu ess
is ed
Ġth ough
Ġf ut
n g
Ġw ow
Ġse x
Ġspe ak
Ġt y
Ġmay be
Ġab s
Ġst ud
Ġc or
Ġg re
get her
Ġpos it
Ġf ans
Ġt aking
il ity
Ġam p
n ow
s el
Ġtr ain
Ġal one
c an
Ġan n
an na
Ġme et
Ġinst ead
Ġt reat
Ġc a
Ġro om
Ġf ore
Ġ q
Ġs ign
Ġ1 00
Ġc ad
Ġh ot
Ġmus lim
Ġex pect
l am
Ġkn e
re t
Ġm id
th ere
Ġst e
Ġb ill
es ter
Ġst ep
Ġpo or
Ġh alf
op p
Ġan sw
c us
Ġfut ure
c l
g y
Ġli ving
ar ing
m as
Ġde al
Ġbu y
l ine
ur ing
Ġus d
Ġ1 5
Ġweek s
t on
Ġa ir
Ġv al
Ġv o
Ġpart y
2 017
c om
Ġl l
Ġre ady
Ġde ath
Ġall ow
Ġi gn
ut es
ir it
Ġbl ock
Ġthink ing
h n
Ġfo ot
Ġl aw
Ġf ire
Ġbe g
t f
Ġgb p
Ġg one
ou ch
up id
Ġc ny
Ġto ok
Ġab le
i pp
Ġc ame
Ġto gether
Ġb c
re ad
Ġex p
Ġs on
ond on
Ġsun day
Ġplay ing
Ġle ast
Ġp ick
Ġ3 0
Ġfr iday
th at
au gh
Ġha ven
o int
Ġen g
Ġwor th
iv ing
Ġchild ren
ith er
g od
ha pp
Ġr uss
re m
it ies
Ġv ict
Ġf ac
Ġlook s
Ġb ull
u ct
Ġc reat
Ġm il
Ġ2 01
Ġhapp iness
Ġa v
Ġsou l
k s
Ġ: (
Ġto t
at ive
Ġpr op
Ġgirl s
Ġdam n
Ġbec ome
Ġli ves
Ġus a
Ġst upid
Ġw anna
Ġan g
al m
Ġdes er
Ġb it
Ġ1 9
Ġp aren
Ġhe ard
Ġmonth s
Ġm ad
f o
Ġp oss
Ġfin ally
Ġsm ile
Ġh u
Ġdiffer ent
un d
Ġs um
Ġj oy
Ġc ut
Ġs ide
Ġbless ed
Ġo pp
Ġd est
Ġm et
Ġb b
Ġwant ed
in es
Ġgo es
er ing
Ġm ill
ort s
Ġl ondon
1 6
Ġch ang
Ġl ose
Ġ >
he alth
Ġsing le
Ġl augh
if t
Ġcont in
ne y
sel ves
ar r
Ġso cial
Ġex pl
Ġwas n
Ġcompl et
Ġsec ond
Ġbus iness
wh ere
ie f
Ġvide o
fr iend
Ġal most
Ġsh ame
Ġw is
Ġme ans
Ġlo ved
je ct
Ġsp irit
t od
Ġcan not
el ess
on es
ent ion
Ġs ir
l et
Ġis lam
g ot
Ġc ol
Ġmin utes
Ġhon est
Ġb ody
Ġl uck
Ġpr od
ab ly
Ġsim p
Ġy a
c ome
Ġproble m
Ġany more
es ome
t ime
Ġper fect
Ġsu ck
ore d
or ies
Ġ2 017
Ġco lle
Ġe at
Ġfor get
ug g
Ġcould n
el s
Ġbe h
Ġfo cus
Ġl ate
i or
ok en
ic es
Ġd oub
Ġfil m
ol ut
n d
ard s
ment s
Ġimp ort
Ġst uff
Ġsee ms
p s
Ġtr aff
ig g
Ġsu b
Ġl ine
Ġide a
Ġd ark
ur s
Ġce le
Ġwatch ed
Ġameric an
Ġfun ny
Ġcan t
Ġdis app
Ġcon c
w r
Ġcr azy
Ġtr ans
Ġv i
y m
Ġpret ty
Ġin t
Ġposit ive
Ġyes ter
Ġr id
ur ch
y our
u res
el t
Ġyester day
Ġw ake
Ġrel ig
Ġr u
Ġhur t
Ġpr of
ll ing
i el
c al
Ġan x
s ide
Ġb all
Ġp ath
Ġt ired
Ġyou ng
Ġn et
Ġg ave
Ġd ie
Ġd ue
Ġfav or
Ġco ver
Ġcustom er
Ġtraff ic
Ġm ark
Ġt ick
Ġb itch
Ġfor ward
Ġco ol
Ġgiv ing
tod ay
Ġhappen ed
Ġcontr ol
b l
ll y
d ing
Ġl ow
g ood
op s
d e
Ġsee ing
e very
Ġtweet s
at ely
Ġan t
g est
Ġdr ink
Ġaw esome
un g
iet y
al ity
ish ed
Ġsu ff
ir d
we en
Ġtru ly
we ll
s p
i ent
Ġbr o
iz ed
Ġso l
o h
Ġ @
Ġre ce
Ġmot iv
ion al
f c
Ġd uring
Ġgr oup
Ġ er
w atch
Ġinter n
Ġc ap
Ġd et
ic ally
Ġus ing
Ġh y
b ack
t en
Ġm other
Ġst ress
d le
ant s
ac y
vie w
Ġgl ad
Ġh ill
or m
Ġcle ar
Ġmag a
Ġde ep
Ġt ax
Ġl iter
us ed
Ġon es
Ġw ater
Ġinsp ir
Ġj ud
Ġu k
u z
ert ain
Ġsp end
Ġimport ant
Ġg e
Ġde v
Ġf ix
Ġsh ort
Ġj our
Ġt akes
Ġbu ild
Ġlead ers
r ic
Ġh ist
Ġey es
ak en
3 0
Ġrel ation
Ġansw er
Ġknow s
Ġc oun
Ġha ha
Ġser iously
s ome
o ff
e ch
Ġshow s
Ġbet ween
r am
c are
m p
Ġw tf
le as
bo ok
Ġsm all
Ġbeh ind
pe ople
Ġmon day
Ġob ama
Ġv is
Ġm er
Ġe ither
he y
Ġcele br
is ter
Ġt est
Ġh ol
g th
iv es
m on
f ort
Ġthought s
Ġd ist
Ġg un
Ġm s
Ġli es
Ġsh are
Ġp ublic
Ġac cept
Ġr ain
u th
Ġdis c
s et
Ġep is
1 0
Ġi ll
Ġn at
Ġem ot
Ġcl ose
d y
Ġw ed
Ġask ed
Ġrelation ship
Ġt al
Ġjo hn
n t
Ġstart ed
Ġo m
d s
Ġacc ount
ot es
Ġem ail
Ġp ak
Ġ1 3
Ġt ren
Ġm as
Ġjo ke
Ġf ather
Ġoff ic
Ġli k
Ġli ber
Ġwor se
iver s
om b
Ġquest ion
Ġfeel s
ag ed
aught er
if ic
Ġn a
Ġli e
Ġn y
Ġchrist ian
Ġbl ood
Ġd iv
e x
Ġpol ice
Ġsh out
Ġro ck
f in
Ġh op
Ġp m
v ies
Ġim ag
Ġcon st
Ġm is
h i
Ġle vel
t ed
Ġs ent
Ġhand s
he ad
Ġreal ize
Ġinter est
Ġvo ice
t ly
Ġs il
Ġear ly
l er
Ġcon d
id er
w ith
d en
id ed
Ġcomm un
Ġb ur
h ip
in c
Ġgen er
Ġliter ally
Ġdep ress
Ġind ia
1 1
s er
Ġear th
Ġv s
Ġkne w
Ġde b
Ġthr ow
Ġprob ably
Ġ est
Ġrun ning
Ġk ing
it ude
Ġd ire
Ġmental health
o o
Ġexper ience
Ġfr ont
Ġf ly
Ġad v
Ġv ie
Ġd en
Ġm ass
Ġvi ol
Ġha ir
h am
Ġrac ist
Ġye ah
Ġw ind
Ġkill ed
Ġl ater
Ġ1 8
ou th
Ġdem ocr
ren gth
Ġgiv en
m it
Ġg ames
Ġev il
th ank
Ġeas y
Ġr ather
Ġr ad
Ġb ible
ar ch
et h
Ġcle an
Ġf ak
Ġ1 4
un k
Ġch ance
Ġhist ory
Ġsc re
g u
Ġpray er
i ke
Ġwould n
Ġlisten ing
c y
Ġsho ot
Ġd i
Ġp et
Ġgo p
Ġ _
f ull
Ġoff ice
g an
Ġpr og
Ġc ity
a i
Ġm ur
Ġ4 0
Ġid i
Ġtr ave
Ġare n
ist an
iv ed
id ence
2 0
ure d
Ġread ing
Ġne ar
Ġst rength
Ġro ad
Ġw ife
g ed
Ġfoot ball
Ġf it
Ġm od
Ġ1 7
Ġwe ak
Ġparen ts
Ġfl ight
ul ar
Ġsur pr
Ġda ily
Ġwr iting
Ġc amp
Ġbe at
or ing
um ber
Ġdest r
Ġm atch
happ y
Ġp ress
Ġpr a
Ġbr ain
Ġet c
Ġex t
Ġst ar
re ci
a im
et ry
n ight
Ġt ill
Ġanx iety
Ġlos er
n ed
Ġh at
Ġtr ied
Ġr ip
Ġpot us
o ver
m al
Ġar r
Ġ2 4
op h
Ġsa fe
u k
Ġdef in
Ġrep ly
id es
Ġ1 6
g ing
le v
Ġfore ver
Ġlong er
Ġf ill
qu e
Ġ5 0
Ġc ent
ate ful
Ġpr ote
Ġsomet imes
j or
Ġsa ve
b and
in a
olut ely
et y
Ġplay ers
Ġsum mer
Ġpa id
Ġph ot
Ġcho ose
ur day
Ġhu ge
Ġc ard
Ġwor ry
Ġch urch
c a
Ġr ob
Ġle a
Ġrem ind
Ġem b
olog y
Ġp ict
Ġbo x
it al
Ġsh all
Ġp ie
Ġspe cial
Ġcall ing
Ġw all
is ing
Ġhe y
Ġout side
Ġameric ans
Ġrelig ion
Ġc ow
c le
Ġk ick
Ġdisapp oint
Ġ12 8
Ġret urn
Ġs we
ct or
s on
pl ay
ver n
Ġapp reci
Ġp op
Ġp ull
iel d
Ġt ur
Ġchrist mas
Ġbr oken
Ġ2 5
fe e
Ġreal ity
Ġres ist
wr iting
ang er
Ġgot ta
iv ity
Ġjo in
Ġst ore
Ġdo or
Ġgiv es
Ġn ational
ct ed
ag es
Ġcan c
ip s
et ic
Ġepis ode
Ġa ch
Ġb reat
Ġs ense
n n
Ġwis dom
Ġwork s
Ġe qu
Ġmo vies
Ġvict im
m ing
ur y
Ġfavor ite
Ġp ark
Ġruss ia
at or
Ġiss ues
Ġsh ut
full y
h ad
Ġb ag
Ġcour se
r ied
ra id
Ġdr ive
Ġh i
Ġl ady
c es
Ġag ree
ed om
le y
Ġm ic
g as
Ġgr and
ll ed
Ġhorr or
ok ing
Ġco ld
Ġa ut
Ġdeser ve
Ġgr ace
Ġco f
p m
Ġsat urday
st r
Ġm r
Ġatt ention
Ġins ide
Ġl oss
Ġspe ech
Ġy r
em ent
Ġneed ed
Ġm ain
Ġl ack
Ġm ist
Ġex act
Ġh om
Ġent ire
Ġa in
Ġt ouch
Ġele ction
Ġm outh
ow s
Ġtal ent
Ġgr ateful
Ġper form
Ġt aken
Ġpro v
g ust
Ġs weet
Ġw el
Ġn b
c ast
Ġn umber
Ġmid dle
Ġrep ort
Ġabs olutely
ir t
s omet
Ġr ich
Ġc oup
Ġcur ren
Ġma jor
Ġhapp ens
Ġin te
Ġbe y
st em
Ġsh ock
Ġsm h
Ġ Ċ
Ġte ach
Ġpur p
Ġposs ible
d id
Ġtren d
Ġp an
Ġs en
ul ts
ci ally
Ġplay ed
Ġgo vern
Ġchar ac
Ġaf raid
im in
Ġst re
ub e
s u
Ġmiss ed
Ġp u
Ġd m
ll s
Ġh ang
Ġho ly
enc y
Ġfre edom
Ġsee m
Ġiss ue
Ġn on
Ġhill ary
Ġdream s
Ġrec ord
t w
Ġd ude
Ġcof fee
Ġbeg in
Ġno body
un e
ust r
y a
an a
es e
ill e
Ġfollow ers
Ġpolit ical
ch ester
Ġact ion
Ġwr ite
Ġp ack
Ġwith in
Ġcl aim
Ġcour age
Ġtell ing
Ġ4 5
Ġc ost
b le
ward s
Ġke y
Ġc atch
Ġup d
Ġf elt
Ġn ation
Ġf ast
Ġch amp
Ġre qu
b re
ke y
Ġfollow ing
Ġd at
up t
Ġd ied
Ġth ree
if ied
j o
Ġb an
Ġfin al
Ġcho ice
Ġth er
Ġstr ugg
un t
Ġsit u
Ġom g
Ġwor ship
Ġe ff
Ġpo etry
Ġf b
Ġdestr oy
Ġli f
all en
ain s
Ġso ld
Ġal b
Ġcall s
Ġcom ment
Ġ |
er gy
p ed
n es
f a
Ġfe ed
Ġsn ap
Ġa h
Ġhol iday
ad a
ur ity
re st
Ġ ver
Ġa k
1 5
Ġd umb
Ġd in
Ġbr other
Ġsupp osed
Ġsl ow
end ing
Ġevery day
r or
a ven
Ġw est
Ġm ine
Ġsit ting
it es
Ġpres ent
s c
Ġbus y
Ġr om
Ġinc l
Ġcon ne
1 8
Ġre pl
Ġwhat ever
Ġm ir
Ġsy stem
m or
Ġcomp any
Ġgo v
Ġdis gust
Ġc at
Ġr ace
Ġinspir ation
is es
Ġst aff
ag ue
Ġmotiv ation
Ġb ank
Ġfor g
Ġl ab
Ġknow ing
Ġb ought
Ġhim self
Ġfo ol
Ġd aughter
Ġc red
Ġcry ing
er v
li ke
Ġthem selves
Ġf ol
Ġth reat
Ġemb arr
d r
Ġok ay
Ġg ym
Ġyou t
b el
Ġam writing
Ġg ift
Ġte ac
Ġcontin ue
Ġb en
Ġboy s
Ġcl os
af ter
Ġprod uct
Ġ [
Ġsc r
Ġl u
th ought
Ġne g
Ġdif f
m o
l a
Ġattack s
Ġl and
Ġcoup le
Ġhe al
Ġed uc
ay s
is on
Ġembarr ass
Ġqu ick
Ġp en
Ġc am
in y
Ġrep ublic
Ġpak istan
Ġon line
er ed
Ġign or
Ġc ase
Ġl as
Ġqu otes
Ġal ong
Ġmiss ing
Ġb i
ess ion
Ġre pe
Ġtot ally
Ġtr ip
Ġalb um
Ġmur der
in ed
Ġask ing
Ġpolit ics
wh o
ne w
opp ing
Ġinv est
Ġgo al
Ġplay er
e en
watch ing
th em
el ing
somet imes
Ġag e
Ġgo als
Ġf at
Ġes pe
Ġsc ared
Ġc uz
Ġstr a
Ġwe ird
Ġmess age
Ġte ch
Ġlead er
Ġof ten
Ġproble ms
Ġte xt
Ġis is
Ġdes p
Ġp ap
Ġp iss
Ġbig gest
p ort
Ġt our
Ġtrave l
Ġstra ight
Ġturn ed
Ġex ist
ro om
er y
Ġpr oc
Ġcl ub
Ġb ud
Ġin n
Ġf ig
Ġsh ot
or k
Ġstart ing
if y
at ter
Ġsp ent
or ge
Ġo pt
Ġlo ving
tr a
Ġcr ash
r ight
ha ve
Ġev ent
Ġre ach
Ġlos ing
Ġdisappoint ed
Ġespe cially
Ġm i
Ġcompl ain
Ġh us
Ġgreat est
Ġr ound
Ġcon v
Ġd ate
w ow
att ack
Ġexact ly
Ġmin s
e y
Ġintern et
Ġmo ving
g es
Ġexpl ain
Ġcon gr
iz z
er o
Ġc ult
1 3
y le
pl oy
led ge
c ed
Ġn fl
ap s
Ġwonder ful
en ing
Ġcolle ge
Ġthr u
Ġc up
Ġmuslim s
Ġthank ful
1 2
4 5
Ġte x
am s
Ġhappen ing
ues day
Ġsupp or
Ġbey ond
v ille
ie ve
Ġc orr
Ġim m
Ġc al
Ġ2 00
Ġsp o
Ġn igg
Ġimag ine
on se
Ġl ying
Ġte ars
res pect
Ġop in
on y
enc es
Ġey e
Ġfor m
Ġsee k
Ġen ergy
Ġser ies
Ġmill ion
Ġm c
Ġher o
Ġsu ic
Ġc op
Ġvie w
y r
Ġhe aven
Ġf ant
uck s
Ġwalk ing
y al
Ġsimp le
Ġthink s
Ġgo ld
Ġsp r
ch at
Ġcustom ers
Ġsp read
Ġf ine
don ald
Ġpray ers
4 2
Ġch allen
Ġco ach
Ġleaders hip
ail s
Ġli ar
o id
Ġterr ible
Ġkeep s
1 9
Ġc ertain
Ġterror ist
Ġpra ise
Ġlove ly
and om
us es
Ġ ]
Ġc ir
m m
Ġwin ning
Ġfight ing
Ġa uth
Ġin j
Ġg h
Ġlo ves
Ġkill ing
Ġl ad
d own
Ġprote ct
Ġpre p
ul ous
Ġchar l
Ġw it
Ġfeel ings
Ġdon ald
i est
Ġpurp ose
Ġso ci
urs day
Ġsou th
y ch
Ġb ott
Ġth o
Ġs ort
Ġt ough
Ġapp ro
Ġen c
Ġcr ap
s a
Ġpr act
i ant
Ġfin ished
b ers
Ġd om
it ely
Ġman ag
Ġall ah
e ll
Ġtick ets
Ġshow ing
Ġp ush
Ġe ating
Ġb ow
d ear
Ġresp onse
Ġleg end
Ġpath etic
g a
Ġhus band
ic o
Ġbl ame
Ġfa ir
Ġtr ack
Ġdel iver
Ġviol ence
Ġj ump
Ġjour ney
e e
Ġhy p
ent ly
ut ion
Ġun ited
Ġso o
pe ach
Ġpr iv
Ġr ap
er vice
pr ob
Ġp leas
Ġperson al
Ġidi ot
Ġj u
Ġsuck s
Ġt en
ig r
Ġang ry
s ter
Ġn one
ip t
Ġman chester
Ġh or
Ġresp ons
j a
Ġwas te
Ġnor mal
Ġs us
Ġbec om
Ġbook s
Ġ2 1
Ġdoub t
Ġk ar
le ct
act ion
h um
Ġlot s
Ġcre ate
Ġyout ube
ur al
p re
Ġwe ar
sh it
i res
end ed
l ight
f fect
anc es
Ġsk y
u el
r d
Ġgovern ment
Ġb urn
Ġsitu ation
ed ay
Ġface book
Ġchang ed
Ġhon or
Ġway s
4 0
Ġinter view
Ġann oy
ene ws
and s
Ġfac ts
Ġm um
Ġst uck
f ord
os p
Ġlo ck
in ts
Ġbr oke
Ġblock ed
Ġser ious
oth ers
Ġlo g
Ġsimp ly
Ġpr ot
Ġch ick
Ġim peach
Ġcr oss
Ġs ister
Ġthat s
ha ha
Ġw oke
l ist
Ġc it
Ġb ath
Ġob v
Ġan im
Ġjud ge
Ġput ting
Ġk o
Ġnor th
ug s
Ġpie ce
Ġst ream
Ġsu g
im ate
Ġsong s
Ġb orn
Ġo ct
Ġ128 5
Ġc nn
nes day
Ġfam il
or der
Ġt uesday
gr ace
g ress
Ġal ive
Ġst ick
iv al
ict ion
Ġpol ic
Ġhealth y
as ed
Ġmin ute
Ġa ud
Ġc y
Ġmo od
Ġch ill
Ġappreci ate
Ġdefin itely
as ter
Ġy rs
Ġme ant
Ġ2 2
Ġd ress
Ġlo yal
g irl
Ġup set
v al
Ġj ack
Ġsound s
Ġth ursday
Ġg ay
Ġcomplet ely
. .
Ġse ll
cr ib
b ut
Ġcomplet e
Ġrac ism
Ġhorr ible
Ġsec urity
ph one
Ġc ast
Ġsp orts
b oy
Ġdiff ic
p ol
Ġps ych
Ġlea ving
ed s
Ġl ink
le x
Ġap olog
ch e
p res
Ġconst ant
Ġb att
Ġl on
on ic
2 01
Ġwel come
Ġyour s
Ġcharac ter
Ġh r
igh b
Ġbl ue
res h
Ġty pe
Ġfol ks
et her
mor ning
ast ic
p et
ort un
Ġp od
aren tly
Ġex cept
Ġb a
Ġacc ident
Ġen em
Ġsk in
Ġvot ed
Ġtot al
o or
Ġsm art
Ġstart s
Ġu g
Ġb ase
f s
Ġsur v
w as
Ġhear ing
Ġlook ed
y e
Ġrel ax
Ġdin ner
ar m
1 4
Ġto wn
Ġem p
Ġstop ped
Ġment ion
am ing
Ġwe ather
u ce
Ġpl ac
Ġd ir
i um
Ġsec ret
ne ver
Ġg ar
Ġwe ight
Ġab t
Ġb oss
at ic
Ġshould n
Ġu t
o le
Ġnot ice
Ġpre v
Ġl ane
Ġv ac
lev ision
Ġf al
Ġl at
Ġch ann
ok ed
Ġr is
ap h
Ġfin ish
Ġha llow
Ġfak enews
Ġl oud
Ġqu ite
Ġdiffer ence
Ġopp ortun
Ġa head
Ġbas ed
Ġy o
Ġdr op
Ġcommun ity
g re
Ġdepress ion
re ct
Ġup on
Ġex tra
Ġfo x
Ġind ian
Ġproc ess
Ġr andom
ot ing
Ġcit iz
id ge
Ġcr it
Ġne ighb
ar ning
Ġde ar
Ġsc ream
Ġlo cal
Ġ: -
Ġmeet ing
Ġl ay
Ġtr o
Ġe ffect
Ġbeaut y
Ġb al
th er
Ġlet s
ne ws
Ġfail ure
o om
Ġt it
Ġact ing
Ġresp ond
Ġaw ful
Ġprop er
l ish
c um
Ġdiffic ult
v i
Ġap art
Ġa pr
Ġdec ided
Ġvictim s
Ġcorr upt
Ġt re
Ġvis it
Ġor gan
Ġdisgust ing
4 3
Ġtr oub
b t
Ġfor got
Ġ2 3
Ġhonest ly
Ġd ance
in ce
Ġsy r
re al
Ġjob s
f it
Ġa ug
thought s
w ord
u ction
es h
id ing
r ist
Ġr an
Ġpay ing
Ġem ploy
g s
Ġdec ision
Ġs our
us ing
Ġt ar
Ġm al
ab b
Ġhallow een
in ing
z e
Ġfl ag
Ġinc re
l ast
id s
Ġv ol
Ġcl osed
Ġre v
Ġ9 0
ir m
r oss
Ġknow n
Ġg ain
Ġser v
re w
it ation
an ity
Ġc ute
Ġh ung
Ġsoci ety
Ġwed nesday
Ġboy friend
Ġluck y
w is
n al
w ood
ic ation
Ġstand ing
u ch
weet s
Ġst ories
um e
Ġbl og
Ġoff er
Ġc os
Ġfail ed
Ġu gh
Ġcom fort
Ġrad io
Ġdr iving
Ġcons ider
Ġpict ure
Ġexp ress
Ġh osp
Ġb omb
Ġi ce
Ġr ul
Ġdis grace
Ġp age
Ġps alm
ed y
Ġg er
Ġgr at
Ġqu iet
h ere
Ġp ic
Ġch at
Ġgr ad
ut s
Ġk a
Ġprot est
Ġr h
Ġph ys
Ġant i
lo ad
Ġinn oc
Ġvide os
Ġlik es
Ġsm il
Ġwe bs
ib ly
be ing
Ġact ions
Ġpro ject
Ġb ored
Ġbe ha
Ġdel ay
Ġdire ct
n ers
Ġtell s
am ed
ic le
Ġquest ions
Ġco ll
Ġmil it
ib ility
Ġsp ace
Ġsp ot
Ġpass ion
Ġl ar
Ġhas n
Ġcare er
Ġpl s
Ġgr ound
l f
Ġwe aring
Ġpl us
v s
iz ing
Ġlearn ed
Ġs qu
Ġhyp ocr
Ġcont ent
Ġl unch
Ġbr ought
m ay
of th
ear s
g reat
Ġstre et
Ġcar ry
Ġcr ow
end er
Ġknow ledge
Ġfe m
Ġso cal
Ġscre en
w ill
Ġinc red
Ġac ross
Ġsn ow
Ġgl ory
Ġb t
Ġcan ce
Ġreal ized
Ġe u
Ġbr it
Ġupd ate
Ġdis respect
Ġs and
m ix
Ġeven ing
il t
Ġle ague
Ġsu d
ig in
wor ld
Ġfamil ies
m en
Ġdist r
Ġd anger
Ġbl ind
Ġbre aking
Ġrid ic
Ġhand le
am eric
Ġprog ram
al i
Ġperform ance
Ġcamp a
Ġallow ed
int on
b c
Ġm ix
p a
Ġd ick
prob le
Ġcomm on
5 0
Ġhuman ity
Ġclear ly
Ġwork ed
Ġcomp et
em pt
Ġf ed
ill s
Ġsuic ide
Ġ201 6
Ġp ure
Ġmark et
fe eling
Ġhur ts
Ġst at
Ġtr ash
Ġin fo
te levision
Ġgre en
Ġd u
os h
Ġele ct
opp ed
Ġsuppor ters
Ġhelp ing
Ġsocal television
Ġ vers
Ġcre ep
Ġdr aw
Ġterror ists
Ġw a
Ġpr ice
Ġv ia
Ġinv ol
Ġav oid
Ġhop ing
d d
us ion
Ġem pt
Ġsuff er
Ġpass ed
the y
as k
Ġk iss
Ġs ac
Ġd av
Ġp al
Ġc iv
Ġpl ans
Ġse p
ig er
vel op
Ġterror ism
Ġaf fect
Ġdes ign
e ed
Ġcred it
fer ence
h ood
Ġin form
Ġ â
Ġhealth care
s orry
Ġexc use
d am
f irst
Ġpo ints
Ġto wards
a pe
Ġ6 0
ath y
Ġn d
Ġres ult
th ink
if i
am b
Ġab ove
Ġgrat itude
Ġaw are
Ġrece ive
Ġdr iver
Ġcont act
iv en
wh ile
Ġext rem
Ġprom ise
Ġf ur
Ġse ver
Ġb s
Ġspe aking
Ġteam s
Ġdisc uss
e c
h ar
Ġbr and
t ain
Ġr ude
Ġwill ing
in ation
ist ic
Ġreg ard
Ġfor ce
Ġim pr
Ġfe et
Ġp ort
Ġam ount
g ers
Ġro ll
Ġtw ice
Ġpolit ic
Ġde ms
Ġincl ud
Ġb out
om g
Ġsa f
f un
Ġlo ad
Ġlittle mix
Ġb ene
Ġann oun
Ġauth or
if f
Ġh ost
Ġav ail
er g
Ġp un
Ġjust ice
Ġopin ion
Ġc aught
Ġprog ress
u ge
Ġr ide
Ġsc ary
Ġph il
v ation
Ġle arning
Ġrem ain
Ġfill ed
Ġconc ert
se c
Ġcon gress
Ġval ue
Ġs an
Ġevery body
Ġm el
Ġ user
Ġfav our
Ġf resh
Ġst ates
Ġr ating
Ġfe ll
Ġad min
m ot
go ing
pres ident
Ġbl ow
Ġb and
Ġny c
ter n
Ġcon vers
Ġfind om
Ġn az
e v
co ver
Ġl ang
Ġdes per
Ġpa ul
Ġc ash
ham ed
Ġteac her
an es
Ġre lease
Ġc alm
amp le
c el
ab ility
Ġoffic i
ci ous
Ġun less
4 6
i very
Ġt ast
on a
Ġsh op
Ġpap er
Ġte a
ill y
Ġug ly
Ġs ar
Ġliber al
Ġad m
Ġeff ort
z z
Ġb unch
Ġk ik
Ġ2 7
Ġmilit ary
Ġk i
ma o
Ġbr ings
Ġty p
f ast
u it
ent ial
Ġeur ope
Ġkeep ing
Ġwh ether
Ġ8 0
Ġk h
Ġrece ived
Ġwebs ite
bo x
Ġtick et
Ġcampa ign
Ġkn ock
Ġqu it
Ġgl ob
Ġas hamed
Ġar my
Ġh ide
Ġkind a
Ġst ock
on ly
c ess
Ġx x
Ġturn s
Ġj ames
Ġheart s
Ġneg ative
d a
Ġs ens
Ġridic ulous
Ġcour t
Ġve gas
Ġb oring
proble ms
we ek
Ġd an
Ġte en
Ġor igin
Ġany way
Ġsc ore
Ġnat ure
i od
Ġsome body
Ġapp arently
oss ible
Ġs am
Ġsing ing
ic ed
og n
Ġfig ure
Ġi phone
Ġr ing
Ġcol or
Ġf our
Ġcor rect
Ġnot e
re ally
Ġd ying
f am
Ġse at
Ġmem bers
Ġsuff ering
Ġp ics
Ġn om
Ġcom ments
Ġmean ing
itt en
Ġstud ents
Ġthank you
v ior
fo llow
li er
Ġro le
h ol
ac hing
Ġsud den
Ġbless ings
Ġm ult
Ġdel ivery
Ġf ing
Ġv an
Ġmar ch
com ing
Ġca res
a ud
Ġmo ved
Ġbb c
Ġo cc
Ġspirit ual
ers on
Ġke pt
Ġchar ge
Ġtweet ing
Ġare a
Ġpat ience
all ed
Ġr ise
li x
Ġconf idence
ol ute
o ld
as c
ick et
Ġenc our
Ġpray ing
donald trump
id a
Ġgo lf
Ġan ger
Ġchr is
Ġpower ful
Ġdec ide
and a
Ġbreat h
Ġ ^
Ġb other
Ġshoot ing
Ġd c
Ġinnoc ent
Ġa the
Ġ2 6
Ġres ults
Ġconc ern
Ġh am
i en
Ġsa ved
Ġdog s
Ġp or
Ġlet ting
Ġeduc ation
Ġd ig
Ġbr own
Ġchann el
l ive
Ġign ore
ok es
Ġemot ional
o ved
av y
Ġhosp ital
Ġrep res
Ġinsp ire
Ġright s
Ġwar m
n c
il ar
Ġp izz
Ġsurpr ise
al y
Ġcr ime
er a
Ġwin s
Ġach ieve
Ġcreat ed
Ġst age
Ġde velop
Ġdr unk
ipp ed
Ġbig ger
b u
ak s
f lix
Ġris k
at ure
Ġnet work
Ġkind ness
Ġqu ality
Ġser ve
Ġempt y
Ġexper i
Ġ2 8
k n
itt ed
Ġhold ing
Ġdir ty
f uck
Ġf ield
Ġv ir
Ġdel et
Ġb at
Ġin fl
Ġpo ll
2 5
Ġse arch
ic a
Ġcanc er
al a
Ġour selves
Ġdoub le
al ous
Ġas leep
Ġcurren t
m om
Ġm art
Ġatt itude
ipp ing
Ġprof ess
Ġr ow
Ġn h
Ġcomp ass
Ġimp ress
ch rist
Ġr am
Ġfl ow
mot iv
Ġart ist
Ġreal donaldtrump
Ġh ack
Ġbr ave
Ġpre d
Ġrec ogn
Ġmas ter
s s
Ġpolic y
Ġdr ama
Ġbuild ing
k now
Ġco ok
Ġavail able
m iss
Ġact ual
Ġad mit
Ġcongr ats
Ġphot o
Ġin tr
Ġdo ctor
Ġha i
Ġsw itch
Ġsyr ia
ad o
Ġbl oom
ur ance
Ġe ast
ra el
Ġu l
Ġbatt le
Ġe g
Ġcr imin
ap t
iver se
Ġmist ake
Ġpract ice
Ġgov t
Ġli l
Ġref und
Ġimp ossible
Ġit self
Ġbo ard
2 2
Ġl y
at ors
ag ain
b ow
Ġcl oth
h el
ad es
Ġret weet
Ġabs olute
Ġide as
Ġar g
e z
y o
Ġdet er
w ant
Ġacc om
Ġha ll
Ġopportun ity
Ġciv il
tr ies
b an
as y
Ġam en
Ġbegin ning
Ġsu p
Ġcance lled
v a
er c
Ġbr ight
Ġ; )
ak ed
Ġopp os
Ġtalent ed
Ġbr ill
201 6
Ġc as
Ġn umb
Ġby e
Ġfl oor
Ġw ild
Ġvict ory
air s
ver t
ag ram
Ġm ach
Ġpre m
ha el
Ġreply ing
Ġs is
Ġsil ence
Ġdo ll
Ġh un
Ġnet flix
g l
ak er
Ġdef end
Ġpan ic
x it
Ġgo og
Ġsleep ing
Ġst orm
Ġad vice
Ġfal se
a ft
ens ive
ast y
Ġfind ing
Ġcl inton
Ġlaugh ing
fa ith
g al
Ġwhat s
Ġjour nal
Ġsug gest
w ed
Ġex ample
do es
Ġlon ely
Ġorder ed
Ġswe ar
Ġl mao
Ġrepl ace
Ġhum ans
Ġmar ried
Ġwon t
Ġcoun tries
4 1
Ġshow ed
2 3
Ġfak et
4 7
Ġt un
Ġbull shit
thank s
Ġm ac
en ed
se arch
Ġre leas
Ġtech n
ser vice
Ġgl ass
Ġcrow d
Ġgrow th
v in
are ly
not hing
Ġwind ow
Ġy og
Ġr at
Ġtreat ed
Ġi lle
Ġcan ada
Ġper iod
Ġwed ding
Ġz ero
Ġwas h
Ġpat ri
Ġdemocr ats
Ġsurpr ised
Ġl azy
Ġmill ions
Ġun i
Ġs b
Ġfem ale
r op
em s
Ġconne ct
h ate
Ġex ce
g in
k ing
Ġinvest ig
Ġent ertain
Ġact s
Ġir an
ol ar
oc ol
Ġpiss ed
Ġput in
Ġb le
Ġhow ever
Ġcelebr ate
Ġinte gr
r ay
ve y
he art
Ġf ab
l s
Ġreason s
ful ness
Ġinterest ing
iz ation
Ġmom ents
b a
Ġcult ure
Ġt ag
Ġtar get
h t
Ġignor ant
p d
Ġenem y
Ġw ine
Ġannoy ing
w om
m ar
Ġw at
om y
Ġgod s
Ġd j
Ġfaket weets
Ġpod cast
Ġje alous
sh e
Ġstud ent
Ġstud y
Ġdev il
Ġsh opping
Ġapp le
man y
y an
Ġadd ress
Ġ ess
Ġde fe
Ġhat red
Ġgod is
Ġis rael
b ed
Ġs ig
e ven
Ġl g
b et
Ġtrain ing
happ iness
Ġchang es
Ġmed itation
Ġeng lish
Ġj ul
Ġes p
in o
Ġhelp s
j esus
Ġc ab
Ġcanc el
Ġli ft
end a
Ġear lier
b ab
ag o
Ġdidn t
Ġpizz a
Ġp itch
ub s
Ġnear ly
Ġpict ures
Ġislam ic
Ġdav id
Ġmem ories
Ġt il
am ent
s ad
Ġrepublic ans
Ġas sh
be en
Ġcomm er
i ents
u le
Ġliber als
in st
Ġinst agram
Ġw er
Ġsend ing
Ġstrugg le
Ġfant astic
Ġchallen ge
Ġcomm it
Ġt u
Ġpre gn
Ġcompass ion
Ġnigg a
Ġb ip
Ġres ign
t alk
itt y
Ġserv ices
Ġsh aring
Ġev idence
Ġge orge
motiv ation
6 0
no on
ig s
anc ing
t le
w ait
Ġtroub le
Ġshow er
aw n
hum anity
b ar
Ġs om
Ġbe ach
ib es
Ġsuccess ful
Ġcitiz ens
Ġsal ute
Ġfa ult
k et
Ġp as
m us
st op
l in
m b
Ġaf ric
Ġdep end
Ġdeb ate
t ry
Ġsu bs
Ġdr ag
Ġwalk ed
Ġf m
Ġsnap chat
Ġrepres ent
Ġus ually
ch ange
Ġther es
Ġpl z
Ġchamp ion
day s
Ġn i
Ġhelp ed
h ouse
ord ing
Ġj i
ist r
Ġl anes
Ġplac es
Ġms m
Ġpr ior
Ġcl own
Ġh rs
Ġe con
b ur
us hing
b ing
Ġplan et
Ġcloth es
Ġpr ide
Ġrequ est
Ġchick en
Ġbrill iant
is hing
Ġst ation
Ġcr ack
Ġen v
Ġlo c
Ġdat a
bel ie
ore a
Ġsa ud
Ġab use
Ġfuck ed
and o
Ġsc ience
Ġunderstand ing
Ġgreat er
Ġbo o
ud es
Ġlad ies
Ġacc ess
Ġgh ost
Ġter m
Ġp ed
h en
m ber
Ġn er
Ġab ility
Ġfe llow
Ġlas ve
it ive
Ġpu pp
b est
Ġincred ible
our s
Ġimm igr
Ġm ob
at ul
Ġevery where
Ġfollow ed
Ġhung ry
Ġsour ce
Ġwant ing
Ġsex ual
Ġse m
Ġemot ions
Ġtex as
f il
Ġwor ried
c ot
d is
Ġp ts
v o
Ġcr icket
Ġcurren tly
Ġbro ad
Ġs ite
Ġg ard
Ġru le
Ġmat ters
Ġsac r
it ers
og r
Ġu m
Ġhope fully
Ġtur ning
Ġp uss
any one
Ġsp ort
Ġdesp ite
w ar
Ġco z
Ġw w
Ġam ong
u h
Ġsm oke
Ġinsp ired
an other
Ġj er
ick s
Ġend ed
Ġbe er
Ġn asty
Ġg as
Ġgr own
Ġrul es
h on
Ġlos ers
Ġb ang
sh ine
Ġplan e
Ġar rest
Ġ:- )
s m
Ġsp in
Ġ7 0
Ġso ft
ia h
Ġt or
Ġsch ed
Ġt able
b less
Ġt aught
Ġag enda
Ġaw ake
en n
lo ok
Ġhum ble
Ġcond em
Ġmass ive
Ġfr aud
Ġex am
Ġdrink ing
Ġcow ard
ac ts
Ġinj ured
Ġend ing
m ins
Ġa int
Ġblood y
Ġdis cover
Ġafter noon
Ġruss ian
Ġmir ac
Ġtr ad
Ġeng land
Ġpro ve
ri age
Ġl ately
Ġnight s
ag ing
Ġj an
Ġob s
Ġbel ong
fort un
Ġglob al
iv id
Ġsho es
g iving
Ġang el
ed ing
Ġb ann
Ġloyal ty
Ġch ocol
Ġun iverse
Ġgen u
is f
Ġpro of
Ġyou th
om m
Ġhell o
Ġwit ness
g en
ll ig
Ġs i
os ing
Ġnb a
w ise
ess ions
Ġpos ition
Ġheal ing
Ġre fer
Ġbu ying
app ed
Ġvot ing
Ġair port
is ions
Ġj am
Ġmanag er
Ġvac ation
a ur
u ed
Ġid k
Ġmem ber
i ar
Ġd ump
Ġpr inc
Ġun c
Ġre view
Ġbre xit
Ġsupport ing
Ġwr itten
Ġfr ustr
as ing
Ġopen ing
Ġre search
a way
o on
Ġan them
Ġste al
Ġspr ing
Ġev ents
Ġinte llig
i as
ap y
Ġfall ing
Ġrelationship s
Ġlik ed
ut er
st ill
lly wood
Ġreal ise
Ġgoog le
Ġr out
Ġpar is
an ch
4 4
es ville
j i
Ġwe alth
Ġtr ib
Ġstate ment
Ġbecom ing
Ġn iger
et ime
Ġlike ly
Ġwonder ing
Ġw o
ep s
ep end
Ġpat ient
Ġblock ing
Ġemail s
le ction
Ġsc ene
Ġhur ric
Ġm os
ol ic
Ġreg ret
Ġd ish
Ġbig ot
Ġdes crib
Ġh ind
Ġte m
Ġaccom pl
Ġsecond s
Ġpr os
Ġignor ance
ir ing
Ġd ed
st on
Ġ2 9
i us
Ġbas ket
ivers ity
Ġgener al
Ġme x
Ġpl at
Ġm ount
Ġb es
Ġto il
ho ld
Ġinvol ved
Ġn g
Ġch ap
Ġcrit ic
w ing
Ġcr ush
er al
p lease
Ġli m
Ġque en
Ġdanger ous
Ġte mp
Ġa us
Ġa th
Ġatt empt
Ġmag ic
Ġconf used
Ġvers ion
Ġlang u
th r
im ent
Ġ201 8
Ġmer cy
Ġg ut
Ġo per
Ġg ent
Ġche ap
Ġchr onic
Ġsaf ety
re l
Ġspe c
Ġrun s
Ġre ve
w alk
h as
r ies
Ġconstant ly
Ġgrow ing
Ġrepe at
2 1
Ġn ap
ict ed
by e
olut ion
f act
Ġde ce
Ġd er
Ġid ent
Ġart icle
Ġhot el
Ġw ise
Ġf ired
Ġh ip
Ġintegr ity
Ġz omb
Ġy ay
Ġw al
Ġb on
od es
w ish
Ġto ler
Ġgun s
Ġsil ent
ip le
w in
Ġm ax
Ġsun shine
o v
Ġapp ear
Ġbath room
Ġwe ap
Ġend s
Ġconvers ation
Ġvie ws
Ġdesper ate
Ġleg it
Ġchang ing
Ġcharl ott
Ġfil ms
Ġt at
j ob
Ġpart ic
Ġspo il
Ġpay p
Ġexce ll
Ġhigh er
0 7
Ġc ream
Ġdes ire
Ġex erc
Ġidi ots
Ġad ult
Ġwr iters
Ġdad dy
Ġe go
Ġemot ion
Ġ: \
fr om
Ġfr ance
Ġar m
Ġdr opped
Ġst yle
Ġse pt
Ġcr o
is is
Ġtr ail
Ġl ou
to o
Ġj im
se e
Ġball s
ha ving
Ġus eless
Ġfavour ite
e es
Ġfriend ship
Ġbless ing
Ġs ize
Ġin ner
h r
Ġra pe
Ġbelie ving
Ġm cc
Ġdemocr acy
Ġr aw
Ġtr ait
ad d
Ġdeser ves
Ġval ues
Ġj ail
en al
Ġh ug
r ound
Ġep ic
Ġenjoy ing
Ġdark ness
b ig
y es
i ers
Ġsome where
Ġaf ford
Ġm ale
Ġphot os
in ting
an i
Ġorigin al
Ġany where
Ġstay ing
Ġt iny
p o
Ġor ange
ob er
Ġwork out
Ġm ate
Ġconst it
Ġbott om
Ġwh om
im p
Ġrec omm
Ġju ly
Ġf est
Ġr i
Ġhe at
Ġ: /
k a
Ġexpect ed
k ind
Ġgr ab
Ġ3 1
Ġansw ers
Ġnat ural
Ġfly ing
Ġchocol ate
Ġdec l
Ġb er
Ġc ath
Ġstrong er
Ġsm ell
Ġval ent
Ġw ood
ch ool
i als
Ġch ic
m ind
Ġhel d
Ġs ession
Ġv ision
Ġa ustr
Ġat e
Ġtit le
ou l
at o
m ad
ag s
Ġfull y
Ġbring ing
Ġpuss y
Ġfore ign
Ġh v
Ġfe b
Ġhaha ha
Ġsus p
Ġmed s
Ġs le
Ġcom edy
Ġar ms
Ġwr ote
Ġst om
Ġg al
Ġche er
Ġinterest ed
Ġscr ipt
Ġbeha vior
Ġcons erv
Ġintern ational
Ġsure ly
Ġref uge
Ġh its
w a
Ġha v
if a
hel p
Ġobv iously
kn own
med i
Ġbelie f
ren ch
cess ary
Ġr ate
Ġchrist ians
Ġrec o
o x
Ġpost s
ce ed
Ġless on
Ġlead s
Ġp c
ch urch
Ġb f
Ġforg ive
Ġd ut
Ġc ode
Ġfr ank
Ġhas ht
Ġeas ier
ofth eday
en a
Ġcan did
Ġspend ing
Ġbrit ish
b it
Ġeas ily
Ġn ose
Ġplay s
Ġtr uck
oun ts
Ġem br
it ting
Ġk r
p ay
Ġp in
ha ust
Ġmil es
every one
Ġd are
Ġcar s
p ool
Ġra ise
a ult
ll er
Ġind ivid
m at
Ġto w
Ġvot ers
Ġfit ness
Ġbecom es
Ġfail ing
Ġo l
Ġdepress ed
Ġanim als
2 4
Ġsal es
Ġembarrass ing
f air
Ġse a
Ġcome y
g ame
Ġwh ose
Ġbip olar
Ġlea ves
Ġrepublic an
b b
y rs
Ġun fortun
Ġind epend
Ġse lling
Ġn erv
gr ound
Ġw en
ain e
c ent
Ġsh irt
Ġtrump s
Ġmir ror
Ġto ol
Ġold er
Ġprod uc
Ġi v
Ġear ned
Ġsh ar
Ġche ese
ac ed
Ġbreak fast
Ġh es
Ġat tr
6 5
Ġm ail
Ġl es
Ġany body
f ill
Ġteac hing
Ġag re
- -
Ġinclud ing
Ġwas hing
Ġst ars
it a
Ġo il
ch o
Ġch ina
Ġear n
Ġh ay
Ġun known
u x
Ġh ers
Ġact iv
Ġacc ording
Ġqu al
fin ally
Ġcent er
fam ily
Ġtalk s
Ġmind s
Ġp t
Ġru ined
Ġch a
un day
Ġcom b
Ġwh e
Ġexc iting
ul ation
oph ob
ll a
le ad
h im
Ġs ight
Ġli ved
Ġele cted
enc ed
Ġmajor ity
wis dom
ar a
Ġbreat he
th ings
Ġj a
Ġreg ular
Ġgroup s
Ġapp oint
i j
Ġbreak s
Ġsol id
Ġoffic ial
some one
Ġcharlott esville
on ce
Ġf ul
th y
Ġet ern
Ġdec isions
Ġinc om
Ġpur ch
Ġmic hael
pr ay
Ġcover age
Ġt ip
Ġhard er
Ġmar riage
Ġus ual
Ġmin or
0 9
f ail
t t
Ġf ive
Ġn ames
Ġent re
Ġsal vation
Ġex haust
Ġar s
e ous
s ay
Ġl ame
Ġlangu age
Ġin f
ol f
Ġpres ence
Ġnerv ous
if ts
al ia
Ġwer en
Ġpop ular
Ġb day
Ġr oy
Ġref use
m ark
Ġh mm
Ġfur ther
Ġput s
Ġwin ter
et t
Ġeas ter
Ġth ous
Ġbe ar
Ġne ither
il ty
ott en
ag a
Ġlat est
istr ation
r on
k ward
Ġp unch
Ġo d
rem ember
am i
orge ous
Ġwis hing
Ġlu v
Ġnumb ers
Ġhe avy
ash ion
Ġapr il
p ain
Ġw rest
Ġb tw
Ġbas ically
Ġn ah
u ary
Ġyog a
Ġreco very
Ġw et
Ġfre aking
le g
Ġwar ri
Ġ3 5
Ġath let
Ġdem and
Ġsex y
Ġins ane
Ġpts d
Ġgu est
Ġa lex
Ġamaz on
Ġjo e
Ġpolitic ians
Ġact or
Ġm t
ar i
Ġs ides
Ġw id
if ying
Ġk en
Ġim medi
Ġve ter
ogr aph
Ġh al
os es
Ġgr am
Ġsu c
Ġpriv ate
Ġpleas ure
v able
Ġwin ner
Ġbl ast
Ġoffici ally
Ġnot iced
l ord
Ġt a
ik es
Ġut ter
Ġd ry
Ġi ve
Ġtalk ed
a res
Ġp ump
Ġno vel
Ġgot ten
Ġpr ison
Ġmach ine
th ough
Ġu fc
Ġrem ove
Ġprom ises
v r
Ġs ab
Ġs ale
Ġs ix
oc key
Ġleg s
Ġdeter min
Ġg orgeous
ic ated
as es
ab out
Ġdr ugs
med ia
Ġatt end
Ġrec ent
lev ant
Ġj r
ol es
Ġbull y
Ġgirl friend
Ġl ower
Ġposit ivity
Ġpregn ant
Ġ 00
Ġy all
Ġpick ed
atul ations
Ġl it
Ġsacr if
al ways
Ġins urance
Ġprom ised
Ġmat t
Ġne ck
Ġ ing
Ġsh ift
Ġapolog ize
Ġcr ied
Ġbab ies
m are
Ġk im
cr ipt
Ġcir cum
Ġathe ist
ick ed
Ġspe ed
Ġill ness
it o
is y
con tr
Ġcrimin al
Ġc ous
Ġmod el
Ġgard en
Ġconf ident
Ġinfl u
st art
Ġgar b
Ġd y
Ġfor t
Ġsad ly
k y
p or
Ġt ree
Ġplan ning
Ġr t
Ġdeliver ed
Ġaug ust
it ions
Ġsc ar
Ġcreep y
Ġa i
Ġthrow ing
Ġdec ent
Ġb ob
ach e
ig ger
Ġsudden ly
Ġli ed
Ġrad ical
d og
ant a
Ġsat isf
Ġincre ase
Ġsh own
Ġco ck
sh ow
Ġe h
Ġdelay ed
Ġe ld
Ġbec ame
Ġphys ical
Ġleg al
Ġfor mer
Ġrespons ible
Ġt m
ach el
Ġask s
un der
Ġb arely
p ing
Ġtast e
Ġe b
Ġgo sp
w are
ger y
Ġteach ers
pre ne
Ġth y
ess ed
Ġpost ing
Ġmo on
Ġm l
h an
Ġv a
Ġmind fulness
h aps
Ġc d
r al
ing e
Ġsur round
Ġopen ed
Ġcho ices
Ġstrugg ling
Ġh ub
Ġsign ed
Ġlg bt
or a
dam n
bo ard
Ġr n
Ġreleas ed
Ġth ird
ot us
lo oking
Ġs ne
Ġj une
Ġhu h
m ir
Ġex ec
Ġlaw s
fr iday
Ġlar ge
Ġun to
Ġrec ently
Ġtoil et
Ġobv ious
Ġfor ced
Ġopt ion
c ons
Ġc u
ke ep
Ġgu ilty
Ġreve al
Ġmake up
Ġw aking
ar ter
Ġfl at
Ġimp act
est ic
Ġdr aft
Ġhurric ane
Ġplan ned
Ġimpr ove
at ives
Ġd ign
Ġm ah
Ġn ope
Ġk k
Ġa ve
Ġy ork
Ġright eous
Ġbr others
h ard
Ġvot es
in ary
Ġlead ing
h ome
Ġsh air
Ġbook ed
Ġdem on
ash ed
Ġnigg as
Ġh ates
Ġd ancing
Ġo w
Ġhapp ier
try ing
Ġad vert
c s
Ġr yan
Ġfl or
l aw
Ġwr iter
Ġn ic
Ġse es
Ġsp l
Ġaw kward
t imes
Ġstep s
Ġprov ide
Ġexcell ent
c ing
Ġca used
Ġam b
Ġclass ic
Ġcircum st
Ġwish es
Ġgener ation
Ġno ise
Ġinc ident
2 7
Ġstom ach
Ġra ised
Ġgarb age
n s
Ġc ake
k in
Ġcustomers ervice
k o
Ġdis ag
Ġact ors
Ġsw im
Ġcre w
land s
Ġentre prene
a a
Ġm ike
Ġ0 8
Ġpot ential
Ġpr im
Ġob am
c ott
Ġind eed
Ġfant asy
Ġt ab
ent y
Ġtr ade
Ġille gal
Ġclos er
0 8
e em
Ġf ashion
Ġch ose
so f
Ġbal ance
Ġm others
pp ing
t weet
Ġd ial
Ġmist akes
p aren
ver age
b h
f ield
um ent
st and
Ġun ity
Ġcor ner
Ġextrem ely
Ġrecomm end
Ġgood ness
Ġself ish
t im
h ope
Ġbut t
Ġ9 9
vie ws
cel ona
Ġgrad u
Ġm ode
Ġlo ose
Ġcontin ues
h op
el ine
Ġcons ist
Ġrat ings
Ġtr aged
Ġsome how
Ġworth y
Ġlet ter
Ġrelig ious
Ġdef ense
Ġo sc
Ġl ines
ok ay
y ear
Ġm ut
th ese
Ġcan ad
Ġfuck in
Ġcath olic
c ong
Ġon to
Ġru in
n am
Ġwas ted
or able
Ġte eth
Ġcl ue
Ġenjoy ed
Ġv en
Ġsep ar
Ġp our
Ġwill i
Ġsever al
p ark
Ġw we
Ġke lly
Ġd ar
Ġbu ilt
Ġmil k
Ġadv ent
Ġt l
Ġcreat ive
Ġsol ution
Ġcl imate
Ġr ush
Ġcomp an
Ġk at
Ġgr ade
Ġmind set
Ġstr ange
f ace
Ġj okes
Ġother wise
Ġbow l
Ġrespons ibility
Ġp it
Ġpost ed
Ġ5 00
4 8
ab led
Ġstress ed
Ġgosp el
el se
Ġbill ion
in em
ic ate
Ġdo cum
Ġbr a
Ġcomp uter
Ġbott le
ic ious
Ġtax es
Ġswe at
Ġparen t
Ġgu ard
Ġman age
ap an
Ġsm e
Ġthr ill
Ġn t
Ġlight s
Ġpet er
Ġstat us
Ġcommer cial
Ġexerc ise
Ġdo ct
Ġch ief
Ġdet ails
pp ed
Ġmod ern
r uss
Ġstep hen
k i
s l
itch en
f ree
Ġbase ball
r ing
i pe
Ġn ut
Ġun belie
Ġtw ist
Ġdeal ing
Ġshock ed
Ġcop y
Ġover come
Ġfun d
ang ers
the w
Ġpress ure
Ġquick ly
Ġfix ed
Ġhor ny
Ġhr c
3 5
g ive
ain ed
Ġcl oud
Ġmem ory
e in
Ġdire ction
Ġmor on
2 6
Ġsp oke
Ġdoesn t
Ġkill s
Ġprofess ional
Ġre ward
fe ction
Ġho le
Ġcharac ters
Ġadmin istration
ill ness
Ġun s
Ġf asc
ore s
Ġdis p
Ġho llywood
i i
ter ror
Ġa ck
Ġinform ation
40 4
Ġt ap
Ġet h
Ġg ang
Ġcon ference
Ġnight mare
Ġth rew
ific ation
Ġman aged
Ġro ot
Ġme as
Ġact ive
Ġhead s
Ġr ose
Ġse ats
Ġd un
he ll
Ġmess ages
Ġcam era
Ġlasve gas
Ġspeak s
Ġsa v
ound s
all ing
Ġanx ious
Ġcorrupt ion
Ġsmil ing
Ġin sec
Ġplay off
Ġpret end
o z
il st
Ġgr ind
ob e
Ġpull ed
p art
c ar
Ġc ops
Ġwe b
Ġas h
d es
Ġfre ak
Ġ40 404
Ġp ants
Ġg f
Ġsub ject
Ġr iver
Ġwait ed
Ġtreat ment
Ġfocus ed
Ġthanks giving
Ġb itter
Ġn os
ens ion
Ġkne e
Ġhat ers
Ġappro ach
Ġa im
Ġbitch es
Ġsh itty
Ġconne ction
Ġent er
ust ry
Ġpo ol
p ts
Ġp ig
Ġchic ago
Ġniger ia
v p
Ġi p
Ġb ike
Ġl ed
Ġhigh est
your self
Ġdis e
r uct
Ġf ish
Ġdis s
Ġment ally
Ġbar celona
Ġi k
Ġfe ars
read ing
mon y
Ġtr igger
ak ers
Ġal arm
Ġprof ile
Ġf rench
Ġdr ug
Ġper haps
at ar
Ġinspir ing
mus ic
Ġi ra
Ġgr ant
Ġsoul s
Ġfm l
Ġdo ors
Ġfr m
che ck
0 5
c ur
Ġus es
Ġla unch
Ġhonest y
Ġsuc ceed
Ġm ath
Ġn arr
Ġdis aster
Ġholiday s
Ġdign ity
Ġdefe at
Ġpain ful
Ġout r
Ġoct ober
Ġg am
Ġth t
Ġv ill
Ġnaz i
Ġr ough
iven ess
Ġun follow
Ġd ating
Ġb uck
Ġarr ived
t om
Ġl apt
Ġn ail
ress ion
n ie
rem ac
Ġt end
Ġb atter
w ent
il es
il ities
Ġt une
Ġdom estic
Ġanim al
bet ter
c er
Ġr d
Ġchar ged
Ġk itchen
Ġpre fer
Ġc ud
Ġbelie ves
l or
Ġc ats
al so
Ġak a
Ġli mit
Ġme al
Ġgr oss
Ġins ult
Ġhar m
ab s
ly mp
Ġannoun ce
Ġn ar
Ġbe ast
Ġsur gery
Ġposs ibly
Ġrest aur
wh el
Ġcoun ter
Ġassh ole
Ġsh ad
Ġstr ate
Ġfin als
Ġmed ic
Ġsis ters
bab y
b ad
Ġs essions
Ġd ent
is a
Ġfam ous
f its
Ġh ou
Ġf u
Ġr ally
Ġm am
ur t
Ġdis play
Ġchar ity
t ake
Ġr og
Ġk orea
Ġv oc
Ġgood morning
est yle
Ġve h
Ġpar a
Ġdist ur
w on
8 0
r id
ag ement
so ci
ca pe
Ġimmedi ately
Ġth om
ath ers
Ġcreat ing
Ġl yr
Ġsh ake
Ġz one
Ġshair i
Ġmed ical
Ġaw ard
Ġbox ing
Ġf le
Ġkid ding
Ġgl or
Ġdr ivers
be y
Ġflor ida
Ġind ustry
Ġmult iple
Ġstand s
Ġneighb or
Ġli br
st ory
Ġsc en
Ġschool s
Ġad s
Ġste ve
Ġunfortun ately
Ġfr uit
fe ar
Ġf ought
il i
Ġ3 00
Ġacc ounts
Ġbl ank
gre g
b ir
d ad
Ġt ay
get ting
Ġkill er
be c
Ġhers elf
c d
Ġprop ag
e f
in ter
Ġhar ry
Ġt ort
cong r
Ġv ile
Ġdis ney
Ġcontr o
Ġremind s
Ġreport ing
ons ense
Ġlevel s
americ a
Ġtraged y
Ġc ards
Ġepis odes
Ġscream ing
Ġw il
Ġoppos ite
Ġcab in
ab e
ah h
Ġsen ate
Ġis a
and er
Ġal ot
Ġpart ner
think ing
Ġg a
ne ed
Ġcond ition
Ġsmil es
Ġgent le
re g
ah am
Ġnor m
Ġsign s
Ġemploy ees
Ġack now
Ġat m
Ġbad ly
Ġconcern ed
Ġm ary
Ġth x
Ġw ide
Ġwh ilst
Ġpass ing
co hol
Ġdest iny
ant ly
Ġal tern
Ġaware ness
Ġre new
g i
on ed
Ġcr uel
oph y
Ġregard less
Ġt ight
Ġgre ed
Ġmis er
Ġdo d
Ġfaith ful
9 9
Ġi l
al ert
Ġtr a
Ġsk ills
Ġhang ing
Ġsc ifi
Ġsupp ose
ain t
u a
Ġst ood
ser iously
Ġplat form
Ġob ject
Ġhur ting
Ġfb i
Ġne cessary
Ġbu g
Ġrel ated
Ġcontr act
Ġcap tain
Ġte ar
russ ia
Ġwh ites
gh an
Ġstop s
Ġtweet ed
5 5
it ar
aw are
Ġking dom
Ġequ al
ir on
6 8
Ġs r
ie ved
Ġwhen ever
Ġcolle ct
0 2
Ġrep orts
Ġn u
Ġfac es
Ġce ll
Ġther apy
Ġbas ic
Ġthursday thoughts
Ġcondem n
Ġc c
Ġpo em
Ġbu ff
Ġpro ver
Ġprev ent
h rs
p ut
Ġag es
Ġass ist
Ġbud get
Ġful fill
5 7
Ġbasket ball
Ġref lect
my s
Ġpe e
Ġlisten ed
Ġbill s
Ġa verage
Ġs illy
pect ive
Ġcap t
Ġarrest ed
ch ar
con f
Ġlab our
Ġh en
us ive
Ġc ore
v d
Ġch est
Ġgood night
sh out
Ġca uses
Ġd ict
Ġ_ _
Ġdom in
Ġr um
Ġpr ime
Ġmat er
Ġfing er
om s
Ġimpeach trump
Ġsacrif ice
Ġm and
Ġu h
Ġcar ing
Ġlapt op
n bc
Ġn ick
om n
Ġj apan
Ġcha os
Ġsp ons
Ġph ones
Ġkar ma
Ġprom ote
Ġger many
Ġwho ever
app ing
Ġmob ile
2 8
Ġb um
Ġd t
el ove
ul ting
Ġexpect ing
Ġdescrib e
Ġun able
ar ies
th ose
Ġmonday motivation
Ġembr ace
Ġa a
Ġcheck ed
Ġi g
l oss
Ġcl ock
tr ain
Ġpo ck
Ġprep ared
p ting
Ġer a
Ġwednesday wisdom
Ġhasht ag
l og
Ġmon ster
h ill
m ate
Ġn amed
Ġup load
Ġnow here
Ġres ol
boy s
p ower
Ġsu it
Ġcover ed
Ġs s
Ġsh ine
ag er
Ġo s
Ġmost ly
Ġopin ions
Ġpros per
Ġdocum ent
m et
Ġsh ip
Ġpet ty
str ong
Ġmart in
Ġb ay
Ġh iding
Ġal t
Ġal ert
ivers ary
Ġh id
Ġde pl
Ġlyr ics
Ġal cohol
Ġvir gin
Ġst one
Ġdefin ition
Ġbull ying
mo vie
Ġp air
Ġaut om
Ġs igh
Ġpray for
w ich
Ġg i
Ġcon qu
list ening
Ġpark ing
Ġcons um
Ġconf ir
Ġr s
Ġch air
Ġsad ness
anc y
Ġsched ule
Ġf ame
Ġfall en
Ġembarrass ed
Ġ: '
Ġmo ck
Ġproduct s
Ġcircumst ances
e al
i os
Ġb ast
Ġre ject
oun ce
ath on
Ġincom pet
Ġr ant
f ire
t own
Ġp ubl
id ers
Ġover whel
tr ust
Ġche at
Ġequ ality
Ġsus pect
Ġpart s
Ġj osh
ash mir
l ol
Ġst un
Ġup s
at a
Ġsat an
Ġhom eless
Ġm ile
th es
Ġir r
Ġars enal
b ury
ac are
Ġcr isis
ra ft
Ġentreprene ur
Ġfe at
or ic
friend s
Ġunbelie vable
Ġp ill
Ġid ol
Ġapp ly
Ġass ault
Ġadd ed
bow l
Ġp ushing
Ġmy ster
f ly
Ġu ber
Ġnot my
Ġgood bye
Ġeng ine
op er
Ġdown load
g ar
Ġj us
Ġtrail er
Ġh ockey
Ġaustr alia
pl ace
Ġpie ces
Ġbe ll
Ġfl ood
Ġa y
Ġh ilar
Ġre jo
Ġem o
Ġfing ers
contr ol
c ut
l ay
Ġs ake
Ġn ations
Ġch em
cept ion
l ies
Ġw ars
Ġh ated
Ġh ating
Ġh oney
le ar
Ġdeser ved
Ġstre ets
s aw
ost on
Ġgu ide
Ġre act
Ġaf f
Ġallow ing
p ir
Ġf el
Ġo lymp
Ġgr ief
Ġdep art
Ġpl ant
Ġcl ick
Ġconf irm
c or
Ġi re
Ġpo ke
Ġkick ed
Ġj ay
Ġhigh ly
Ġboy cott
Ġdestroy ed
Ġv ul
Ġstr anger
Ġemp ower
id ency
Ġset ting
Ġant ifa
Ġw ifi
Ġb iz
Ġc art
Ġx mas
Ġdes k
Ġat l
ab ia
Ġcharl ie
d ep
Ġjust in
Ġthere fore
Ġe w
pr om
Ġd iet
um a
Ġbus h
su it
c as
Ġw k
bir th
s pe
Ġb ump
il s
pl es
Ġmin ister
Ġn uc
Ġre action
Ġt ips
Ġclean ing
Ġhou ston
Ġi love
il ing
Ġup gr
ch ild
ind ia
ow ers
Ġal m
Ġsc am
Ġshould er
Ġhard est
br o
Ġp orn
Ġj ers
gu ys
Ġbut ton
st ar
orm o
Ġforg otten
Ġsurv ive
Ġm igr
ag n
Ġopt im
Ġb ound
Ġrel ief
Ġdistr act
Ġcompan ies
3 3
w oke
Ġdoct ors
Ġch else
f an
Ġcl ar
Ġad ults
Ġwind ows
o inting
Ġend less
Ġd nt
ul a
Ġfl ash
Ġed it
ver se
um my
Ġcongr atulations
w ould
Ġclaim s
Ġdisag ree
Ġi c
Ġspo on
Ġlock ed
Ġh ous
Ġwar ning
u gh
Ġtr ick
und red
fe el
Ġaffect ed
Ġtop ic
Ġsuppor ter
Ġchap ter
n et
Ġv irt
ber t
bre ak
r ick
Ġve t
Ġcut s
à ¸
Ġb pd
Ġsp ider
Ġtw itch
Ġexc uses
Ġslow ly
Ġdelet e
d ead
Ġi am
Ġb ern
Ġhorr ormo
ar ant
Ġ3 3
Ġsc ott
Ġpeace ful
Ġsim ilar
Ġsa ving
Ġn am
6 7
v est
5 3
Ġbut ter
m ade
Ġem erg
Ġdam age
Ġha w
fun ny
Ġt f
Ġprom ot
Ġbeg ins
Ġviol ent
Ġc ouch
Ġr os
Ġmo ves
Ġembarrass ment
Ġrem oved
Ġb ub
Ġto dd
Ġde g
Ġim age
Ġcandid ate
Ġp p
Ġtrump russia
Ġcontr ib
Ġobs essed
Ġlif etime
b i
Ġsl a
work s
Ġmor al
Ġcomm itted
Ġaccompl ish
Ġyou n
Ġgold en
Ġintellig ence
Ġre nt
ol a
Ġnuc lear
in ch
Ġdemocr at
re me
Ġenem ies
Ġw ing
Ġl aughter
Ġdis abled
Ġaus pol
4 9
in th
Ġf irm
ight s
Ġsw ed
Ġaccept ed
Ġzomb ie
Ġg aming
Ġhit ting
Ġy ep
ab les
Ġq atar
Ġfriday feeling
Ġsaud i
Ġpropag anda
omn ia
Ġpers pective
Ġtrait or
Ġno v
Ġmiss ion
n at
Ġh undred
Ġ4 8
Ġcur ious
Ġa irl
Ġlu ke
5 1
Ġg ifts
et te
Ġcertain ly
Ġtyp ical
r is
Ġthe at
cc er
br idge
Ġpatri ot
Ġsept ember
Ġobam acare
v ibes
Ġis land
Ġn onsense
Ġann iversary
Ġbelie ved
Ġsy mp
Ġremind er
al ty
ass ho
Ġbo ld
Ġstr ike
Ġear s
Ġclass es
Ġenv iron
w el
Ġc t
Ġk ashmir
Ġbig ly
se qu
Ġap ology
Ġden y
Ġlog ic
Ġbag s
Ġcitiz en
ton ight
ac on
Ġafric a
Ġhilar ious
Ġt ak
an x
Ġj ones
Ġcon fl
Ġpar an
Ġsy m
Ġs ink
Ġme at
qu est
Ġsc ot
r upt
re ck
Ġc um
Ġfun ding
Ġbir d
Ġ19 9
Ġwalk s
Ġhar ass
Ġsold iers
Ġg ate
Ġchild hood
Ġcent re
7 8
Ġb oston
Ġag ent
Ġb h
Ġb ia
Ġcelebr ating
z a
Ġt act
Ġp ence
Ġal though
Ġdise ase
ur a
pe ace
Ġchristian ity
girl s
Ġaf ghan
Ġpriv ile
Ġdut y
b us
Ġr ay
Ġje ff
t ar
Ġal i
Ġlif estyle
Ġrestaur ant
Ġinj ury
ex c
Ġn ails
fr ont
Ġye a
Ġaud ience
Ġimpress ed
Ġs ack
ow ing
Ġj on
Ġno ve
Ġsug ar
americ an
og y
Ġrom ans
Ġk l
Ġret ire
Ġtur key
Ġindivid ual
2 9
Ġtr ies
ag ic
Ġfe min
Ġbo ot
Ġt ie
Ġm p
out s
Ġp ink
Ġo dd
cl ass
ant ic
Ġbl ah
Ġch er
anc ed
7 0
Ġpack age
Ġde y
ib r
Ġmove ment
Ġproper ly
Ġsub st
Ġms nbc
Ġd ies
Ġo ce
Ġbud d
Ġv ar
Ġpres idency
Ġt ed
th en
m ers
Ġg ur
ib er
Ġdr ain
Ġworry ing
Ġspread ing
g g
Ġpick ing
Ġattr act
g ment
th s
Ġmiser able
Ġg m
Ġd ope
ch ed
Ġsh ots
pp er
Ġ 01
iz es
Ġper o
Ġhor se
Ġhead ing
Ġscre w
bre aking
Ġloc ation
Ġall e
Ġro of
Ġdeg ree
Ġtro ll
re ts
un es
Ġcr aw
watch ed
Ġbr ut
Ġshock ing
Ġsc are
Ġes cape
Ġenviron ment
Ġli ars
Ġlab el
Ġnaz is
in ely
Ġcous in
im ag
Ġsl ight
Ġtrust ing
Ġtrans fer
Ġhypocr ite
Ġencour age
Ġnh s
Ġhold s
bre ws
Ġmanag ement
c m
d ream
up s
Ġbelie fs
Ġhate ful
gy pt
Ġcompet ition
Ġpatri ots
Ġs el
Ġd ip
Ġbr anch
az ing
Ġcut ting
Ġarr og
jo hn
b ie
Ġn urs
et r
ac c
Ġexhaust ed
Ġout ta
Ġun cle
Ġac a
Ġuni que
Ġso re
Ġdiv ine
Ġgenu ine
Ġg ender
Ġr are
Ġsp an
Ġproduct ive
Ġb om
Ġp il
Ġcl ient
Ġsuper bowl
Ġdoll ars
7 5
z er
ot d
Ġcl im
Ġmex ico
Ġpresident ial
Ġthom as
Ġb od
Ġnot sorry
Ġwork ers
Ġstay ed
Ġira q
s ince
Ġw arn
Ġsh ape
Ġas soci
Ġgu arant
Ġdisc ip
Ġeld er
Ġb ak
ib e
Ġmight y
wom en
Ġa j
Ġfound ation
Ġbann on
Ġnar c
0 3
Ġw itch
Ġpre ach
u j
Ġpl enty
Ġappoint ment
Ġto ward
as hing
Ġpred ict
work ing
Ġemp athy
se ason
Ġbr idge
Ġecon omy
Ġc s
Ġfollow s
Ġsun ny
Ġcap ital
Ġc ure
Ġthr o
Ġhar vey
tw o
Ġm ak
Ġ3 2
ic it
ha w
Ġx box
Ġrob ert
u als
in i
Ġas ap
Ġres c
an ia
we ather
Ġbene fit
m ake
Ġpre cious
Ġbu zz
Ġcont est
Ġst alk
ph ones
Ġmental illness
Ġdeb t
Ġrecogn ize
Ġyou re
uc ed
Ġdiv ision
Ġm ama
Ġmess ed
n is
Ġthe e
Ġins omnia
Ġfac ing
Ġcanad ian
Ġcare ful
r um
Ġwe ed
Ġdiv ide
fin al
Ġreturn s
Ġsen ior
Ġorgan ization
en g
Ġr age
Ġhe ck
Ġown er
d les
y i
ic ing
Ġremember ed
Ġhop es
i ally
if est
Ġm n
Ġr ot
Ġhigh light
Ġdisrespect ful
f u
i at
ac es
Ġor g
Ġe gypt
Ġah h
Ġlibr ary
Ġeffect ive
may be
Ġb ust
Ġreach ed
Ġseek ing
g ia
Ġt an
Ġtrump care
Ġbre ad
Ġdrink s
Ġattack ed
Ġt ack
Ġh ust
Ġk ay
Ġsm oking
t in
Ġb j
Ġre ven
az z
Ġca using
Ġign ored
Ġoffic er
Ġfool s
Ġsig alert
b al
j ud
ie ce
Ġadv ance
Ġexperi enced
Ġ ou
Ġfriend ly
ag on
art s
Ġmom s
Ġm ort
rop ri
Ġgen ius
Ġconsider ed
Ġveter ans
Ġfin an
Ġrec over
ol en
Ġhypocr isy
id ering
Ġsp oken
k ids
m ic
ig ma
Ġmat thew
Ġrepe al
Ġweap ons
Ġagre ed
m atter
p ret
o ll
Ġperson ally
c ity
l ock
p ass
Ġte le
Ġes c
Ġmirac le
Ġemerg ency
Ġh m
av s
Ġso lo
Ġbet ray
Ġstand ard
Ġso ccer
Ġdef ending
Ġless ons
Ġs d
Ġevery time
Ġgre w
Ġcoun ting
Ġ3 6
Ġaut o
Ġed ge
Ġcor por
Ġjers ey
b or
Ġth ou
Ġleg acy
Ġcheck ing
Ġcomplain ing
Ġbe ating
Ġhur ry
k ins
Ġd nc
ex pect
Ġarr ive
Ġ19 8
on c
k ill
m oney
attack s
Ġact ivity
Ġser ving
Ġest ab
Ġn aked
Ġbo om
Ġtre ason
Ġetern al
h s
h at
Ġp ad
Ġfor ces
Ġtrans form
Ġappro val
Ġpayp ig
Ġf athers
for ce
Ġbir ds
ib l
Ġcontin u
Ġregard ing
Ġt ory
ac a
Ġecon om
Ġsh ared
Ġdel us
j u
Ġoff ered
Ġhum or
Ġlove is
Ġres ident
es a
Ġapp ears
Ġart ists
Ġweak ness
ic les
Ġgod bless
ro ll
Ġconv inc
Ġbene fits
d one
or ial
Ġpast or
Ġul t
Ġh w
Ġnot es
Ġpass en
cr imin
olog ical
Ġmid night
Ġbi as
Ġwhe el
y l
0 4
Ġser ved
health day
Ġre n
Ġcr imes
Ġisn t
h orr
l ad
Ġd ust
ac ity
Ġbur ning
miss ion
Ġrefuge es
Ġt ong
Ġo t
it ate
Ġass ume
Ġext reme
Ġsle pt
Ġr ank
Ġyour selves
by n
Ġir on
Ġer ror
Ġun happy
Ġprof it
mal es
Ġsurv iv
Ġâ Ģ
Ġsym pt
s chool
Ġprop h
Ġun a
Ġpro ven
Ġchelse a
b ish
Ġdev ast
Ġj io
Ġval id
fo ot
Ġhub by
Ġl ic
Ġwor ries
ed ge
Ġun iversity
Ġur self
Ġrep or
Ġs orrow
Ġf t
p ar
v is
Ġbe ats
ines e
Ġmarket ing
c alled
s ure
Ġob ser
Ġco oking
Ġm rs
ic an
Ġel imin
tw itter
Ġbigot ry
Ġthous ands
Ġprover bs
ren t
Ġsm ith
0 6
Ġparen ting
Ġconserv ative
Ġinflu ence
Ġthem e
Ġfall s
vi our
Ġapart ment
ill a
Ġd ot
ist ry
Ġce o
h y
Ġt ac
Ġv ent
Ġ3 7
y er
Ġor ders
Ġfa ve
pr o
3 6
p at
ac cept
Ġpl ot
Ġthr own
ank a
Ġcir cle
Ġb order
Ġint ention
Ġm umb
Ġo ops
ob s
Ġreal ised
word s
Ġcomfort able
t op
Ġp ac
ant age
Ġtim ing
Ġsc and
Ġho od
ch es
Ġbl aming
Ġsc um
ne xt
Ġir ish
Ġwh is
Ġle e
Ġsqu ad
Ġyoun ger
Ġr ug
Ġbud dy
m i
Ġch ase
ord ers
Ġmount ain
f ight
re y
Ġst or
Ġgreat ness
wor th
Ġsol ve
Ġult imate
t v
v ent
Ġj un
Ġpe op
Ġoffic ers
Ġun fair
ro ad
Ġexist ence
al ian
Ġter ms
Ġs ons
Ġe ve
Ġp ub
Ġe id
qu otes
hon est
anx iety
Ġbel ow
Ġpart ies
c il
Ġmor n
Ġreport ed
Ġinvestig ation
Ġt x
Ġe ll
Ġw ester
Ġor d
Ġfin s
Ġw b
Ġw ire
Ġne p
Ġdeep ly
Ġdonald trump
Ġb io
Ġab c
Ġcr u
Ġresist ance
Ġw th
Ġch uck
Ġcelebr ities
Ġvalent ines
j v
Ġcan dy
Ġse ed
un ders
Ġexp ensive
l uck
Ġseason s
Ġsnow fl
w en
ous ly
Ġhar mony
Ġdisgust ed
on to
is c
Ġre li
aught ers
Ġc inem
Ġback ground
Ġpat ients
Ġer r
Ġhom es
Ġtrib ute
n i
Ġsupport s
every thing
Ġfest ival
Ġnarc iss
d ess
Ġg iant
Ġesp n
Ġc ough
Ġle an
Ġide ology
Ġnove mber
m c
Ġc orn
Ġsh r
Ġconstit ution
1 00
Ġm all
Ġb ond
Ġre ign
Ġth in
Ġload s
Ġwashing ton
Ġit ems
Ġvict or
Ġg ig
Ġac ce
Ġdiscover ed
Ġw olf
Ġcl ients
Ġchallen ges
Ġveh icle
b led
Ġt cot
Ġh ire
Ġf i
Ġupd ates
Ġf fs
Ġco ast
Ġfl ip
Ġforg iveness
Ġrejo ice
Ġj ason
Ġgl t
Ġtren ding
Ġa z
Ġbl own
Ġset tle
Ġremind ed
m ine
Ġs or
Ġh ats
Ġtechn ology
Ġth a
Ġs os
Ġb ol
Ġun like
Ġad op
Ġfail s
Ġtun ed
all as
Ġchampion ship
c all
Ġre h
Ġdr opping
att le
Ġeff orts
l an
Ġb k
Ġ0 6
Ġsuic id
Ġoutr age
Ġst ole
Ġcons cious
Ġinspir ational
Ġanswer ed
Ġkick ing
p an
Ġr io
ight y
Ġcr a
ho ly
Ġsand wich
all ey
Ġch inese
b orn
c les
Ġli ver
Ġfun ction
Ġbas is
Ġprev ious
m ates
Ġb in
Ġmic r
a j
Ġt s
Ġl m
Ġk ings
Ġse lect
com fort
3 8
Ġhe brews
Ġmurder ed
Ġpartic ip
t urn
ing ing
Ġarg ument
birth day
Ġd udes
Ġapp l
Ġtrain s
Ġprep are
b on
Ġpolic ies
r ated
Ġch ances
Ġms g
Ġman ifest
ick ing
Ġattack ing
Ġcatch ing
Ġstrate gy
re p
ad ed
Ġab und
Ġeg g
n ation
en ess
Ġp ages
Ġy u
Ġst olen
Ġhaha haha
Ġcomplain t
Ġaccident ally
Ġb un
Ġdr ops
ren der
Ġtoler ance
il a
ul ate
Ġcons idering
Ġquote oftheday
w ide
ok er
inst ein
Ġsp ir
c up
g assho
Ġnet her
is n
al ms
ber g
Ġfin ale
g b
Ġdepend s
Ġml b
don t
cript ion
Ġoce an
aware ness
Ġl ag
os en
Ġcro oked
Ġcabin et
Ġr app
Ġbreat hing
Ġhero es
r u
Ġo bey
Ġpe eps
Ġhelp ful
Ġdoll ar
Ġ:' (
Ġh s
ne ll
Ġplac ed
Ġin it
ot a
Ġre levant
Ġsh am
Ġgodis love
es y
ill ion
Ġwas ting
Ġperson ality
Ġhon our
Ġglt church
i y
Ġind ie
Ġdelet ed
t te
Ġincl ude
it is
Ġdo c
Ġsp ain
tr ue
Ġsitu ations
j s
s itting
ress ed
Ġsin s
Ġacknow ledge
Ġt ank
st ate
Ġman ip
Ġdr ove
Ġ `
Ġbr ief
Ġsever e
Ġw reck
Ġb ah
Ġsent ence
Ġcommun ication
Ġelect ions
er to
Ġwh it
Ġpl ain
Ġmater ial
Ġw ings
he w
Ġt ask
al one
Ġpro ves
Ġmar ry
Ġadvent ure
7 9
Ġdelus ional
et e
Ġworth less
Ġset t
Ġgre et
Ġaccept able
Ġclos ing
greg or
Ġisa iah
Ġop ens
Ġdisapp ointing
Ġscre wed
Ġpartic ular
Ġperfect ly
Ġentertain ment
b ucks
Ġmay or
Ġir re
Ġwarri ors
ark s
Ġconfir med
Ġ( :
aw s
Ġsil ver
Ġflight s
Ġsh el
Ġfe ature
Ġ4 00
Ġhome work
Ġopt ions
o oth
Ġth us
ap er
Ġye llow
Ġmedic ine
f est
ograph y
Ġafghan istan
g ie
ut ions
Ġgo in
im um
Ġpr int
Ġfe males
Ġswed en
p op
ic able
Ġosc ars
Ġn uts
end s
Ġbab e
Ġabs ence
tom orrow
5 8
Ġinv ite
Ġal ien
Ġown ers
Ġass ign
Ġpain t
Ġevent ually
Ġm m
Ġab and
Ġint ent
Ġhorrormo vies
ac ting
Ġst ret
un te
fe eding
Ġfind s
Ġlik ing
s y
Ġli p
Ġref used
ition al
Ġshad ow
Ġkn ife
ear ing
Ġche ers
Ġji had
Ġy an
Ġout come
Ġun d
Ġun ite
com es
Ġgenu inely
Ġw ave
ad ing
Ġshe ep
Ġlay ing
ian a
br on
Ġob ed
Ġd aughters
Ġto oth
Ġfl o
Ġt ories
Ġas ide
Ġexperi ences
s ters
Ġ) :
Ġmix ed
Ġche ating
Ġcent ury
Ġbi ased
Ġpun ish
Ġplayoff s
Ġaltern ative
imag ine
Ġt am
Ġf aster
to od
Ġsupport ed
Ġsubs crib
Ġlou is
o ot
Ġli ps
op en
Ġmet h
Ġaut ism
Ġtat too
Ġl en
Ġv ibes
Ġ7 5
Ġhy pe
Ġpull ing
Ġt rem
at ivity
Ġchamp ions
Ġinsec ure
Ġmention ed
so o
Ġatt em
Ġcle ared
Ġsup remac
Ġb ot
Ġo cd
Ġun e
Ġ3 4
Ġfl u
Ġlaugh ed
Ġmirac les
Ġwilli am
Ġm our
Ġd ub
Ġn k
Ġgr oc
g on
Ġo x
as ion
Ġsp ic
Ġdece mber
l ets
Ġmar athon
ck s
ep h
Ġ5 5
Ġref s
Ġpurch ase
h and
Ġre ly
ad ium
Ġafric an
Ġit em
ut ed
Ġtr ial
Ġg uts
Ġdr own
ophob ia
Ġpeop les
3 1
a ire
Ġb ts
Ġd il
sp irit
Ġcelebr ity
Ġadv antage
f all
Ġch ip
Ġbel oved
Ġcol our
Ġmas k
Ġfol k
Ġintr od
Ġvul ner
Ġm un
Ġcon cept
Ġimmigr ants
Ġhid den
Ġc ig
Ġl ap
Ġl uc
Ġq b
Ġflow ers
Ġfrustr ating
r un
Ġbe ings
Ġweight loss
Ġnether lands
Ġt t
Ġs ets
Ġmin i
Ġmotiv ated
Ġdiv or
Ġident ity
Ġweap on
6 4
Ġr ico
Ġfor th
all ow
ig an
gu y
Ġneighb ors
Ġc m
Ġcreat ivity
bl og
Ġmass age
Ġcommit ment
5 2
Ġa unt
Ġc able
umb le
Ġd ia
Ġadm ire
Ġelder ly
u pp
Ġn w
st ream
Ġwom ens
Ġlim ited
Ġc ou
Ġdel ight
Ġdeath s
Ġc ust
Ġst an
Ġal right
if orn
enc ing
Ġcome back
Ġthreat s
Ġbann ed
el a
Ġco aching
Ġdis crimin
Ġdirect ly
won der
Ġa id
ack s
Ġcomm and
Ġpur suit
Ġdj t
Ġt n
l ines
Ġtry na
Ġd read
Ġcon cl
Ġcon sequ
Ġrub bish
Ġallow s
y ears
Ġsh ining
ul ed
Ġtrust ed
Ġhit ler
Ġr ates
Ġpr ince
Ġpo ison
Ġdestroy ing
r ant
Ġd allas
is ation
Ġtex ts
Ġlo ver
az e
Ġind ians
Ġlos es
Ġdire ctor
Ġtay lor
ci ence
d est
Ġst ink
Ġj ess
Ġsar ah
6 3
c ase
Ġbr ady
Ġgr ave
Ġt orn
Ġtr i
Ġad am
Ġadd iction
Ġang els
Ġimmigr ation
g t
Ġw ip
ci als
Ġrequ ire
stand ing
ropri ate
os is
ch a
Ġke ys
Ġrout e
er ve
Ġl ake
Ġgod dess
Ġint ense
f ind
Ġc bb
Ġthrough out
Ġreg ister
s at
Ġ ouch
Ġg lo
Ġha b
ir ts
ur se
ort ion
Ġrequ ires
Ġscen es
Ġcom ic
up er
Ġsur render
Ġannoy ed
Ġwriters life
b d
y ester
st alk
Ġstud io
congr ats
Ġwester n
c ustom
ain ts
Ġo we
ac ing
ud os
pol i
Ġfab ulous
Ġmyster y
Ġstud ying
abb ing
Ġvol unte
Ġocc ur
Ġbo ost
Ġcost s
Ġemploy ee
er ts
and hi
Ġmon t
Ġacc used
f ound
Ġi pl
Ġdist ance
Ġfly nn
Ġalm ighty
m od
Ġth n
ke l
mins ter
Ġtheat re
5 6
Ġan th
Ġrem ains
Ġcar r
Ġmom life
Ġgrand ma
le arn
Ġgre y
Ġtemp or
Ġrighteous ness
sh ould
Ġappreci ated
Ġdig ital
Ġje ws
Ġstream ing
Ġelect ric
Ġt bh
Ġexc l
Ġf uel
et er
fe ll
mon day
e b
Ġsc ient
be at
Ġincred ibly
Ġun fit
Ġhum ility
p os
Ġho ok
Ġshoot er
j am
Ġspe ll
Ġfight s
ik a
c ould
Ġgo at
Ġcomp ared
Ġblack s
c ol
Ġk ab
Ġjo int
Ġrespect ed
wait ing
Ġbroad cast
d ate
ag ues
Ġx d
Ġstar bucks
Ġrequ ired
mat ters
Ġb ha
al t
Ġsh a
Ġv od
Ġres our
ot hing
yester day
Ġc elt
Ġex ists
Ġpro ved
Ġcol ors
Ġprior ity
Ġq otd
Ġ201 5
Ġkik me
Ġeth ics
en ight
Ġun real
ast e
Ġsm s
Ġwake up
Ġdepress ing
Ġton y
3 2
Ġm elt
Ġtr agic
Ġthis is
Ġbo at
expect ed
l ers
Ġc ope
ing er
Ġfe e
res p
ne e
und ry
Ġsocial media
Ġcow ork
Ġopportun ities
v ah
Ġc k
am azing
ep t
Ġpo ver
Ġauthor ity
Ġw icked
Ġn an
p erson
Ġy ard
Ġli on
end ment
Ġdevelop ment
6 1
l ives
Ġpay ment
Ġign oring
Ġmatch es
Ġh unt
Ġst adium
Ġtreat ing
Ġgodis good
b ull
f ather
ad em
Ġv id
Ġqu arter
Ġneg ativity
m aking
r ob
ar ily
sh ock
app arently
Ġsal ad
Ġcrit ical
Ġfinan cial
f re
Ġh ugs
pr of
Ġhead ache
Ġblow ing
Ġconqu er
Ġ( <
be ll
Ġaw ards
Ġint im
f ood
Ġt um
Ġc p
Ġhard work
Ġpupp y
Ġpock et
exc ited
Ġd iversity
Ġob l
Ġf f
just ice
Ġsw amp
Ġdiscuss ion
Ġille g
Ġupgr ade
Ġs no
Ġc od
Ġr on
Ġha bit
Ġrem o
Ġconne cted
Ġpush ed
Ġstun ning
ch ing
Ġse ction
Ġpl ate
Ġincompet ent
Ġconvinc ed
Ġpover ty
l iving
Ġex ams
Ġpers ever
Ġma is
Ġpen alty
3 4
c ount
Ġas tr
Ġdr ives
Ġak o
Ġcan n
wom an
Ġgram mys
Ġdetermin ed
Ġire land
d u
Ġcal iforn
u eless
Ġ1 01
Ġchar ges
Ġwall s
Ġoffici als
Ġprinc ip
Ġmeas ure
at ory
Ġd ur
le e
Ġmod i
ou red
Ġd al
Ġtax pay
Ġphys ically
Ġsup ers
Ġm ich
Ġdis order
hum an
Ġcy cle
Ġintellig ent
i que
he ard
Ġcomp are
Ġliber ty
thr ough
d ie
le cted
Ġtrust god
Ġrid ing
honest ly
r an
Ġa ap
Ġl ind
Ġcond ol
Ġdestr uction
Ġathlet es
Ġn od
Ġstop ping
anc is
m ail
Ġcreat or
bless ed
Ġvalent ine
en om
Ġoff ended
ian o
Ġpay s
Ġdent ist
c raft
Ġc ere
ed uc
Ġe ag
Ġha un
bu ild
Ġj k
Ġbr ag
Ġreal izing
Ġroad s
Ġa we
Ġjust ify
Ġar gu
Ġdis like
Ġbook ing
Ġhop eless
Ġcent ral
Ġb ite
Ġv amp
Ġhard ly
Ġfig ured
r ain
in ct
Ġm ere
Ġch osen
Ġbr ush
Ġsl ap
Ġsec ure
Ġself love
Ġsympt oms
Ġm ap
ar my
Ġv om
Ġcor byn
Ġfool ish
Ġreplace ment
d i
Ġn c
right s
Ġnh l
k en
Ġpupp et
y c
on ym
Ġho e
Ġsk ill
Ġmot or
i ac
Ġa le
em e
Ġact ress
ord an
ik u
Ġed iting
Ġbother ed
Ġmcc ain
Ġwe e
Ġbr av
oint ed
Ġt all
az i
Ġdec ades
cl ip
Ġfox news
Ġe c
go als
Ġprod uce
Ġdec ides
orm al
Ġrug by
Ġcond itions
Ġprote ction
Ġdocument ary
bec ause
Ġbj p
Ġj ere
st e
Ġun ivers
Ġbl m
Ġt g
Ġch ips
Ġfun eral
Ġprom oting
Ġpret ending
n el
o ch
in ated
os ter
Ġpre z
Ġsing er
Ġp ens
Ġadd ing
Ġvo ices
Ġcap able
uz z
Ġtor onto
f i
x ic
Ġan al
Ġcom o
Ġcl ueless
Ġnarr ative
ho vah
Ġjud ges
Ġthro at
Ġy ah
ac re
Ġw ound
Ġw oo
Ġh ob
ch ang
Ġsa vior
Ġth under
Ġch asing
hell o
Ġcreat es
fil m
Ġst aring
out e
Ġsh es
of the
Ġsim pl
Ġtre es
bl ack
Ġcoach es
Ġproper ty
Ġbes ides
9 0
f acts
Ġl ah
it ating
for get
Ġrac ing
Ġchann els
Ġdish on
feeding joy
us a
Ġatt ach
Ġamaz ed
Ġla id
Ġmain tain
7 1
b itch
Ġth read
ad ays
Ġoff ense
Ġdef ine
Ġent it
o e
Ġf iction
Ġp ity
Ġse an
Ġhapp iest
be fore
Ġaw w
Ġwest minster
Ġjournal ism
l ong
Ġd irt
ar on
Ġbr ad
Ġworld healthday
Ġsl am
Ġsl ave
Ġra ising
Ġkne es
Ġrh et
Ġu mm
Ġpr ices
abb ed
h d
Ġs pect
Ġs anta
it ement
ay a
ot ic
Ġso le
Ġun if
Ġsend s
Ġeffect s
Ġphil os
Ġtim eline
Ġrep ent
Ġ0 9
Ġhust le
Ġse ven
Ġ3 8
bel ieve
Ġsme lls
Ġno o
Ġpass es
Ġjudge ment
ie ving
ind er
Ġsc ored
he cy
Ġve gan
play ing
Ġgut ted
nat ural
Ġm f
ut ive
Ġcre ation
re h
ent ic
Ġpo op
Ġ0 3
Ġgen re
Ġshame ful
Ġben ch
Ġprivile ge
clip se
f ra
i h
Ġend ure
Ġdel hi
gassho oting
Ġun ion
Ġour s
con ne
Ġprinc ess
7 6
Ġb ff
Ġis h
Ġar se
Ġdr iven
Ġsleep y
c ul
Ġup coming
Ġchar les
Ġmc donald
m es
Ġd uck
Ġre vel
id o
ub er
Ġ9 1
Ġscot land
Ġb one
Ġe ase
Ġ0 7
Ġsign al
Ġsan ct
Ġgrant ed
Ġrem ote
Ġru ining
Ġdi agn
Ġdress ed
Ġwarri or
g ate
ist ance
Ġkn o
Ġar med
Ġstand ards
Ġtro lls
horr or
Ġtong ue
Ġbl iss
Ġsp am
Ġpo lls
Ġsm ooth
aw a
Ġcons pir
Ġste el
Ġdet e
Ġbatter y
Ġspoon ie
Ġab r
Ġ4 9
Ġrac ists
Ġspan ish
Ġi os
et o
Ġsh er
Ġgr ass
Ġcolle ction
m ass
Ġi con
Ġoff ensive
og ue
Ġfun ds
Ġter min
Ġjesus christ
Ġruss ians
Ġnotmy president
Ġtodd ler
5 4
Ġch ester
Ġro lling
Ġaw ait
Ġstore s
Ġpu erto
Ġcaliforn ia
Ġsign ific
Ġrel ate
g ott
j ab
Ġt i
ed e
be aut
Ġclass y
ific ations
Ġglass es
Ġthrill er
Ġcinem a
a id
wh ite
Ġstupid ity
b en
n ote
Ġc oy
pp l
Ġmor als
is ible
Ġsex ist
Ġspiritual ity
Ġacce pting
> >
ang el
Ġcompl iment
Ġsen ator
Ġrepe ated
Ġsig ning
6 9
is er
al o
Ġde als
m uch
Ġg ather
tr uth
Ġred uce
Ġjim my
Ġtort ure
m r
is l
ol er
Ġchild ish
bl ue
Ġc ub
Ġtyp es
Ġb or
Ġcount y
Ġinv ited
Ġindepend ent
Ġprosper ity
i qu
Ġf er
as a
th ep
Ġhand ed
av a
Ġref lection
Ġmer ry
Ġkh an
fact or
c ool
in n
Ġsh ed
Ġm es
Ġye lling
Ġrain ing
Ġclown s
s ur
Ġc ities
Ġmom my
Ġmag n
Ġprop s
Ġcelebr ation
Ġcred ibility
Ġger man
r ip
Ġl fc
Ġgrow up
Ġfac ed
Ġscr atch
Ġt ons
Ġd h
li ament
Ġreven ge
7 3
Ġg andhi
Ġbe ef
Ġcl in
Ġinst a
Ġner ve
Ġindepend ence
w est
Ġp unk
Ġg ren
Ġun expected
li k
Ġho es
Ġrece iving
Ġpack ed
Ġliver pool
Ġep h
r oc
Ġc unt
ul s
Ġper pet
Ġhorr ific
Ġcover ing
Ġb hi
Ġto ss
Ġco al
see ing
um er
Ġpers ist
Ġcomp lex
gre es
Ġhall el
Ġt one
Ġa ust
Ġph r
Ġtouch ed
Ġconv ince
c atch
Ġsold ier
Ġdistur bing
Ġprem ier
accept able
Ġf c
ul ty
Ġhum ili
is her
Ġr od
Ġk jv
st ay
Ġsp urs
Ġz oo
Ġbeha viour
Ġwhites up
Ġt ant
Ġt ies
ak h
Ġeduc ated
inth ians
Ġw ard
Ġin no
Ġman s
Ġpriv acy
Ġpsych ology
ock s
Ġrelax ing
Ġc ubs
at i
Ġj os
Ġnot h
Ġ4 1
Ġsk ip
n ice
Ġw t
um n
Ġv log
Ġsu pre
Ġle bron
Ġag gress
Ġscript ure
d el
Ġ eric
Ġt d
Ġf if
Ġfor ms
p ot
Ġb inge
Ġre views
Ġim pl
Ġfight er
Ġps alms
Ġgener ations
Ġjack son
ye ah
Ġeg gs
ic ient
sh ire
Ġopp on
Ġmount ains
Ġolymp ics
Ġl am
ac le
Ġsa uce
Ġpop ulation
Ġannoun ced
Ġnorm ally
Ġdict ator
m ans
Ġany time
Ġoff ers
Ġgu ilt
iss ion
Ġconv o
co ach
Ġjohn son
Ġba e
Ġble w
walk ing
Ġbrut al
Ġcondol ences
k id
m other
Ġpolitic ian
r ump
im ony
Ġsepar ate
Ġbern ie
5 9
n ame
Ġk it
app y
Ġb ars
Ġd im
Ġgu itar
Ġir ony
Ġfeed back
Ġdesp icable
k orea
Ġi i
Ġstr angers
Ġbeh alf
Ġprof ession
Ġlab or
Ġzomb ies
Ġess ential
et he
ur ning
Ġim a
Ġs ang
an ing
Ġg c
st ep
end ers
Ġsp a
Ġadv oc
Ġrom ance
m el
z ing
Ġp d
Ġoff ering
Ġfact or
Ġh ann
or se
Ġd ang
Ġle ct
Ġke vin
Ġtow er
wor thy
anc er
week end
Ġsupre me
Ġp ard
Ġare as
Ġown ed
Ġsuff ered
3 9
Ġt ape
Ġthe b
Ġreturn ed
Ġrepl aced
Ġdepl orable
Ġscand al
Ġyan ke
c re
Ġr ail
Ġ4 4
Ġathe ism
h our
Ġan k
je ction
Ġtem per
Ġtrigger ed
Ġn l
Ġj st
ur d
il ed
Ġdemocr atic
Ġd ates
Ġp ier
Ġsh y
Ġgr ac
Ġmed i
Ġve ts
Ġje hovah
Ġmis ogy
Ġdisappoint ment
Ġconfl ict
j our
w ater
Ġthe s
le ment
Ġsh orts
Ġsm ack
Ġche ated
Ġpar cel
Ġgun control
Ġfr idge
Ġunders tood
Ġspeak er
say ing
Ġbod ies
Ġobed ience
Ġis ol
Ġper fection
Ġeng aged
got i
Ġge or
Ġnb c
c ont
Ġn urse
Ġser ial
Ġexper t
Ġenc oun
Ġjump ing
Ġirre levant
Ġw s
ber ry
Ġfollow er
Ġapp s
t aking
th us
Ġkn w
pl an
Ġmus cle
Ġmor ons
Ġreg ime
Ġexpect ations
Ġbeg ging
Ġdev ot
Ġy up
th el
Ġr ising
Ġr ipped
Ġ201 3
Ġbrit ain
o op
Ġs li
Ġ201 4
Ġtrave ling
Ġspl it
Ġord inary
Ġrhet oric
Ġand rew
Ġjoin ed
er ate
Ġv p
Ġir ma
Ġcarry ing
j ack
Ġhe b
ol o
Ġlet sel
Ġsin cer
Ġexc itement
Ġgre edy
with out
Ġbur ger
Ġcow ards
Ġinform ed
Ġun acceptable
Ġstay s
Ġshout out
bel ief
Ġtex ting
inch ief
Ġst ir
lle ct
Ġwrest ling
Ġtwist ed
Ġsubst ance
t i
Ġg all
est y
so ff
av or
Ġcho osing
Ġmet al
Ġver se
cas m
h ur
ud ed
uj ah
Ġsurviv or
Ġst y
Ġde grees
ge on
Ġmu g
Ġmu fc
Ġs f
Ġtr ap
ur ies
Ġmus ical
Ġje wish
Ġval u
Ġhack ed
Ġin fin
wor st
Ġpur s
Ġr ick
Ġas pect
Ġac adem
Ġ15 0
Ġded ication
Ġn av
Ġstart up
Ġmem orial
Ġden ial
Ġcam er
o etry
Ġp el
Ġle wis
Ġsee med
Ġper man
Ġdel ays
Ġspec ific
Ġd up
et ch
Ġrecord ing
Ġto e
ve t
Ġr arely
Ġun t
Ġ0 2
Ġtuesday thoughts
Ġi b
Ġc avs
it or
Ġfl esh
Ġfuck s
Ġprod uction
Ġmis ery
Ġ:- (
Ġrev olution
Ġb ark
Ġk m
ren d
Ġacc ur
Ġinv isible
Ġach ieved
Ġclaim ing
Ġthous and
Ġbe ars
Ġhop ed
Ġbes ide
Ġn z
Ġn ost
ak a
Ġdis ability
Ġcur se
Ġfocus ing
Ġwall et
Ġjournal ist
Ġresol ve
we ar
Ġwhere ver
Ġz e
Ġi q
Ġsh ud
Ġk er
te xt
Ġsy mb
Ġexp osed
f y
r om
Ġtw in
do ing
Ġcond uct
Ġcas es
Ġglor ious
ĠâĢ Ŀ
n ament
Ġg ust
ive ly
Ġwin ners
co in
Ġaccompl ished
Ġsurround ed
Ġg ear
Ġbeg an
Ġvis iting
Ġpleas ed
Ġt ub
Ġp ound
ig ning
Ġinc ome
Ġdemon str
Ġdo in
Ġcoun cil
Ġexpress ion
Ġtra uma
qu al
Ġ4 2
Ġar ch
Ġwitness ed
Ġhundred s
Ġpot ato
Ġsort ed
Ġcross ed
6 6
l ost
Ġde ment
Ġim o
Ġla undry
Ġexpl an
Ġstrugg les
Ġbank s
Ġprofess or
Ġhous es
in als
Ġb acon
Ġte ens
ud y
inter est
Ġa ur
Ġj unk
Ġself ie
h ist
Ġn ol
Ġg t
le ft
Ġfr ight
get s
Ġel ite
Ġdeep er
atter ed
Ġpal est
3 7
Ġl un
Ġn ra
Ġha iku
Ġman ners
Ġ9 5
te am
Ġdiv ided
Ġten nis
v y
Ġr ah
im m
Ġnow adays
Ġinst ruct
Ġtrans l
su ch
Ġb are
se y
Ġknock ed
Ġjan uary
Ġhind u
Ġs id
Ġd aw
ag an
Ġdes ires
Ġoh io
Ġsoon er
Ġsouth ern
k k
Ġn ash
et ing
Ġwr ap
Ġdep ort
Ġje ans
Ġthrow s
Ġsom eday
hill ary
Ġbub ble
Ġvulner able
p ack
Ġr igg
we g
to gether
Ġinv ent
Ġjer k
cur ren
r ad
Ġthe ory
Ġha in
Ġbelie ver
Ġhill s
z o
er an
Ġpl astic
Ġpart ners
Ġpan el
look s
Ġbia fr
Ġbom bs
g age
p en
Ġf oul
Ġto xic
Ġins ight
Ġsar casm
Ġsearch ing
bur g
r uction
Ġt cm
Ġs ust
Ġs que
Ġgo sh
Ġgrow s
Ġlondon bridge
Ġauth entic
Ġspoil ed
Ġprim ary
Ġele v
Ġworst way
Ġsunday morning
Ġrout ine
b ank
l iter
Ġarg ue
Ġhip hop
Ġreveal ed
Ġp owers
sh op
Ġsal t
Ġpoor ly
Ġcorpor ate
t ot
Ġf ate
Ġd ull
Ġk udos
Ġun comfort
Ġfin ishing
Ġsuicid al
l if
Ġob st
Ġdi am
Ġachieve ment
Ġcommer cials
w ars
um es
Ġhead ed
Ġwhite house
Ġq ur
Ġtrack s
Ġfed eral
Ġaint ready
Ġa u
Ġd w
Ġfake president
hon i
Ġd ouch
Ġre tr
Ġr ice
pr od
Ġfan cy
Ġ201 2
Ġmic rop
le ast
Ġst fu
Ġli bs
Ġsh aking
Ġworld wide
Ġsupp ly
Ġdisc our
Ġj ordan
Ġdream ing
Ġlow est
Ġrock s
Ġuser s
w all
Ġtr ials
Ġbl ond
Ġhad n
Ġdest ination
Ġrom antic
Ġrap ed
Ġcrimin als
c our
Ġn ite
im a
ly n
Ġtw ins
Ġhel pl
Ġmi ami
Ġnorth korea
part y
Ġhen ry
n or
Ġto y
Ġ< <
Ġout fit
Ġ3 9
Ġrep s
Ġview ers
Ġproject s
Ġocc up
Ġprior ities
es ha
ent r
Ġmumb ai
h is
Ġb ones
Ġf yi
Ġn ag
Ġj et
Ġar ab
ha ven
Ġbo ots
Ġbed room
Ġentertain ing
b ill
d em
Ġb ash
Ġb achel
Ġn j
of t
Ġterr ified
Ġpoke mon
se ll
Ġbr u
Ġeng age
Ġresc ue
onym ous
Ġk y
Ġcar pool
Ġmind ful
as p
Ġv it
Ġrep air
Ġdivor ce
6 2
Ġg d
ic i
Ġr c
Ġfo ld
Ġs ke
Ġp and
st airs
Ġsp it
sh irt
ro id
Ġhead phones
Ġself care
Ġbur den
Ġmic he
Ġswim ming
Ġmeth od
Ġconspir acy
Ġa while
Ġmess i
Ġpick s
Ġwash ed
Ġp ant
ic ip
Ġdon ate
her o
om a
Ġsh ield
Ġres ort
ho o
Ġtouch ing
Ġdecl are
Ġslight ly
Ġc af
Ġch in
um s
Ġph enom
Ġjoin ing
b our
al es
um ing
Ġbro ok
ue ller
vel and
Ġcor inthians
Ġden ied
Ġoppos ition
c ry
re ason
ed a
Ġwe g
ir a
Ġfr ancis
Ġnever again
br uary
Ġdel icious
Ġed m
Ġmag az
Ġpu ert
Ġip ad
foot ball
Ġt ail
in er
Ġh an
or ation
Ġe en
Ġdem ons
Ġtest ing
b urn
p oint
Ġin eed
Ġal g
Ġstress ful
Ġtheres istance
Ġconserv atives
Ġh d
Ġcar ol
Ġcy ber
Ġconsequ ences
ab a
ab i
Ġsuper natural
Ġblank et
r up
Ġne goti
Ġlink ed
Ġa qu
Ġw ipe
Ġr ings
ate ver
Ġpar liament
Ġpoint less
Ġcomplet ed
Ġped oph
Ġp y
op ath
un ts
fe els
Ġman ner
Ġbr az
Ġimag ination
Ġtroub les
Ġeconom ic
b ound
h u
p ost
Ġt uck
Ġh t
ur ally
un ited
Ġover all
Ġcritic ism
Ġiv anka
Ġp igs
Ġpr ose
Ġim per
Ġlet stalk
Ġinst all
co z
Ġfrustr ated
Ġwood s
w tf
Ġdo om
il ton
ul es
Ġcom ed
amp s
Ġmad ness
Ġuncomfort able
w er
re ction
Ġd igg
Ġwh t
Ġha il
Ġab used
Ġout s
Ġbur st
inc ol
Ġresour ces
Ġt we
Ġsp ark
em ploy
Ġsm ash
Ġhope ful
Ġexpl os
Ġaccept ance
Ġguest s
mic hael
Ġdad s
sp ent
Ġded icated
Ġchronic pain
w ali
Ġex change
Ġgu id
li ed
Ġsw ift
Ġeat en
Ġdumb ass
Ġprem ium
dep ression
8 1
ag ate
Ġsp ite
Ġlet ters
Ġ40 5
Ġinclud ed
h igh
Ġth ick
Ġp on
Ġplay list
Ġser ver
Ġir onic
Ġsuggest ions
c ere
Ġro ast
Ġph d
Ġold s
Ġlearn t
de v
did n
Ġwilli ams
Ġgroc ery
at ically
Ġas ian
ol i
Ġle aks
Ġback wards
Ġsc ale
Ġworld s
Ġdown town
when ever
Ġ0 5
br oken
Ġnom ore
Ġutter ly
Ġlgbt q
m em
w ife
en ough
ar ian
Ġbl u
Ġapp e
ma res
Ġsy n
Ġtrans paren
pol it
Ġsaud iar
Ġairl ine
liter ally
h ot
Ġin her
Ġre ck
um m
ol ves
Ġque ue
Ġint oler
Ġconstit u
Ġactiv ities
paren ts
l ar
Ġlaugh s
Ġphil ipp
Ġabund ance
Ġpurs ue
Ġan aly
Ġex it
Ġbr uh
Ġbel t
Ġche ek
Ġshout ing
Ġtre as
h ib
is p
Ġme als
Ġle mon
Ġsurpr ising
Ġsem ester
Ġwh ining
Ġfr ag
Ġkind ly
uth er
Ġlink s
y ork
on line
Ġc b
Ġk ap
Ġbl ues
Ġprotect ing
a e
c ant
Ġen thus
Ġtour nament
Ġdefe ated
Ġencoun ter
pret ty
r ich
Ġn ik
Ġv alley
ap ed
Ġexpl o
Ġsky pe
l u
Ġso cks
Ġmay weather
Ġref uses
Ġy awn
Ġn pm
Ġsn ake
Ġleg isl
Ġcolle agues
Ġrain y
Ġprov ided
Ġtem pt
c ard
z y
Ġw i
Ġf art
Ġuse ful
er es
Ġb og
Ġp ip
Ġn op
Ġart icles
Ġtreat s
somet hing
Ġaud io
Ġdiscip line
Ġd uk
ch an
Ġk u
Ġbomb ing
Ġto do
Ġl av
Ġg ir
Ġfre qu
de c
Ġinte llect
h it
Ġf ile
it able
alm art
dr aw
Ġheaven ly
Ġassh oles
Ġwen ger
Ġsne ak
Ġcig are
Ġphilos ophy
re c
Ġcle veland
Ġmer c
fin ished
give up
Ġth or
Ġr ig
Ġco oper
Ġad just
Ġ12 78
Ġjealous y
Ġlift ed
Ġdetermin ation
Ġs aints
Ġp ul
ump s
Ġstr ict
te ll
Ġmid st
Ġlaw yer
Ġcamp us
Ġrandom ly
Ġsour ces
Ġwasn t
Ġgain ed
l ane
Ġc ert
Ġan ch
Ġre aching
Ġst airs
Ġman u
Ġhallel ujah
Ġdiam ond
Ġp ace
Ġj en
Ġun st
ap es
Ġsp are
Ġmind ed
Ġeduc ate
Ġjump ed
Ġlim its
Ġfins bury
s unday
t ion
Ġm ud
Ġwh ore
Ġme h
wh atever
Ġstr ip
Ġgame ofth
Ġsaudiar abia
Ġm h
Ġso ber
em en
Ġsteal ing
Ġindivid uals
x ual
Ġt ix
Ġlife is
Ġsymp athy
Ġb id
al ph
Ġclub s
Ġoptim ism
2 00
Ġf red
Ġle af
Ġbr ian
Ġmon sters
Ġtest imony
Ġb ik
le ague
Ġun it
cl ub
Ġso b
Ġdon nie
Ġbl at
up date
Ġperson s
Ġ0 4
Ġtact ics
Ġarrog ant
Ġt es
is lam
Ġtr apped
Ġres il
Ġad hd
Ġgi ants
incol n
g m
o en
Ġmar vel
Ġq oute
Ġrain bow
Ġcoll ab
Ġtool s
Ġvalu able
Ġm k
Ġwh ist
id k
Ġget tin
c orn
s ing
in the
Ġwell being
Ġmat es
ys is
ph ere
Ġvot er
Ġsub way
Ġshort story
Ġheal ed
Ġcivil ians
Ġcar ried
Ġskin ny
Ġexplan ation
Ġth irst
Ġc ia
th ed
Ġback s
Ġweek ly
Ġrich ard
Ġwid ow
Ġd d
um mer
Ġstr ive
Ġrec all
Ġadd icted
Ġsqu are
Ġgentle man
Ġintim id
e ve
an ne
Ġsp ill
Ġdr am
Ġele ment
Ġchill ing
Ġner d
b ag
y p
Ġre form
Ġr p
Ġli ons
Ġwork er
te en
Ġtest s
Ġloveis land
Ġsymb ol
Ġt ut
ir k
ib ilities
ps alm
Ġconc entr
m ess
Ġcr own
Ġ6 5
Ġcare d
Ġinst ant
Ġminor ity
Ġlm fa
Ġr ange
Ġj aw
to ok
Ġstr ikes
Ġmat ure
enc ies
h all
Ġl one
Ġin e
Ġr ic
Ġrem em
want ed
z one
Ġe k
Ġse qu
and y
pr a
ri er
Ġrob ot
Ġhav ent
Ġentit led
â Ģ
Ġso ap
Ġ6 6
Ġround s
Ġfem dom
e w
p ress
th est
iss ues
Ġsl ut
com m
Ġsub mit
Ġmotiv ate
Ġdi ab
Ġk an
Ġso fa
Ġany ways
Ġdec ade
Ġmean while
educ ated
Ġim ma
tr ack
Ġincre ased
Ġrepor ter
Ġs oup
os er
Ġse al
Ġdec or
Ġadv is
Ġcow boys
9 1
l ittle
Ġp ets
Ġat least
Ġtheir s
Ġop io
Ġkind s
co very
ann on
Ġsho e
Ġsho ok
talk ing
Ġestab lish
Ġre ference
my life
Ġinter views
Ġbull ies
Ġapolog ies
Ġdisgrace ful
Ġlic ense
j ay
Ġj ama
Ġterr ifying
w o
Ġc ul
Ġle ap
gr oup
Ġhon ored
Ġholy spirit
Ġlon el
Ġveter an
âĢ ľ
e ze
in ating
ac her
ach es
Ġfl aw
abs olutely
reg ard
Ġmicrop oetry
Ġman h
Ġsin cere
Ġrecord s
Ġcook ies
p otus
or ico
Ġme me
Ġdo z
Ġde pt
Ġchar ging
Ġcle ver
Ġcap acity
Ġlasve gasshooting
ophob ic
Ġguarant ee
Ġproph et
Ġv ik
Ġsc ares
Ġcar l
Ġmem es
Ġlu x
d ale
l ady
Ġm d
Ġcl ip
Ġco vers
mas ter
rem acy
book s
Ġequ ally
i ere
r ones
Ġwe are
Ġad e
Ġdec ency
Ġweekend s
Ġhypocr ites
Ġcompet e
Ġsched uled
Ġstret ch
Ġtempor ary
Ġnot ifications
Ġcr aft
Ġ11 0
Ġfil thy
Ġvirt ue
Ġabr aham
g un
Ġm vp
Ġk am
Ġelse where
Ġenv y
Ġdepart ment
Ġsor os
Ġrigg ed
g ent
i ot
Ġh ump
Ġlo vers
Ġmo ore
Ġrep ut
land o
Ġmeet ings
Ġrecord ed
Ġupd ated
Ġn ak
Ġv ip
qu ote
Ġprom o
Ġmill er
Ġbusiness es
Ġcouldn t
Ġoverwhel ming
a irl
Ġw ah
Ġd os
Ġsh ite
Ġye ll
opp y
Ġcancel ed
w ind
Ġw c
Ġh c
Ġd awn
al u
Ġj oking
ab ad
Ġpl edge
Ġres ur
Ġmed ication
ins p
Ġrac ial
Ġant icip
Ġpen ny
Ġju ice
bur gh
gott a
Ġall erg
Ġgr aph
Ġdef lect
Ġsit es
Ġneighb ours
Ġexperi encing
Ġsnowfl ake
b omb
Ġs ams
Ġcan dle
if ies
Ġex tr
Ġ4 3
ugg age
Ġhun ger
Ġd aca
Ġp ause
Ġp ile
Ġj ac
end o
Ġlad s
asc ar
Ġpregn ancy
Ġwealth y
Ġpurch ased
f ol
n ob
er ies
Ġw ann
un ion
Ġtim et
Ġcr az
Ġdev os
Ġw almart
Ġare na
Ġad vers
Ġapp eal
Ġansw ering
jo e
Ġvol ume
Ġbrav o
b ird
h or
Ġm ars
Ġg ud
Ġe clipse
lo ved
su pp
Ġod ds
y et
le man
Ġsu e
ge val
Ġ4 7
Ġnight mares
man chester
Ġque ens
Ġah ca
Ġbelong s
Ġoverwhel med
Ġc aut
Ġg est
ic ial
Ġopen ly
Ġrepl ied
Ġcy cl
oz en
th a
Ġres olution
Ġdesign ed
is an
Ġsem i
Ġtrem end
g ur
i ja
Ġf are
Ġl incoln
Ġon geval
Ġit aly
Ġbill y
vi ol
Ġclimate change
h al
Ġh ors
ac les
Ġne ur
Ġch ant
Ġout standing
se en
act ive
Ġconf usion
Ġclean ed
Ġprotest s
- )
g op
Ġt el
Ġs na
Ġal p
Ġfar m
vo er
oen ix
i ors
l ow
en o
Ġcon ce
of god
Ġx factor
inst ead
Ġargu ing
Ġgren fell
v ention
Ġw ud
Ġtr ophy
Ġfr ozen
ig o
Ġco ke
your own
Ġhom ie
Ġextrem ism
Ġm ol
Ġb ibl
th o
ut ing
Ġch am
ob ia
Ġlegend s
pray er
Ġphr ase
Ġt ube
Ġto d
Ġsc umb
Ġob str
gr ateful
ex ist
Ġb ree
ad i
ver voer
Ġj ane
Ġnew york
Ġsuper b
Ġsla very
Ġpassen gers
Ġweg vervoer
Ġr nc
Ġde af
Ġbelie vers
Ġfeed ing
Ġtrip le
Ġneighb our
Ġyanke es
m ill
p ur
Ġhe he
Ġlo an
Ġ4 6
Ġbad ass
Ġent r
Ġpat tern
Ġqual ified
am ay
in form
Ġp ops
Ġr all
Ġk ent
Ġins ist
fore ver
Ġther ap
Ġwhats app
d ue
us al
Ġd well
an o
as er
Ġst igma
Ġsa ves
Ġen sure
Ġjoy ful
Ġteach es
Ġsens itive
Ġannounce ment
Ġa x
Ġm ma
Ġp ope
Ġy g
Ġde eds
Ġpass word
Ġrac es
cr azy
Ġmental ity
Ġbit coin
Ġcoll usion
Ġram ad
Ġb ul
Ġl t
Ġn udes
Ġco inc
Ġsn l
Ġbas hing
lim ited
Ġjud gment
Ġunc ertain
custom ers
ad or
Ġde vice
Ġun ne
Ġbr on
Ġcl ap
su ccess
Ġrap ist
pa id
Ġeurope an
Ġosc ar
Ġspons or
Ġnep hew
w d
lle y
ys ter
Ġtest ed
Ġbrain s
christ mas
Ġly n
Ġl uggage
Ġo z
Ġres et
az a
Ġac qu
Ġreg ion
Ġjud ging
Ġdistr ict
Ġstor ms
w olf
Ġs ow
Ġg ord
Ġr ational
Ġk al
Ġch ain
Ġmark s
Ġcoun sel
Ġlif eless
Ġclos et
r ah
Ġg if
Ġit unes
mark et
l aim
m il
Ġm ueller
Ġd l
Ġy ess
al ife
Ġgo ss
Ġwe igh
iv a
Ġag ents
Ġemotion ally
Ġcd n
Ġfinsbury park
j n
in al
re f
Ġpr ic
Ġv r
oy d
Ġtrans g
Ġconvers ations
in ho
Ġg ap
ic ts
Ġst ats
Ġcon ven
Ġref ere
Ġdeal t
Ġfire works
Ġsuck ed
Ġaffect s
i ance
Ġc n
Ġand roid
Ġli by
Ġlo op
end less
Ġrec ip
Ġwa ves
Ġshar p
t ower
ob ama
iz on
Ġstr aw
Ġspic er
Ġb ore
Ġg ary
Ġen force
Ġref res
Ġdisapp ear
Ġscore s
Ġappear ance
Ġsatisf ied
Ġcou ples
Ġjos eph
r ise
Ġf its
Ġon elove
Ġdr ank
Ġcont ain
Ġun employ
wh ich
Ġhelp me
Ġwell ness
Ġ8 5
Ġhell a
Ġhy per
Ġkick s
Ġcourage ous
quest ion
re et
Ġo o
is ive
el ife
Ġsh ipping
Ġgr an
Ġmorn ings
b ate
c ling
Ġo ak
ab is
Ġbet a
Ġfail ures
Ġsw ing
Ġbb q
Ġnat urally
Ġbeat en
Ġrob bed
Ġbroad band
d h
Ġm aker
Ġb ait
Ġb coz
Ġf ires
Ġan a
Ġen light
Ġaf l
Ġred eem
Ġcoward ly
Ġreject ed
Ġpromot ion
b id
Ġdon ny
Ġfl ower
Ġrom an
t os
Ġto ast
Ġn ada
Ġbe lly
Ġr y
um ents
Ġro ots
Ġ7 2
Ġret ired
Ġste pping
Ġbha i
Ġc cot
Ġn avy
Ġo g
Ġal tr
Ġper mission
ank s
Ġpap ers
Ġham mer
Ġroy al
Ġconsist ent
Ġthe ater
hing s
Ġgr ip
Ġcompl icated
Ġcloud s
Ġt b
Ġd unk
Ġlo go
Ġhapp ily
fl ight
bl ood
Ġvis ited
Ġcomment ary
Ġbast ard
n ite
al most
Ġk as
Ġbu gs
Ġrest r
Ġstrength en
Ġhun ting
Ġnash ville
Ġt ied
go ld
Ġmag ical
Ġconf using
Ġburn ed
Ġjer ry
k m
Ġh ired
Ġp ow
ant e
Ġno on
Ġph oenix
Ġpsych o
Ġhasht ags
m ons
Ġn iece
Ġpain s
Ġret ail
Ġforget ting
Ġincre asing
Ġdan iel
curren tly
m ust
Ġh ast
Ġf et
Ġn ascar
ad s
st one
pe ech
ast r
if er
Ġathlet e
Ġfasc ist
Ġmich igan
r ome
Ġh ater
ad ise
Ġfe bruary
iv ia
Ġ5 1
Ġblock s
Ġspot ify
Ġtrad ing
Ġmex ican
Ġexec utive
Ġunivers al
Ġunif orm
Ġli ye
Ġgo ose
Ġmen u
Ġfore st
Ġanxiety problems
Ġjack et
Ġsham eless
or rect
Ġrapp er
Ġhaun ted
h h
p se
Ġb orders
all ah
Ġv ag
per ience
Ġapp ropriate
for ms
lo ving
Ġ8 00
Ġinst it
att an
Ġca fe
r ock
Ġt in
Ġd ave
ic als
Ġtr um
st ud
oc ide
ser ies
ham mad
Ġperform ing
Ġthreat ening
Ġimpress ive
Ġtack le
b ud
h ands
Ġh ence
Ġd s
Ġl uther
Ġp ir
Ġn un
ist a
Ġtro ops
Ġwat ers
add ock
Ġelimin ate
s uper
Ġc bs
om uch
Ġe ats
Ġget out
ment al
he im
Ġ5 7
Ġmin istry
Ġmed itate
Ġfoot age
ev il
Ġetern ity
Ġgameofth rones
Ġlonel iness
- >
Ġw ore
Ġli bt
Ġcom prom
Ġgr r
Ġsec rets
Ġpresident s
Ġret urning
Ġimag es
Ġclaim ed
Ġcomb at
m ond
s es
Ġg p
Ġg em
ch er
Ġfr ies
Ġdef ence
off s
gu ess
gre en
Ġdiscuss ing
Ġli qu
Ġem er
Ġins ults
Ġbre ast
fo ld
Ġsol utions
Ġmagaz ine
t el
Ġal ab
Ġaw aken
Ġpro ving
less ly
Ġ20 20
Ġdet ail
Ġadvert ising
Ġemo ji
Ġh int
Ġin justice
Ġbe ard
un a
sh o
Ġsl ay
Ġan ime
we ak
ja ja
Ġbuck et
Ġmigr aine
7 2
Ġb its
Ġb ands
Ġst alled
Ġag ency
Ġ5 2
Ġpositive vibes
Ġmas ters
Ġclar ity
Ġpredict able
Ġt as
Ġa ld
Ġand y
Ġit alian
th an
Ġche ering
de al
Ġprep aring
Ġsurv ived
Ġc ate
Ġg aga
ar ation
Ġr us
Ġr ack
Ġfe es
Ġcr uz
ath an
ro it
Ġruss i
Ġmos que
Ġoper ation
Ġjere my
Ġsignific ant
8 9
Ġn s
Ġk athy
Ġad ore
Ġapp alling
Ġrest ore
Ġste ven
uct ive
Ġinterest s
Ġbon us
wel come
pos itive
Ġm ant
es ians
Ġal bert
Ġ; -)
Ġfl ick
Ġper cent
Ġprop hecy
Ġ> >
Ġpublic ly
Ġrepl ies
Ġimm ature
Ġrevel ation
m outh
w an
Ġb ry
Ġd vd
Ġp atch
ar re
st ick
Ġpr ize
Ġor lando
Ġev ol
Ġgam er
Ġdip l
Ġpil ot
Ġk ore
Ġcon text
for ward
Ġoh h
Ġguess ing
Ġhol es
Ġpuert orico
Ġy emen
Ġg ul
Ġre play
Ġun educated
ap se
iz er
Ġshould ers
Ġapp la
Ġve get
Ġdeb ates
Ġmel ania
Ġsusp ended
Ġj azz
Ġse attle
end um
Ġpe an
Ġar ts
Ġdis conne
Ġret weets
ic ations
Ġfr anch
Ġma j
Ġstrong est
iel ds
Ġmer ely
sa fe
Ġmut ual
Ġdishon est
Ġguid ance
c ore
g am
Ġs ane
im o
Ġk d
Ġent ry
Ġtrain ed
Ġh et
Ġn xt
Ġfight ers
Ġdire cted
Ġbi en
l ondon
Ġn ause
and ed
Ġsp y
em pl
Ġsl im
Ġac ct
uc ing
Ġaccount able
Ġdraw ing
Ġkiss ing
Ġdesper ately
Ġblond e
Ġbraz il
k h
s ucks
t ob
y ard
Ġqu i
Ġint el
Ġthreat ened
Ġemp ire
Ġin love
Ġbe e
se x
Ġwho op
Ġbo obs
Ġur ge
Ġcomp reh
Ġrespect ful
Ġsy d
Ġroom s
com pl
Ġintern al
Ġspo ok
does n
Ġdiscrimin ation
Ġrefres hing
c at
f ans
h earing
w ins
Ġ à¸
Ġh orn
le a
le m
Ġle j
Ġcr ies
Ġ6 00
Ġpost p
Ġbreak down
Ġsuper ior
Ġann ual
Ġste am
Ġmurder er
Ġburn t
Ġencour agement
Ġneighbor hood
Ġanth ony
Ġsincer ely
Ġ }
Ġs aint
Ġl v
Ġu cl
Ġred uced
Ġspr ay
Ġdrag on
Ġaff irm
Ġattract ive
Ġvom it
Ġs its
Ġm ong
os phere
ch amp
Ġcr ipp
Ġsystem s
Ġgradu ation
Ġattem pts
7 4
er ved
Ġm use
Ġc ens
Ġg an
Ġsh ld
Ġsh irts
sh ot
Ġlong est
Ġste pped
terror ism
Ġsla ves
Ġqur an
u its
Ġpe ak
Ġback ed
Ġmed al
Ġreg rets
Ġstate ments
Ġbar bar
Ġcele bs
Ġsyr ian
Ġjournal ists
Ġlmfa o
airl ines
h mm
h uge
r ol
ke ys
Ġle eds
Ġun limited
if fin
ap ing
Ġneed ing
aw ards
Ġpack ing
Ġhelpl ess
Ġa pt
Ġan c
Ġli b
oth y
Ġele ctor
Ġconf ess
Ġsams ung
Ġgoss ip
c ow
Ġm b
Ġbe have
Ġsh akes
Ġhe ars
Ġex ter
ear ly
Ġprov iding
Ġprotest ing
Ġsymp ath
5 00
9 3
ag ger
Ġwon ders
Ġbest friend
Ġass es
Ġhead line
Ġsw ord
Ġfil ter
Ġorder ing
Ġmotiv ational
Ġrall ies
Ġliby a
t ired
Ġh og
Ġg um
is i
al ready
Ġr ud
ly ing
Ġcl othing
Ġtax i
Ġge ek
Ġsupremac ist
Ġpric eless
Ġdo l
Ġlove you
Ġph illy
Ġcomp ar
Ġbull et
Ġdisc ount
ex pl
Ġlen gth
Ġreput ation
f ish
Ġt amp
Ġl amb
it b
Ġjust ified
Ġv ibe
Ġle ak
tr ied
Ġur du
p ak
Ġtr ips
Ġv ida
Ġdi wali
Ġvoc ab
Ġairl ines
Ġmanh attan
q a
Ġp ills
Ġr abb
Ġr alph
Ġid ont
Ġra ven
Ġint ended
Ġbox es
Ġpassion ate
Ġul tim
Ġaff airs
Ġpunish ment
Ġcelt ics
b ear
m itted
ar ity
Ġlo b
Ġab road
Ġar abia
201 8
Ġcrush ed
Ġcandid ates
Ġcous ins
d ul
Ġd ms
Ġd honi
Ġan na
Ġan onymous
ot ed
ter m
Ġcan dles
il m
Ġcon front
ha ir
Ġpre c
Ġbad service
Ġdoub ts
Ġdark est
Ġaccur ate
Ġth ugs
Ġd ou
Ġn in
Ġfr ame
Ġv ig
ick ets
Ġflag s
Ġpersever ance
Ġw im
Ġb ie
Ġb arn
it z
Ġis t
Ġst ones
Ġfr i
ore tte
Ġmill enn
mon th
Ġrespond ing
Ġeag les
k er
Ġl ung
Ġso il
Ġexpl ore
Ġjohn ny
Ġbow ling
Ġsatisf action
Ġb ald
Ġf id
ur i
pr oud
Ġdep os
Ġtrans port
Ġbt wn
vo ice
Ġamong st
child ren
Ġmanip ul
Ġf ib
br a
Ġcons cience
Ġmet ro
Ġsuck ing
Ġ14 0
str ugg
Ġretire ment
g ow
Ġmy life
Ġhe els
Ġwith draw
Ġ5 3
Ġpray ed
Ġsal ty
Ġremind ing
Ġdu ke
Ġadm itted
lives matter
Ġconstitu ents
Ġw ld
on ia
Ġn p
Ġgo re
os ure
Ġsl ip
Ġmain stream
Ġclos est
Ġde ck
Ġsp ur
Ġwatch es
Ġpo ors
br other
Ġexper ts
Ġdeep est
Ġsen ators
sa ves
Ġident ify
l on
m ong
Ġm ouse
Ġd or
Ġg n
ve gas
Ġhe av
oun g
Ġbr uce
Ġad orable
Ġ9 8
Ġinter act
Ġsick ness
Ġbrain w
mom ent
Ġdeter mine
Ġinvestig ate
lead ers
bus iness
f k
Ġf ir
Ġse gment
ak nee
Ġstrong ly
Ġdistr action
hol m
Ġvamp ire
r t
Ġd ans
Ġli v
Ġlove my
Ġpres ents
Ġroom mate
Ġpresent ation
Ġfamil iar
mus lim
Ġdigg ing
r at
Ġd n
Ġj ai
cc i
Ġread s
Ġunderstand s
Ġpat rick
fuck ing
Ġfel iz
Ġhm u
Ġpard on
p iece
Ġp j
ic y
ent ially
Ġ5 9
Ġrem ark
Ġfix ing
Ġfle w
p uth
t obe
en joy
Ġn aw
Ġst ated
Ġv ic
Ġapp t
Ġdream t
Ġremember ing
ugg ed
Ġappreci ation
Ġpurp le
Ġmc gregor
Ġstick ing
Ġblog ger
p oor
Ġth ief
Ġh ath
Ġit movie
Ġr amp
Ġme in
Ġreal talk
ang ed
Ġchallen ging
Ġshel ter
Ġhar sh
Ġsex ually
Ġeng agement
Ġrelig ions
Ġbatt les
Ġactors life
at able
Ġto ys
Ġg ates
Ġbe ware
Ġne cess
Ġlo v
Ġall ies
ig ue
ump h
Ġsomet ime
Ġaust in
Ġg ag
Ġr ome
Ġr ib
Ġha z
ig e
Ġcr appy
Ġim with
Ġkiss es
in ate
Ġs ant
Ġd ys
Ġbl ows
act ually
Ġrem ake
Ġheart breaking
otes ters
Ġtrave lling
Ġentire ly
Ġswitch ed
Ġdevast ated
Ġsust ain
Ġramad an
Ġh oy
Ġsh ark
Ġbl vd
Ġstr oke
Ġlar gest
Ġatm osphere
Ġtremend ous
Ġ {
Ġf iring
Ġdead ly
Ġcoun ts
Ġgun na
Ġ128 07
Ġd orm
os a
Ġv ids
Ġsay in
Ġspe w
Ġcomp ens
Ġref using
Ġearth qu
Ġprogram me
Ġresol ved
f m
i am
Ġy uck
ver e
Ġins ulting
ho le
Ġkne el
Ġdet roit
Ġcharl ot
customers ervice
Ġj j
Ġsh ep
ans as
Ġsc oring
pt on
Ġpot ter
Ġbill ions
Ġcommun ities
Ġdeb ut
Ġvill age
Ġvirgin ia
Ġwhitesup remac
h ab
l ie
Ġn ad
ust er
ag r
qu ality
Ġinst antly
Ġcas ual
Ġrefer ring
Ġconfirm ation
bour ne
Ġ ought
Ġst ere
Ġme ets
ard ed
ull y
Ġx ox
Ġdep th
Ġfeed s
prob s
Ġnail ed
Ġatl anta
resp ons
Ġtg if
p aper
y ers
Ġpar ade
wr iter
Ġrock ing
Ġaut umn
order ed
Ġkat ie
Ġpassen ger
Ġtac o
Ġcann abis
qual ified
Ġunne cessary
Ġg ad
Ġwh ine
Ġbe happy
Ġj ung
Ġover night
ens es
Ġleft ist
Ġfill ing
Ġengine er
Ġprincip les
Ġtheb achel
k ar
u ing
Ġb ail
Ġk ah
Ġwor n
est eem
ci ent
Ġjesus saves
ball s
Ġbb uk
Ġburn s
Ġhors es
Ġcate g
Ġf uk
Ġp ats
ul u
se mb
Ġlove it
Ġlive pd
Ġsad dest
Ġcheck s
back s
Ġmum my
Ġcorrect ly
Ġsav age
Ġs j
Ġm ute
ent al
Ġch ains
bl ock
den ed
Ġnurs es
Ġth ug
Ġc fc
Ġl ent
Ġbl ink
Ġass ess
Ġev olution
Ġadd s
Ġner ves
wen an
b one
Ġo le
Ġfor cing
Ġun lock
are st
Ġag ed
ump y
Ġcr inge
aw esome
Ġper f
Ġcontin ually
Ġwhis per
ar io
ad ay
Ġv oy
Ġacc ent
Ġdel iber
Ġbur ied
Ġtoler ate
vp ak
Ġautom atically
haw ks
Ġn ca
Ġj ar
Ġpr on
Ġdis miss
Ġatt ending
Ġcar bon
me an
Ġfear less
Ġide al
ai i
Ġsurv ival
Ġpayp igs
start ing
7 7
s ick
Ġd na
Ġch op
Ġte levision
Ġback ing
Ġact ed
Ġview ing
Ġri ot
Ġfreak in
Ġew w
viol ence
j an
Ġa uss
am an
ren ce
Ġinst inct
Ġkne eling
Ġlondon attack
Ġdesp air
Ġteen age
Ġcraw l
Ġl b
ch air
um bs
Ġde gr
ass es
Ġfollow me
Ġwish ed
Ġsal ary
Ġmass acre
Ġban ana
Ġcal end
Ġfair y
Ġproduc ed
Ġjapan ese
Ġbast ards
Ġcharlie puth
Ġarrog ance
Ġbak wenan
Ġassign ment
q t
r og
Ġm itch
Ġst are
Ġmy th
so on
Ġway ne
Ġdam aged
Ġposs ibility
Ġfilm ing
conf idence
prof ess
it ated
Ġin k
Ġbr id
Ġcry st
Ġsol ved
Ġinj uries
Ġcook ie
Ġtechn ical
Ġcud dle
t our
Ġb n
es c
Ġn as
Ġnot ification
Ġcomm itt
Ġbas ement
Ġcommun icate
Ġshoot ings
Ġprote cted
Ġinclud es
Ġble ed
Ġsoft ware
t est
Ġb und
Ġn ative
Ġpor que
Ġaband on
Ġlah ore
Ġw ks
Ġf lex
Ġp up
em a
Ġev ry
Ġlack ing
Ġfort une
Ġtransg ender
f elt
Ġi e
Ġm ia
Ġp ag
Ġu mp
ut ter
Ġper ception
pa ul
Ġalab ama
Ġam endment
ard ash
Ġaf c
sh ame
Ġheart less
Ġyout uber
Ġinit i
Ġattach ed
y n
ic ity
Ġsh ade
Ġv ouch
ist ol
Ġal ign
Ġlove life
Ġapp lied
Ġpass port
Ġcontin ued
fin ale
Ġtaxpay ers
Ġt id
en ergy
Ġp ounds
ch allen
Ġtr op
Ġsu its
qu ir
we ight
ap r
so ever
oc aly
Ġdifferent ly
Ġrepeated ly
t ip
y ay
Ġs v
Ġw oken
Ġb m
Ġn aught
Ġr oss
Ġsh ops
Ġjust saying
ump f
Ġco in
Ġpo et
Ġz ig
Ġhost ing
Ġwal es
Ġpock ets
g c
h ind
Ġb end
ll o
Ġmin imum
Ġbar ca
Ġpra ised
Ġmax imum
Ġpump ed
des p
p ers
Ġb ish
ic ester
ul ary
se ems
Ġexp ose
Ġimag ined
Ġbank rupt
Ġadm ir
beaut iful
Ġb ass
Ġp g
Ġlo osing
Ġv ice
Ġfl ies
Ġspe wing
Ġz en
Ġpos ter
Ġdem ands
mo on
Ġport ray
Ġbrown s
Ġparan ormal
Ġharass ment
Ġcontinu ing
Ġobl ig
Ġresil ience
f und
m ove
Ġw akes
ic he
Ġj ose
Ġk et
Ġch ad
Ġloss es
Ġbat man
Ġt ale
ut ers
Ġpr otesters
Ġlook in
Ġsm arter
Ġro lls
Ġdec re
Ġconst ruction
Ġrip off
congr atulations
8 2
m n
Ġi hate
Ġn r
is ters
Ġe e
Ġre verse
art y
Ġind y
Ġra id
Ġpleas ant
Ġassoci ated
Ġa aron
Ġo oh
Ġo tt
Ġin ev
Ġst ations
Ġman kind
Ġbull ied
Ġmad rid
Ġloud ly
Ġham ilton
Ġalp ha
p to
Ġt iger
in ity
im ents
Ġsc or
Ġcompl icit
Ġgradu ate
shout out
Ġspir its
Ġfranch ise
h em
Ġl ust
Ġj ets
Ġinn ings
Ġincre ases
Ġghost s
Ġmos qu
b ling
d ude
Ġs oph
Ġb ots
Ġy t
Ġre in
Ġr ipp
Ġgr aham
Ġsp ice
elf are
Ġwr apped
Ġfre es
Ġbc uz
Ġsecret ary
Ġocc asion
Ġperman ent
Ġappla ud
s leep
w aking
Ġc us
Ġre ci
Ġno one
Ġsp ine
li est
Ġce ase
de ath
Ġcir cus
Ġfed up
Ġstock holm
gl ad
ov ision
Ġconsist ently
Ġwil son
Ġcdn poli
f ar
m akes
p orts
Ġw iz
Ġd ose
ed i
Ġk ate
ab il
you know
fl ow
Ġimport ance
har i
Ġtun es
Ġcomb ined
Ġcowork er
b les
d ling
Ġ à
Ġb orrow
ar th
Ġal ter
Ġ5 6
Ġho oked
Ġfun dam
Ġcount down
Ġhand led
Ġsl ide
Ġconf ed
Ġreleas ing
Ġles b
Ġclim b
Ġs ie
Ġn ug
Ġsp iders
ha z
Ġtw it
Ġpo inting
ax y
Ġsw ag
Ġfre ely
Ġcat al
Ġfig ures
Ġinvol ve
Ġdecl ared
Ġpill ow
Ġremo ving
c ond
m um
Ġl in
Ġun p
Ġbr os
ning ton
Ġsm ashed
Ġdiffer ences
Ġsmall er
list en
Ġw d
Ġf ier
it i
Ġme chan
Ġne ut
Ġwork place
Ġco v
Ġshe ets
Ġmay a
Ġph ase
Ġind v
Ġkill ers
Ġstre ak
Ġmanag ers
wed nesday
Ġdump trump
Ġvocab ulary
f g
ter y
Ġx en
Ġele esha
nd rome
Ġnat o
Ġpen is
Ġcontro vers
Ġconsum er
bro ad
Ġalle ged
Ġnever trump
iss y
my self
Ġcur ry
Ġlock er
Ġdial ogue
Ġstrate g
Ġdod gers
Ġwound ed
Ġpoors ervice
on ies
Ġd iver
Ġen s
Ġconv iction
Ġfort un
Ġtherap ist
Ġt ire
Ġf ifa
Ġon going
Ġab ortion
Ġpl ug
ven ant
Ġgr ill
Ġpre jud
Ġphot ography
Ġsac red
Ġunc ond
m u
Ġt ang
Ġg w
Ġgreat ly
Ġche w
Ġvis ual
Ġquestion ing
Ġpap a
haha ha
Ġbound aries
Ġwire t
nob ody
Ġrussi agate
j oke
Ġi want
ut o
Ġk ya
Ġwhat soever
Ġadd ict
Ġconv ention
Ġimpeach ment
wis hing
Ġcru ise
Ġcra ving
c ap
c ream
d in
f oc
Ġsc i
Ġ9 11
Ġcont acts
ubl in
Ġhuman rights
Ġste ak
Ġpop corn
Ġsand ers
Ġtheres amay
Ġcritic ize
Ġbatter ies
Ġjun ior
Ġlo gan
Ġbl oke
Ġgr abbing
ib ute
Ġmus cles
Ġint ens
Ġinvest ment
gon na
8 8
g ames
Ġwe ep
Ġthr one
Ġtake aknee
ott ed
Ġmod els
Ġprogram s
Ġamb ition
Ġcontro lled
Ġlect ure
Ġsyd ney
f ut
en na
ed o
un ity
Ġsur vey
Ġye g
Ġgener ous
Ġcop ing
Ġgeorge michael
Ġbudd ha
Ġs ed
Ġw ives
ig ers
Ġdown s
Ġkeep er
Ġhum bled
Ġgl as
Ġbab a
Ġmer ch
Ġsaturday morning
Ġchamp s
da ily
Ġvar ious
Ġin box
gh azi
Ġtalk in
Ġbey once
Ġagre ement
Ġdipl om
Ġh ac
Ġf urn
Ġy ung
Ġe cho
Ġv ital
Ġpol ite
Ġdel ta
Ġpra ises
Ġequ ip
Ġrecogn ition
Ġsacr ific
Ġdun no
Ġf ury
ay e
Ġe li
Ġas p
ah an
Ġ6 9
Ġpra ising
Ġproduc er
Ġdement ia
c am
e ach
m os
n b
r as
s en
t ow
Ġt ension
Ġw ik
Ġh yster
it als
Ġse eds
ok s
Ġhalf way
start ed
Ġrepor ters
Ġnarciss ist
b ought
j is
Ġr ival
ir o
Ġab usive
tr ip
Ġrespond ed
Ġcourt esy
Ġtrad ition
Ġber lin
char ge
Ġmiche lle
f iction
Ġr angers
ain ing
Ġco at
av id
Ġcap s
Ġlif es
Ġgar age
Ġextra ord
Ġreli ance
Ġaggress ive
leman ia
Ġcaut ion
in os
Ġc age
Ġto es
fe fe
Ġown s
Ġwar rant
Ġsound ed
Ġabs urd
tf w
Ġcol umb
Ġshut up
Ġprov ider
Ġquiet ly
count ry
f ant
ou ls
Ġp i
th or
Ġst unt
Ġtr av
st ra
Ġlove yourself
Ġmake yourown
ile y
Ġed ition
Ġmult ip
Ġanal ysis
Ġm orr
Ġh omet
Ġc el
of s
Ġsn ugg
Ġeur o
Ġav o
Ġadv ise
Ġpu ke
Ġdraw n
dog s
Ġaltr ight
p ath
Ġt out
Ġb ats
Ġh il
Ġl al
Ġg g
Ġst ance
Ġj ake
se m
Ġhar vest
Ġra j
Ġequ ival
Ġappro ved
Ġt umb
Ġc ody
Ġn ie
Ġg tf
Ġst able
Ġr achel
Ġj og
pr ide
Ġfin ance
Ġent ered
Ġsw allow
Ġprem iere
Ġfemin ism
Ġw age
ow ed
Ġk aren
Ġsc an
com p
Ġthreat en
who ever
Ġdish es
profess ional
Ġreci pe
gh h
Ġam y
Ġres erv
Ġmom ma
Ġref resh
cast le
Ġcomplain ts
Ġcongr atul
Ġstan ley
Ġconcl usion
Ġhab its
Ġc ass
ag ers
ie ves
ok ie
Ġins anity
Ġpain ting
Ġtur k
Ġnah i
d ed
u ous
Ġp iano
le arning
ter r
Ġkn ight
Ġad ulting
Ġph ill
Ġhand ling
Ġment or
Ġstar ving
Ġdistract ed
Ġobst acles
Ġcalend ar
Ġw ala
Ġd ime
Ġbe hold
Ġsh ares
Ġfo g
Ġye lled
Ġje w
every day
Ġpublic ity
Ġrepe ating
Ġlegend ary
Ġload ed
Ġrequest s
unders tand
Ġlux ury
es is
Ġ5 8
ave l
Ġposs ess
que en
Ġ25 0
Ġwrest lemania
Ġmcdonald s
Ġsh ah
Ġv ibr
Ġle o
ud ge
iss ue
Ġris ks
Ġcrow ds
Ġdu h
Ġtm r
Ġguarant eed
Ġaband oned
t or
Ġd ale
Ġre build
Ġpe ar
Ġ3 65
Ġwould nt
Ġnever giveup
Ġtw at
Ġapp alled
ash es
Ġmonth ly
Ġcast ing
Ġrh y
Ġw elfare
Ġwh eres
Ġfor d
Ġbl ur
Ġfirst world
Ġinsp ires
Ġbott les
Ġcy cling
Ġremain ing
Ġess ay
Ġsole ly
_ -
a is
j ames
ar med
Ġin fer
Ġe instein
of india
Ġtrans ition
Ġstar wars
Ġstick s
Ġpred ator
Ġpubl ished
Ġappl ication
Ġexcl usive
Ġoppon ent
Ġgeor gia
d ict
h un
v ote
er un
Ġu ma
Ġr ang
Ġk end
ant i
Ġco oked
Ġthr ive
Ġac id
Ġaud ition
Ġsaf ely
ias m
Ġnurs ing
Ġhighlight s
Ġtreas ure
u ition
Ġg in
st ein
Ġtrump train
Ġfun n
Ġkind le
af inals
Ġeur ovision
Ġsex ism
Ġmuslim ban
sp orts
Ġbuild s
Ġconcern s
Ġnaught y
m aker
ou ver
Ġo v
am os
Ġwork shop
pl us
Ġro lled
Ġmin im
Ġcar pet
wor ship
cr oss
Ġgre g
Ġsuff ers
Ġwaste of
Ġroll er
Ġbetray ed
Ġphenom enal
Ġfrag ile
Ġcoinc idence
h ours
Ġwh n
Ġshe ll
Ġop s
Ġmar sh
Ġmess ing
Ġspeak ers
Ġ201 1
ca res
Ġtit les
Ġencour aging
Ġunfortun ate
Ġdar ling
Ġsnowfl akes
Ġreh ears
Ġpalest in
Ġbree ze
et es
Ġwh os
Ġv iet
Ġz ion
Ġpen n
acc ording
o ons
on nell
Ġf w
Ġan i
Ġme ga
Ġper for
Ġhist or
Ġbur r
Ġach e
Ġcrash ed
Ġtun nel
belie vers
Ġtemp le
bled on
Ġank le
polit ics
Ġmakeyourown lane
c ake
m art
Ġs ot
Ġp k
Ġp opping
Ġg or
om o
Ġbl amed
Ġ6 2
Ġbre w
man ces
ipp er
Ġcu ando
Ġse ctor
Ġdr umpf
Ġfree zing
Ġair tel
Ġpakistan i
Ġimpeach ed
Ġmeaning ful
Ġrog er
Ġdepl or
Ġresident s
s n
w al
Ġt its
Ġin ept
Ġst oked
st reet
ship s
Ġeur op
Ġmot ion
Ġfavor ites
Ġdevelop ed
lead ing
Ġcher ish
Ġintent ions
o ct
Ġb ucks
Ġd itch
Ġg igg
Ġg ays
Ġre ver
day sof
Ġlaw n
Ġden ying
Ġswe ep
Ġdesp ise
Ġjam ie
Ġacknow led
Ġhous ing
Ġtant rum
Ġblat ant
Ġkore an
Ġglas gow
Ġw ounds
id ad
Ġle on
if ically
Ġbeaut if
Ġencour aged
Ġintr o
Ġmah at
Ġeph esians
Ġmisogy n
Ġbie ber
Ġw ank
ed iting
Ġam reading
uck y
Ġro hing
Ġrel ieved
Ġprev ail
Ġprogress ive
Ġsusp ense
Ġnost al
m h
w at
al and
Ġe ager
Ġfr ied
are z
Ġph ony
Ġshame on
Ġreign s
hist ory
Ġs ak
Ġw es
Ġf ist
Ġmu j
Ġgen ocide
Ġpolit ically
c ame
l oc
Ġt c
Ġb art
Ġan ne
Ġand re
Ġ- _-
Ġle icester
Ġfe ver
Ġover s
Ġes cal
Ġsim on
Ġstud ies
Ġprov ides
Ġlink in
Ġdav is
Ġpayp al
Ġparan oid
Ġhann ity
Ġcommitt ee
Ġo ven
Ġre ap
Ġfa ux
Ġche f
Ġsick ening
Ġland ed
Ġbrainw ashed
Ġm j
em y
Ġmiss you
Ġrock et
Ġrelax ed
Ġfulfill ed
Ġincompet ence
Ġconscious ness
Ġwim bledon
Ġb am
Ġb ent
Ġd ive
Ġfin est
Ġnorth ern
Ġfemin ist
Ġcharlot te
Ġp ix
Ġbe kind
Ġre jection
Ġgr o
Ġdr ake
Ġser ves
Ġvo id
Ġlondon attacks
Ġnb afinals
Ġtro lling
Ġavoid ing
Ġteen ager
cho ice
Ġinno vation
l ate
Ġh p
Ġd ublin
Ġp ud
ow a
Ġre wards
Ġsh attered
ack ing
Ġper ce
Ġexc ess
Ġclass room
Ġhar r
can not
Ġbc z
every body
Ġalbum s
Ġww ii
Ġrenew ed
dream s
Ġg ab
Ġpr iest
Ġpe pper
Ġlife coach
ach i
Ġtru est
fo x
Ġexplain ing
Ġfour th
Ġgolf ing
Ġh iring
Ġcom ics
Ġbo oth
Ġbed time
Ġbreak up
Ġimpr o
Ġchem ical
Ġdot ard
Ġadvers ity
8 4
l r
l est
r ac
Ġk ush
Ġch ir
Ġv ain
Ġdes ert
Ġet hn
Ġsound track
Ġest ate
arch y
Ġgift ed
Ġeye br
Ġpun jab
Ġtast es
v ide
Ġn ore
Ġg el
as her
we h
em an
pr op
br ain
Ġass ass
Ġsur f
Ġreg ards
Ġsick not
Ġfire fly
de bate
Ġlif ting
Ġserv ant
Ġwarn ed
Ġinfin ite
broad band
f ive
Ġm ild
th et
Ġr m
Ġk ardash
all ife
Ġv anc
Ġbest ie
Ġshit s
ws u
Ġvis a
Ġexist ing
Ġdress ing
Ġbun ny
Ġdub ai
Ġstrict ly
Ġpean ut
Ġgood s
Ġbig ots
Ġdef ensive
af c
head s
Ġregular ly
Ġsupremac ists
Ġnoth in
b es
Ġl az
Ġy or
ot est
Ġu pper
th ree
Ġbo llywood
Ġph arm
ik ing
Ġrid es
Ġak u
Ġcir c
Ġhor rend
Ġvolunte er
l as
u ate
ep r
Ġsc ro
Ġlist s
Ġbeg un
Ġmain ly
Ġcross ing
Ġcontent ment
Ġmembers hip
hol iday
Ġbra very
Ġilleg als
Ġthirst y
f are
an im
Ġn vr
st orm
Ġgr ay
ish a
Ġpo o
ord s
Ġstr uck
Ġend orse
Ġhu gh
Ġmet oo
Ġsurpr ises
Ġmain ten
Ġcontrib ute
t ips
Ġw ax
as ters
ind a
ap ers
Ġcl iff
tr ans
Ġ5 4
Ġfar mers
Ġbull s
ico le
Ġ1285 14
Ġimmigr ant
Ġsno op
hur ts
Ġduk hi
9 8
b umps
l ah
u f
at hing
ar ms
th ood
Ġst ead
Ġk uch
de ep
Ġimpr oved
Ġdan ny
Ġmult i
Ġgram mar
ios ity
Ġcamer as
Ġanch or
Ġgord on
Ġsicknot weak
b ay
v ol
w art
Ġp ok
Ġcom fy
Ġhigh way
Ġsy nc
ins on
Ġunder est
Ġmur ders
Ġsubscrib e
Ġattem pting
Ġtri umph
Ġperfor mances
Ġb ake
Ġf ck
Ġc uck
Ġy olo
ver ts
Ġj ury
im s
Ġdon ated
we ird
Ġur ban
Ġinc orrect
Ġcour ts
cl inton
Ġgovern or
Ġble eding
Ġd rew
Ġin fect
Ġst air
ag ood
Ġun re
Ġthank ing
Ġho lly
af one
pol ice
Ġspin ning
Ġtrait ors
Ġamb ass
Ġassist ance
c ult
Ġm ps
it os
Ġare nt
Ġdon uts
ab eth
Ġgr umpy
Ġ12 0
ief ilm
Ġemail ed
Ġproc laim
Ġrespons es
Ġimwith her
f ory
m ars
n z
o i
s uck
u v
Ġl ick
Ġk c
est r
health y
Ġcolle ague
Ġden ounce
Ġgrand pa
Ġkey board
Ġland s
Ġod i
Ġenforce ment
Ġlob by
Ġextraord inary
m ary
m nt
ut y
Ġaf g
Ġcele b
Ġsus an
Ġf h
Ġp uk
Ġg il
Ġbe ck
Ġr oses
Ġmu hammad
Ġtw d
iz a
Ġhel en
Ġlast s
aren t
Ġsen iors
Ġidiot ic
Ġchat ting
Ġintr over
Ġenthus iasm
c ode
n ings
Ġa ce
Ġn ine
Ġst l
Ġst all
am ad
Ġbr at
Ġsp ouse
Ġcar n
Ġrel atable
Ġsad dened
Ġfaith fulness
Ġla ura
Ġext ended
Ġheaven s
Ġauth ors
Ġexhaust ing
Ġven ue
Ġsd live
Ġbk wsu
Ġclin ic
fut ure
b ased
Ġa ven
Ġw ats
Ġl d
if fer
Ġrem ix
Ġprop os
cy cle
Ġknock ing
Ġken ya
Ġp alm
el and
Ġde pr
Ġshe et
Ġpre aching
Ġtop ics
Ġmot ive
mon ths
Ġrain s
Ġconst ruct
Ġpsych iat
Ġmach ines
Ġbum med
Ġmanu fact
i ya
s ed
Ġd as
Ġto ll
it ure
Ġre ass
are na
Ġdr um
Ġpol ish
Ġev angel
Ġcup s
Ġnom ine
Ġtrum pp
Ġspook y
j r
p it
p ast
Ġb apt
Ġh ud
Ġre e
Ġst ating
Ġup side
Ġun professional
ob ile
te ch
Ġass ad
Ġwar ren
Ġarr ival
Ġclos es
Ġsolid arity
Ġdiss ap
Ġadvoc ate
it udes
Ġr oles
Ġse lls
Ġar ise
Ġser mon
Ġro oting
gr ow
Ġhand some
Ġprob s
Ġconc erts
Ġcost ume
Ġcy n
Ġtheres a
Ġobs ession
Ġave c
Ġfle e
Ġdete ctor
Ġscumb ag
j ar
it ical
iv ate
Ġbr ow
Ġgr asp
Ġrem ot
Ġz im
Ġrelax ation
week s
Ġlou der
Ġvoc al
Ġparticular ly
Ġb ou
Ġf oster
id i
Ġbu ys
Ġcons ult
Ġlaw yers
Ġmum s
empt ion
Ġrequest ed
Ġmothers day
Ġcompar ison
b ies
Ġh ott
Ġd ost
for life
fl ies
Ġps l
Ġla ure
Ġru th
Ġben ghazi
Ġko i
Ġfur ious
Ġsubs cription
Ġaustr alian
Ġh th
Ġf ence
Ġg y
Ġneed y
Ġqu iz
fr ica
Ġposit ions
Ġepic fail
pray ers
Ġshad ows
Ġali ens
p g
Ġl itt
Ġfor s
Ġgo away
Ġun qualified
Ġsl aughter
Ġcomm ission
Ġz eal
Ġent ering
Ġconf ession
any e
Ġill usion
Ġpump kin
Ġgrind ing
Ġilove you
Ġgur u
Ġb aff
Ġp om
Ġn iet
ot he
oun ge
ort ed
so cial
Ġspe lling
Ġrel ative
Ġread er
Ġself ies
Ġspend s
Ġbank ing
Ġfool ed
Ġscr ip
Ġgrad es
Ġdc service
Ġjosh ua
Ġolymp ic
Ġcowork ers
Ġbiafr ans
Ġresur rection
Ġvig il
Ġxox o
c amp
c alling
o cc
t reat
x perience
on i
ing le
Ġp ork
Ġy ummy
Ġan s
Ġan ton
Ġr ag
Ġle m
Ġ7 1
Ġrun ner
Ġbus es
Ġcur t
Ġvo or
Ġbatt ling
Ġtyp ing
Ġglob e
desp ite
Ġdeplor ables
Ġremot ely
o ze
y out
Ġb oun
Ġyou are
Ġme u
ist ics
Ġal an
Ġcom bo
Ġdead line
Ġ201 0
Ġâ ĺ
Ġoutr aged
Ġestablish ment
n igg
ot o
ud o
Ġim iss
Ġdis rupt
Ġmo i
og a
Ġinc ap
ier i
Ġmess y
Ġexp and
Ġtal ents
Ġny t
Ġvs s
Ġtrack ing
va us
mind ed
pra ise
Ġade le
Ġgoose bumps
w i
Ġs ri
Ġw olves
ou st
Ġp anc
Ġo re
ic ans
Ġle f
Ġgood vibes
Ġcl int
Ġpo c
Ġter esa
no ld
Ġgrand mother
Ġappro ve
Ġchill s
Ġscott ish
Ġgest ure
Ġobstr uction
j ones
Ġp am
Ġy ikes
Ġn est
Ġj ag
Ġj ab
Ġsu is
Ġad apt
pr ise
Ġold est
Ġir respons
Ġexp ired
Ġdamn ed
Ġposs ession
Ġms d
Ġcult ural
Ġfal cons
Ġorgan iz
Ġtarget ed
Ġfrustr ation
Ġqual ify
ij u
Ġcher ry
Ġox y
9 7
Ġy ards
Ġj fk
Ġun fold
Ġsc roll
Ġev ac
Ġpull s
Ġapolog ise
Ġirr ational
Ġhw y
Ġreli able
turn ed
f el
in tern
Ġs ag
Ġw ag
Ġl bs
Ġj enn
Ġ- >
Ġcr ist
Ġbad ge
be ach
Ġur s
Ġend ors
Ġhum our
Ġdefin ed
Ġspeech es
Ġbat ting
Ġswitch ing
Ġdiagn osed
ocaly pse
Ġ= )
ian c
Ġpro ceed
Ġwonder ed
ern ick
Ġdirect ions
Ġri ots
Ġamb ul
Ġmicr os
Ġsteel ers
d an
g one
i ate
Ġg ains
Ġon tar
Ġout do
Ġjesus is
Ġcontrol s
Ġextrem ist
Ġmel bourne
Ġrepres ents
Ġfund ed
Ġpp le
Ġregister ed
Ġhomet own
Ġmahat ma
Ġhorrend ous
b reat
Ġb ounce
Ġh of
Ġn umer
Ġo ath
Ġst o
Ġatt or
less ness
Ġcreat ures
Ġmass es
Ġnetwork s
itar ian
Ġpromot ed
Ġbia fra
Ġcarr ie
Ġbachel or
Ġi an
Ġl ac
Ġin fr
le ave
Ġr otten
Ġpr ol
Ġ/ <
ear th
Ġele ph
cr isis
oh li
Ġsnap s
Ġnarciss istic
Ġultim ately
b oss
d ance
w ake
Ġt ent
Ġexp ense
Ġwis ely
Ġden ver
Ġsett led
Ġvod afone
Ġpedoph ile
thest igma
Ġconven ient
Ġexter nal
Ġm im
Ġf ibr
Ġc in
Ġl c
Ġp uzz
ud a
Ġcr ashing
Ġar k
iend o
Ġ7 00
Ġrest art
Ġbar ry
Ġge ez
Ġhair cut
Ġdi ary
Ġliar inchief
Ġspec ies
Ġrefuge e
Ġtra um
Ġcaf fe
Ġhth online
Ġm ens
Ġm ets
Ġl ds
Ġfa ulty
Ġem ma
Ġpers ec
no x
go v
olog ist
Ġru ins
Ġut d
Ġcov fefe
d ens
Ġn hi
it out
ch i
Ġwe ars
Ġfr nd
Ġas ia
Ġfl av
Ġz o
Ġbab ys
wr ong
Ġmark ets
Ġjour n
Ġappro x
Ġmal es
Ġhack ing
Ġcrack ed
Ġdrown ing
walking dead
l ift
n in
Ġd it
Ġd ard
Ġto k
th am
Ġun american
Ġfeel in
Ġthr ones
Ġcomp aring
Ġset up
Ġsol ar
Ġdiv isive
Ġport land
Ġemo jis
Ġelector al
Ġstere ot
Ġontar io
c ards
Ġh art
Ġc unts
is order
Ġall en
ok ers
ap o
Ġdr ill
Ġpar adise
cl oud
Ġcurren cy
Ġform ula
Ġport ug
Ġspin eless
Ġdut ch
Ġincident s
Ġdisag re
Ġlifeless ons
b as
g ard
os ity
and e
Ġsp ots
Ġsa fer
Ġdis covery
Ġinc on
fl ag
Ġposs ibilities
Ġspeech less
Ġextrem ists
Ġpodcast s
Ġobject ive
Ġbuzz ing
Ġjama ica
l ic
w ild
at omy
Ġst abbed
op r
se as
Ġgood luck
Ġsc ars
Ġmo an
Ġob tain
Ġplan es
ugg ing
Ġdev ices
Ġgener ally
mc gregor
a ves
m ant
Ġj s
Ġgo ver
Ġfr an
ak i
Ġtim othy
Ġpre view
Ġstr anded
Ġind vs
Ġind vpak
lo ves
Ġsupport ive
Ġcho ir
Ġten go
Ġgal axy
Ġlegisl ation
itb art
f h
i q
l ab
s un
Ġh ike
Ġc ave
ing o
Ġl ama
Ġg amed
Ġo val
Ġst ub
Ġr in
el o
Ġhe ight
iv als
Ġcl ips
ha h
Ġro hn
ict ions
Ġcar ter
Ġgl ut
Ġsun set
Ġap ost
Ġlight ning
Ġmer kel
Ġsent iment
Ġmentalhealth awareness
Ġdeliver ing
Ġconnect ing
Ġdump ed
Ġblast ing
Ġsacrif ices
Ġbetray al
ibl ings
e ast
Ġg inger
Ġj ared
st uff
ist e
Ġread ers
Ġ8 8
Ġcreat ure
Ġopp ression
Ġfat al
Ġhonor able
Ġimpress ion
know ing
Ġdy nam
Ġscar iest
Ġkab ul
Ġconcentr ate
Ġviet nam
r ow
Ġr ab
ent ed
Ġatt ended
Ġtrust s
Ġdem i
Ġreason able
ocr ast
Ġsunday s
gu ard
Ġpsych ological
Ġsam uel
vere ign
g ang
re quest
Ġthe walkingdead
Ġall y
Ġex hib
ond a
ors uch
Ġass ured
Ġpath s
Ġimportant ly
Ġmouth s
Ġcance lling
Ġsucceed ed
Ġtaxpay er
reason s
Ġuncertain ty
9 6
b oth
Ġd ere
Ġsh ades
Ġab d
Ġgod damn
atch ed
Ġaf fection
Ġover rated
Ġworld series
Ġtom ato
Ġexper iment
Ġfood s
Ġexpl ode
Ġexpl ains
Ġna ive
Ġest a
Ġgrand e
Ġsens eless
challen ge
Ġequival ent
Ġw ahh
Ġd b
Ġg at
os i
Ġhe el
Ġas t
Ġal ice
if ty
ire ct
xt on
oc re
Ġsl og
Ġsl asher
Ġblack livesmatter
Ġsub mitted
Ġ200 8
Ġconnect ions
Ġedit or
Ġdevast ating
Ġhob by
Ġrefere e
b igs
Ġs ings
Ġf x
Ġp und
ar ound
ir ma
Ġam ber
ink s
Ġnew year
Ġco c
iz ona
Ġlist ens
do it
att ention
Ġchurch es
Ġinnoc ents
Ġing red
Ġsos ad
Ġtransparen cy
Ġlesb ian
l iness
Ġc ob
Ġd ah
th ursday
Ġrem arks
Ġfil es
Ġwind s
Ġform at
Ġmanag ing
Ġbal anced
Ġhind i
Ġbust ed
Ġintoler ance
Ġprejud ice
r ally
w it
Ġa ye
Ġw ack
Ġb il
Ġr af
Ġshe er
Ġmor gan
els on
every time
Ġmist ress
pray ing
Ġminor ities
Ġfeat ures
Ġhaw aii
Ġmelt down
at tr
Ġn it
Ġsh ak
Ġk ool
Ġpr ick
fe ed
Ġget alife
Ġle x
Ġle aked
Ġbl ames
Ġco le
to ld
Ġ6 4
Ġchar ger
Ġopp osed
Ġislam ist
de f
last ing
Ġcoll apse
ogr ap
Ġattempt ed
Ġstalk ing
Ġadop t
mars ha
Ġs as
ic ting
Ġpl ants
Ġgod ly
Ġser vers
Ġmed ium
Ġmust ard
Ġboy cot
Ġste ady
Ġbit es
Ġcast le
Ġprinc iple
Ġpubl ish
Ġclim bing
Ġrus sell
Ġi ch
Ġwh ip
ic ia
Ġhe in
Ġdes c
br it
app er
Ġsur face
Ġwar ming
Ġexpect ation
Ġfac ial
Ġhy ped
Ġvis its
Ġrefer endum
Ġcruel ty
Ġpatriot ism
Ġmort gage
m illion
Ġf andom
at r
Ġsh aw
Ġsh ady
Ġcan ts
Ġout let
Ġfl ames
Ġstr ing
Ġrec r
Ġwalk er
Ġed she
Ġjud ged
Ġtext ed
Ġboard ing
Ġfundam ental
m ath
t ies
Ġs ush
Ġm af
or c
Ġin app
Ġr ats
Ġfr igg
est udy
Ġde an
Ġheart broken
Ġrec ru
Ġret reat
Ġeach other
Ġcol in
Ġver b
Ġtit an
Ġcheap er
Ġpour ing
Ġelectric ity
interest ing
o ly
Ġl ur
Ġre b
Ġu ae
ut ch
Ġpr ocrast
Ġno ises
Ġbr uss
Ġ9 6
ph ins
Ġbur y
ming ham
Ġpiss ing
Ġsqu ir
Ġproduc ers
Ġsequ el
Ġearthqu ake
n fl
o ok
Ġm v
Ġd ough
Ġit v
Ġst ab
Ġse lection
Ġab ilities
Ġor ient
Ġtoday s
Ġwr ist
Ġgive away
Ġmiss es
Ġlist ed
Ġmat urity
Ġcont ag
Ġred s
Ġaccount ability
Ġpiss es
Ġdevot ion
Ġthor ough
8 7
b ul
m ood
Ġl ax
Ġp als
Ġp uff
Ġsh ifts
ok o
Ġsp aces
ass y
Ġfl ush
Ġind ic
Ġcont empl
Ġinc ons
Ġadd ition
Ġprof ound
Ġexist ed
b ase
al do
Ġu d
Ġdon ation
Ġgr abbed
Ġthink bigs
Ġ4 20
to os
Ġsleep s
vel t
Ġtuesday motivation
Ġdelet ing
heart ed
Ġreve als
unday with
Ġoptim istic
Ġmedi ocre
Ġgrenfell tower
Ġdepos it
Ġthinkbigs undaywith
Ġc ord
um ed
Ġpe ep
Ġqu ier
Ġen ab
Ġmor ality
ma id
Ġcho oses
co lle
Ġfear ful
Ġaud i
Ġarg uments
dis app
Ġglo ves
Ġunst able
m id
Ġst amp
Ġhe als
Ġsu arez
Ġpe ps
Ġcr ank
ib an
Ġsc otus
Ġbel g
Ġbo ast
Ġtry in
te lling
Ġcons ent
ps y
Ġdemand ing
ju ly
Ġdouch e
Ġinev itable
b read
e ared
o il
Ġw y
Ġh tt
Ġin au
Ġv ast
ab ilities
Ġcr isp
Ġdream ed
Ġvol ta
Ġirr itating
Ġtact ic
inform ed
Ġthinkbigsundaywith marsha
Ġf ianc
ll ah
Ġo oo
ac ular
Ġne o
Ġso vereign
Ġv iv
iz abeth
Ġmon key
Ġimp lement
ox ide
times ofindia
Ġcigare tte
Ġpostp one
l at
Ġt inder
Ġd ash
Ġp opped
es p
it up
ar ma
Ġin ability
al ing
Ġre fr
Ġu c
Ġr ated
Ġam joy
Ġdon ations
Ġday light
ose xual
Ġar izona
sh ake
Ġstr uct
Ġcar son
Ġass urance
Ġrest ored
Ġpur se
Ġest eem
Ġcal cul
Ġspr int
Ġder by
Ġunfollow ed
Ġempower ment
Ġdiscip les
Ġastr os
Ġopio id
iju ana
a ust
Ġb d
Ġf ishing
Ġd arn
Ġg ms
le br
ut ional
Ġdo cs
Ġv ou
Ġout lets
Ġfl oyd
Ġrel ations
Ġmusic ians
Ġir l
ho a
Ġmentalhealth matters
Ġarr ives
Ġpark s
sec ond
wom ens
Ġwhe els
Ġthrill ed
Ġboot y
rent ice
Ġbibl estudy
Ġvanc ouver
Ġrecr uit
f ed
Ġs iblings
Ġm ul
Ġc ott
Ġst ake
Ġr and
Ġ: :
Ġte aring
Ġbr ide
ick en
Ġep s
uc es
Ġsum mers
mp re
Ġrob in
Ġspec ifically
Ġgraph ic
Ġtas ks
f ool
Ġli z
Ġnot happy
Ġag encies
ang irl
Ġho ll
ny a
Ġacc us
olog ies
Ġestab l
Ġgamed ev
l m
m ont
Ġg ib
Ġmar ia
Ġimp at
Ġcons ume
Ġmove on
Ġgre ek
Ġpick up
bu y
Ġeld ers
Ġautom atic
Ġdownload ed
Ġtuck er
Ġfortun ate
c oun
t m
an mar
Ġl atter
it ute
ke lly
Ġj in
Ġsh ipped
Ġtr icks
Ġup stairs
Ġfe ud
ink ing
Ġres ume
Ġstand up
Ġbir mingham
Ġcry pto
Ġint uition
Ġdestroy s
Ġfrank lin
Ġsav ings
Ġsack ed
Ġlabel ed
lif ting
c os
d oub
Ġl id
Ġre union
Ġsh amb
Ġk in
Ġso x
Ġfr og
iss a
umb ling
Ġstat ue
Ġpun ished
Ġvictor ia
b iz
f w
g af
Ġs issy
Ġi w
Ġe ight
ic orn
ch ief
Ġbr istol
Ġfl aws
Ġpart isan
Ġment ions
Ġeas tern
bl ues
de fin
Ġfill s
izz y
Ġpract icing
Ġelect r
Ġrum ors
Ġchem istry
Ġdram atic
Ġdiab etes
Ġneut ral
Ġedshe eran
Ġh ips
Ġn ig
is real
ot le
ur g
Ġno ble
ose velt
Ġsa us
alth ough
Ġpay ments
Ġ8 9
Ġx o
Ġcard iff
Ġirrespons ible
w ick
Ġv ine
ish es
Ġafter wards
Ġteam work
Ġstay strong
Ġhead lines
Ġleg ally
Ġty ler
bl ast
Ġbey onc
Ġtroub led
Ġbang ing
Ġcelt ic
Ġinno v
Ġfirstworld problems
Ġnumer ous
m ur
u y
Ġre agan
ver ted
Ġli am
st upid
Ġle v
Ġbr ick
we ed
Ġbig gb
Ġrel atives
igg ers
Ġprof its
Ġstock s
Ġic ant
a at
d aughter
h ale
k t
x y
at on
id em
Ġas semb
Ġover it
Ġover coming
Ġmin ha
Ġsur ve
Ġconf use
Ġred emption
Ġorgan ized
Ġrul ing
Ġnom inated
Ġtag s
Ġgods love
Ġdescrib ed
Ġnut r
Ġcompreh end
Ġincap able
Ġi ced
at us
Ġwe instein
Ġthank fully
Ġ7 7
Ġid c
Ġ6 8
Ġsn iff
ipp ers
Ġcorr up
Ġâ Ŀ
Ġoppos ing
Ġlun atic
Ġaffirm ation
Ġt bt
Ġw end
Ġm ga
an u
en ger
Ġg amb
op her
od a
ct ions
Ġam ate
Ġnow playing
Ġke en
Ġrest room
Ġed in
uff le
Ġscre wing
Ġpros pect
Ġmock ing
Ġcough ing
Ġprose cut
Ġimper fect
Ġlung s
Ġfurn iture
l bs
l ots
m arch
Ġp ose
Ġsu cc
Ġad a
Ġinter rup
Ġbre itbart
Ġinst alled
Ġcamp ing
mor al
Ġbene f
Ġobs ess
Ġadvent ures
Ġgrac ious
Ġcontag ious
d ark
r ie
re en
Ġh ve
Ġl amp
Ġr w
Ġli vest
st eps
Ġam ster
ul ated
Ġte e
Ġdis gu
Ġtw ain
Ġel cl
Ġstay blessed
wor ry
Ġlaugh able
Ġswe ating
Ġrul ed
Ġimprove ment
Ġsweat y
Ġparticip ate
Ġfibr om
j un
m t
Ġt is
Ġto h
Ġbe ans
od i
fe w
Ġgr ieving
Ġcr unch
Ġfl op
Ġsun g
Ġbreak through
Ġstory line
ann ed
Ġpur su
Ġmil o
pre p
Ġsand y
Ġreleas es
Ġmour ning
Ġcere mony
Ġlifeis good
Ġdoz en
Ġtmr w
h alf
Ġi ly
Ġm ast
Ġd ow
pp ers
st ore
se lling
Ġnew castle
Ġmo ld
Ġ9 7
Ġmorning joe
Ġcur iosity
Ġproud ly
Ġjump s
Ġsup remacy
Ġpatriot ic
Ġerr ors
Ġequip ment
Ġbruss els
Ġb isc
Ġh ush
at ics
Ġn int
Ġbe an
Ġfor bid
im ately
Ġwho a
Ġbl air
Ġwr ath
aut o
Ġpark ed
ask a
Ġhost s
Ġww c
Ġfasc ism
Ġvit am
Ġb ere
Ġin fection
ad el
ub ar
og o
aw w
Ġche wing
ix on
Ġrespect s
Ġce iling
Ġopp ose
Ġhist oric
Ġshall ow
Ġelection night
Ġland ing
uel a
Ġscream s
Ġbene ath
Ġexcell ence
Ġenlight en
Ġeyebr ows
k ers
r oy
Ġa an
in as
Ġm ash
Ġe z
ad vice
Ġst oop
Ġr ash
ul ations
ab use
ies word
Ġmu bar
so flight
Ġbo il
Ġkid na
Ġsl ot
Ġfit ting
Ġmist aken
Ġlog ical
Ġchill ed
Ġdifficult ies
har vey
Ġtarget s
Ġtrib e
Ġnam an
bor ough
Ġalg iesword
Ġcateg ory
Ġcaffe ine
Ġamster dam
Ġalgiesword soflight
in my
Ġs ach
Ġc ater
Ġc odes
Ġr ust
Ġno g
ub ali
Ġbo og
Ġmon oxide
Ġinst r
Ġprom pt
tod o
Ġluck ily
Ġant is
Ġprep aration
Ġrap t
christ ian
Ġoper ate
Ġeb ay
Ġspic y
Ġwomens day
Ġexplos ion
Ġambul ance
j et
Ġs ip
at ians
Ġp ll
Ġg aw
Ġin ning
ad er
ac o
Ġam editing
hing ed
Ġrep ubs
enc er
Ġtop s
Ġstress ing
Ġban ner
Ġhyp n
Ġchick s
Ġproduc es
Ġtab let
Ġroot ed
Ġcru cial
Ġdal ai
Ġpon der
Ġphilipp ines
Ġintrover t
l ib
in ations
Ġc bt
Ġr av
Ġj c
Ġch or
od ay
Ġv in
Ġv est
Ġco co
Ġover seas
Ġgl itch
Ġcomm ute
Ġmem o
ps a
Ġlack s
Ġdrag ged
lead er
Ġmt v
Ġsne ez
Ġconsum ed
Ġbrag ging
Ġmisogy ny
Ġmuse um
Ġoxy gen
p c
Ġl akers
Ġin ch
Ġtr an
Ġem erson
Ġever lasting
be ast
Ġve g
Ġlot tery
Ġty m
Ġant id
Ġtal es
Ġext end
Ġcred its
Ġshar ia
Ġcomb ination
cons in
Ġoppon ents
Ġnca a
Ġmainten ance
n ut
u ation
w itter
Ġt igers
Ġb ac
Ġp b
ed ed
Ġit ch
Ġmy anmar
Ġk yle
Ġnever forget
Ġlast ed
Ġfuck you
Ġtru elove
Ġpresident trump
Ġenjoy able
ret weet
wr ite
Ġvis ible
Ġfat igue
Ġcolor ado
Ġdrag ging
Ġcock t
lad ies
Ġspur geon
e ur
h ockey
t uesday
Ġth umb
ing u
Ġd ess
Ġg s
it age
Ġk fc
Ġreal m
Ġsm dh
Ġur gent
Ġev ident
Ġhigh school
Ġfact ory
Ġjoy s
Ġer ase
Ġtren ds
Ġban ter
Ġrh oc
Ġess ence
Ġreact ions
Ġprivile ged
Ġsurviv ors
Ġvod ka
iqu es
Ġaspect s
Ġremem bers
f ix
n ormal
Ġf ade
Ġre ception
Ġv end
Ġv icious
Ġun hinged
wh ether
Ġsa il
oy ou
Ġ10 5
Ġterr ibly
Ġsing ers
Ġshort ly
Ġarr ange
Ġemb ar
Ġsmil ed
Ġbt c
Ġsens es
Ġri h
Ġintrod uced
catch ing
Ġtumb lr
v ict
y ous
on ing
Ġo pr
ion e
Ġsh ave
st ress
Ġke ller
Ġbo ll
Ġnews paper
Ġcool er
Ġdevelop ing
gl ory
tt es
Ġveh icles
Ġrent al
Ġvalentines day
Ġbish op
ograp her
c omet
v ind
Ġs g
Ġd us
Ġbe ers
Ġk enn
Ġk anye
Ġco venant
Ġthought ful
Ġ8 6
Ġ11 8
ene z
Ġbb na
Ġtur tle
Ġach ieving
Ġgovern ments
abe lle
usal em
Ġincon ven
d led
m ac
Ġh bd
Ġd vr
Ġl itter
Ġp ess
Ġy er
Ġsh ore
Ġhe ath
Ġch an
Ġun us
Ġ7 3
Ġcar ries
Ġass uming
Ġtruth s
Ġfree ze
Ġben z
Ġconv icted
Ġcas a
Ġspons ored
Ġtac os
Ġinstruct ions
Ġwhist le
b ott
k at
m akers
s al
or ter
ke ley
Ġfr ost
Ġar c
sh ots
ne ys
be gin
Ġ9 2
Ġind iefilm
Ġjo el
Ġhealth ier
Ġrest ing
Ġdisapp eared
yal gia
Ġfair ly
Ġexcept ion
Ġbbc qt
Ġash es
Ġdistur bed
Ġcraw ling
Ġoutrage ous
Ġentr ance
Ġlyn ch
Ġwhitesupremac ists
Ġinapp ropriate
r age
Ġp imp
as ico
Ġch oke
um in
um mit
Ġas ton
Ġam or
Ġro osevelt
Ġmon k
Ġper ry
ens ions
not sorry
Ġlight ing
Ġtravel ban
Ġchallen ged
Ġvir al
Ġmcc onnell
Ġgentle men
Ġt read
Ġw ages
Ġg haz
Ġtr ucks
Ġpr ost
Ġthey re
so ld
Ġreal ization
Ġmar ine
its ch
Ġunders t
eth is
Ġscre ening
Ġtur ret
Ġincl usion
Ġscream ed
Ġrefer red
Ġuns ure
Ġrapp ers
Ġcarol ina
c ute
n umber
s k
Ġc f
it ary
Ġu til
Ġj b
Ġem ily
pr ing
Ġamaz e
Ġye h
Ġcontr ad
ph il
Ġcelebr ated
Ġrev ol
Ġocc urs
Ġram os
bet ween
Ġbip ol
gen er
Ġchief s
Ġnarr ow
Ġfibrom yalgia
l b
z i
Ġc mon
Ġsh red
Ġk il
Ġno ah
Ġbr un
ang els
Ġob nox
man a
Ġhouse hold
ik h
Ġforg iven
Ġneg lect
Ġcanad ians
Ġcollect ive
Ġcomed ian
Ġn ude
el ong
um ar
Ġno b
Ġun icorn
Ġsc o
Ġbet h
per fect
Ġkill ings
Ġhom ophobic
Ġcal i
Ġvac u
gl asses
Ġhay ley
Ġinsec urity
Ġpoke mong
luck y
Ġhil ary
c ia
k an
Ġl isa
Ġl ounge
Ġn icole
Ġst iff
ig a
Ġsome what
Ġdown stairs
Ġ6 3
br and
Ġinter pret
Ġma id
Ġjoin ts
Ġkar o
Ġbright er
Ġtow el
Ġinvent ed
Ġelement ary
f avor
p ent
Ġm g
Ġp int
Ġn iv
is le
Ġse lected
Ġat roc
st ories
ack ed
ig ence
ep ernick
Ġbr ands
Ġlast ing
Ġdes cription
lo ver
Ġve z
Ġacc ord
let hings
jo in
Ġmi xt
Ġexplain ed
Ġdress es
Ġran ieri
Ġugh h
Ġground ed
Ġrecogn ized
Ġtrad itional
Ġimmedi ate
sl ave
Ġperf ume
Ġvolta ire
i ation
m iah
Ġm end
Ġc av
an them
Ġo reg
le vel
Ġme jor
Ġout last
Ġreal est
Ġterr it
bo ot
Ġauthor ities
Ġcrack ing
Ġpatient ly
Ġbigot ed
Ġnos leep
Ġinsult ed
Ġbuff oon
Ġprover b
Ġidol s
Ġcapital ism
Ġjac ob
w itch
Ġt p
Ġi a
Ġi z
an as
Ġp oured
Ġn urt
Ġan cient
ar am
al right
ch ris
Ġk or
Ġme g
Ġfa it
ft ime
sp ace
Ġmas n
Ġfast est
Ġrap id
Ġdesign er
Ġvir us
Ġjer usalem
c ir
Ġb aking
ar o
Ġst em
ers t
se a
se ek
Ġlet go
Ġtw enty
Ġapp et
Ġve gg
Ġcount ed
ik i
ph as
eth at
Ġport ion
Ġactiv ate
Ġdistur b
Ġmant ra
Ġfrees peech
Ġambass ador
Ġattor ney
Ġestabl ished
Ġinstr ument
v ir
Ġm it
Ġr it
Ġhe ather
ce ll
Ġen h
ound ing
ff in
Ġmar g
Ġadd itional
com ed
Ġcol on
Ġperform ed
Ġpurp os
dr iving
Ġdick s
proble m
Ġcompet itive
Ġsab ot
Ġentreprene urs
Ġtermin al
catch er
bird s
p addock
Ġf ren
Ġbe lle
am il
Ġout look
Ġdis regard
he aven
Ġmon itor
Ġjo ey
Ġcount less
Ġsch olar
Ġsy ndrome
Ġsn ack
Ġep it
Ġmur ray
mo ving
Ġflow ing
Ġwheel chair
Ġisol ation
Ġinher it
Ġimpro ving
Ġunderest imate
Ġbbna ija
s weet
Ġp js
Ġgot h
tr o
Ġapp arent
Ġmar cus
ude au
Ġsuper vis
Ġyoung est
Ġproc ed
Ġband w
Ġfab ric
Ġcondem ned
Ġtat toos
Ġnic ely
Ġtap es
Ġmath s
Ġbiz arre
Ġmicros oft
h in
er ning
or igin
un til
Ġab using
Ġor ch
Ġun seen
Ġbr its
Ġnew est
Ġcl a
Ġcl ing
Ġmu k
Ġheart felt
app le
Ġsk etch
cr ime
Ġsal on
inc ent
Ġexpress ed
Ġsuggest ed
Ġbudd ies
mans hip
Ġbrook lyn
Ġleaf s
Ġadvis or
b ly
c of
Ġw and
Ġw ali
Ġto omuch
Ġo j
Ġgo of
Ġnot really
Ġso y
Ġun wanted
Ġun armed
ry an
Ġaf tr
Ġke ith
Ġmin us
Ġel izabeth
Ġfil th
Ġce lls
Ġvide og
Ġbag gage
Ġpal ace
Ġeast enders
Ġretweet ing
Ġpunch ed
Ġgradu ated
Ġrog ue
Ġtorn ado
Ġpersist ence
Ġedin burgh
Ġoreg on
Ġg it
Ġand erson
le ms
Ġne on
pp a
ag re
Ġoff end
Ġreal istic
Ġad ams
Ġfl ipping
Ġ7 8
Ġcur sed
Ġstep h
Ġeng aging
Ġline up
Ġhaha h
Ġrock ed
head ing
Ġban ning
Ġsupposed ly
Ġdisrespect ing
Ġteen agers
Ġmeaning less
Ġtarget ing
Ġlegit imate
Ġbillion aire
lad esh
v an
w anna
Ġt ender
Ġl uk
Ġn uk
Ġe pl
Ġfor um
ak u
are t
Ġdis cl
Ġpo le
Ġend urance
Ġend thestigma
Ġ9 3
lo e
Ġton ite
Ġma ar
Ġcool est
Ġah s
Ġlab els
Ġyout ub
Ġproduct ivity
dis order
thr itis
pan ic
resp ond
Ġmotor cycle
Ġpartners hip
vide o
l mao
Ġ ust
re ality
Ġf ag
Ġd imin
Ġwh iny
pp y
Ġde er
Ġsee ks
ud ing
li ver
Ġhard core
Ġey el
Ġsound ing
Ġuk r
Ġkar a
Ġemp ath
Ġsecret ly
Ġlat enight
Ġtrad ed
Ġvar iety
Ġthn x
Ġcomprom ise
k ed
n ations
Ġbe in
Ġj ong
Ġget it
if ference
Ġaf fil
Ġwr ites
Ġstr ang
Ġdec iding
Ġmusic ian
Ġhar ris
Ġest oy
Ġgrand parents
dr ive
Ġlar ry
Ġtab les
Ġconsist ency
Ġcra ig
chang ing
Ġspect acular
Ġicon ic
Ġdiscour aged
Ġremark able
Ġtruest ory
p ic
p ad
Ġd op
Ġp ine
Ġn ancy
Ġg im
Ġsh ove
ol ive
Ġag ony
az is
Ġser en
Ġcrit ics
Ġdesper ation
Ġmaster piece
Ġdevil s
Ġrank ed
Ġstink s
sho oting
Ġelcl asico
Ġs ans
Ġs anity
Ġf isher
ver ing
Ġr az
Ġj n
Ġk pop
ag ne
Ġun bear
pe are
Ġdid youknow
Ġgu ll
Ġsc out
Ġcar ne
Ġsleep less
Ġx i
Ġsing h
Ġfoot y
Ġdeser ving
Ġrev ival
Ġpitch er
Ġwann abe
th m
el ines
Ġnot cool
Ġle ather
ep ress
ort ing
Ġ9 4
Ġterr ific
Ġclass less
Ġunder wear
Ġsuccess fully
Ġair pl
Ġislam ophobia
Ġtal iban
Ġtravel s
iction ary
Ġstat ues
Ġelev ator
b annon
j ays
Ġs orts
ing ton
Ġk ansas
Ġme e
Ġhe ights
Ġlo a
ct ic
Ġcon way
act or
ount ain
Ġmin ions
Ġcare fully
red it
Ġap ocalypse
Ġexp osing
Ġwis consin
Ġtouch es
Ġupload ed
Ġsupers tar
Ġappe ared
c op
l en
Ġt ense
us ions
Ġo c
Ġch art
Ġam id
Ġun eth
Ġen erg
the con
Ġhel met
Ġro oney
itter s
Ġcomp uters
Ġes per
ri ans
Ġang le
Ġach es
Ġtransform ation
dec ided
bomb ing
Ġtod os
Ġt ues
in is
Ġs ally
Ġd ug
Ġp le
Ġn ou
Ġk ink
Ġv enez
Ġmon it
Ġpro lly
Ġamaz es
Ġsn akes
Ġunder ground
Ġunder rated
Ġpoint ed
Ġcheck out
Ġsho ots
Ġabs ent
Ġbible verse
Ġext ent
Ġhor izon
need ed
upp et
Ġsanct uary
Ġrabb it
c ab
d c
t un
Ġb our
Ġf ond
is ons
ow r
th ur
Ġgo l
art e
Ġcon vert
qu it
Ġsm ug
Ġdec line
Ġrec on
Ġattack er
book ed
Ġshare happiness
sa id
Ġstick er
Ġdiscuss ed
Ġring ing
Ġparan o
pop ular
Ġvolunte ers
Ġvouch er
Ġmubar ak
c ancer
d avid
j on
r ue
Ġt xt
Ġb ans
her d
wh ats
Ġz a
Ġcol ours
Ġ1285 13
Ġkiss ed
Ġcondem ning
sat urday
Ġcompens ation
r amp
w ave
Ġi owa
Ġg orsuch
et to
ent ials
Ġk obe
Ġkn icks
ens itive
Ġsch eme
Ġabs or
Ġones elf
off ice
Ġ200 9
fun day
Ġrepresent ing
Ġpt i
ett i
Ġcigare ttes
Ġtes co
Ġstair case
Ġbipol ard
_ _
c ause
c nn
l ined
m cc
on omy
Ġk law
ere xperience
Ġv c
Ġpe g
Ġoff line
Ġfuck off
Ġsupp lies
Ġho ax
Ġob sc
Ġ8 4
Ġlar ger
ica id
Ġwild er
spe ak
bro ok
Ġawait ing
Ġdoom ed
Ġallerg ic
b ia
k g
Ġb w
Ġl n
Ġn ike
Ġst ages
Ġam arn
Ġpre y
Ġfl avor
te x
Ġacc use
Ġchar ming
Ġok c
arr ing
Ġcommun ist
Ġinvest ing
Ġlog in
Ġsar cast
Ġkat y
Ġactive ly
Ġassist ant
Ġassault ed
Ġvirt ual
Ġintention al
c ers
h us
r ama
Ġa ids
on er
Ġj d
Ġtr iggers
Ġpe p
Ġbo ob
Ġve l
Ġkid ney
Ġexpl od
Ġer ad
Ġindian a
Ġsusp icious
Ġfulfill ment
Ġhorrormo vie
Ġtransparen t
Ġnecess arily
Ġcants leep
8 5
b ang
f red
Ġd v
Ġp ent
Ġo me
et ta
Ġj ays
Ġso excited
ur ities
Ġcr ushing
Ġins pect
Ġmar ijuana
ont on
Ġpar aly
cle an
Ġdraw s
Ġly k
Ġloc ations
terror ist
Ġaccomplish ments
Ġorganiz ations
Ġlivest ream
Ġobnox ious
Ġpokemong o
. -
9 2
c reat
l iber
s r
t it
Ġth ieves
Ġc z
Ġc au
Ġst u
Ġr aging
Ġbu en
Ġrespect ing
Ġah ora
Ġvan illa
Ġpupp ies
Ġwal do
ben nington
rad io
Ġcrist iano
f at
Ġth urs
Ġp une
Ġg lee
Ġr ams
op ard
Ġdo e
Ġwor sh
Ġman ic
Ġbre ed
Ġtrust worthy
Ġeas iest
Ġfilm making
Ġcrash es
Ġsoci opath
Ġju an
Ġspot light
Ġcontact ed
Ġfasc inating
Ġstalk er
Ġadop ted
am u
Ġch ats
Ġab ide
day of
Ġher itage
other apy
te ach
Ġpay check
Ġz ip
Ġhon oring
Ġfre aked
ph y
Ġpress ed
cle ar
Ġinvest ed
Ġâ Ļ
Ġfell a
Ġbob by
lik es
Ġbipolard isorder
e at
Ġl an
ic ide
am or
Ġne il
all e
Ġcom in
omet hing
Ġpol and
fl ash
Ġcons ists
love ly
Ġstuff ed
Ġben g
Ġorgan isation
Ġpor ch
Ġchronic illness
Ġrecomm ended
Ġbuff alo
Ġvul gar
Ġrepent ance
Ġtempt ed
Ġveget arian
Ġopr ah
m ah
Ġth umbs
Ġb gt
Ġthe ft
Ġp ars
Ġn elson
Ġo om
it zer
is life
Ġsh aming
qu er
Ġcr ave
Ġar iana
Ġfl int
Ġperson a
Ġcle ans
rs ly
Ġgre ys
Ġtrain er
off ic
Ġdisc ont
Ġest e
Ġpark er
Ġstrugg led
Ġcir cles
Ġchill in
Ġhypocr itical
Ġcircumst ance
jam in
Ġron aldo
Ġnomine e
Ġdissap ointed
l ash
p ie
Ġa un
Ġb ds
Ġf s
Ġd p
Ġsh in
Ġsh iny
Ġk ohli
Ġhe ating
ir ty
st ation
Ġde fect
Ġ- .-
Ġpo ems
ber y
Ġfl our
Ġsec ular
app reci
Ġsk ies
Ġele ments
Ġep a
ipp in
Ġrip chester
Ġ128 15
Ġver ified
Ġwebs ites
Ġcampa igning
Ġqual ities
Ġcere al
Ġfif th
Ġmillenn ials
Ġbeautif ully
fory ou
3 65
h ay
m ight
Ġth unders
Ġw att
Ġb har
en stein
Ġr ak
Ġas f
Ġqu ant
Ġres ent
Ġwatch in
Ġmin nes
Ġind vaus
gr own
bo ld
ik er
ai res
Ġhosp itals
Ġprogram ming
Ġlaunch ed
bie ber
custom er
Ġperpet r
Ġvag ina
Ġrohing ya
c ats
k as
p al
r os
re ll
Ġh ull
Ġc nt
at ra
Ġg ree
Ġj h
Ġbl oss
Ġcr os
Ġmo aning
for g
for me
Ġsl ice
Ġev alu
Ġpain ted
head ed
Ġvol umes
Ġsatisf y
Ġstephen king
Ġtam il
Ġjess ica
beaut y
Ġpropos al
s i
Ġ ere
Ġb os
re k
Ġf als
Ġy um
Ġy yc
Ġyou u
Ġis it
Ġu e
ill ah
Ġk om
Ġnot good
Ġlo ot
st s
ag en
Ġqu er
ass ed
Ġfa ves
sh oot
ress ing
Ġfl ipped
Ġfear ing
Ġje an
Ġbitch ing
bl own
Ġâ ĸ
Ġinvestig ating
Ġtoil ets
Ġfund ra
Ġash ley
Ġdent al
Ġsuspect ed
Ġintrod uce
itsch ko
Ġunbear able
Ġklaw blog
c uss
e u
p od
or gan
Ġd ual
Ġp enc
ic ian
im ated
Ġso ck
Ġgr as
ap a
ress ive
oc aust
Ġrel ent
Ġel it
gr and
go es
Ġcustom erexperience
Ġje ep
Ġda esh
Ġadv anced
Ġpen gu
Ġwa ist
Ġrecogn ise
Ġbright on
Ġpopular ity
Ġrecommend ations
Ġoccur red
uls ive
Ġunemploy ment
foc us
Ġshameon you
Ġh orm
ar ia
Ġ1 30
Ġsee ming
Ġspe cially
Ġcar rier
Ġass a
Ġinv itation
ane ously
iter ate
Ġcur b
Ġsub mission
Ġge e
Ġpush es
Ġjack ass
Ġpsych ic
Ġground s
Ġplant ed
h m
Ġth igh
Ġh ipp
Ġd nd
Ġre vers
ad v
ind s
Ġex o
Ġ; \
gr ade
Ġpay day
ri ers
land er
Ġrece ipt
Ġequ als
Ġlif ts
Ġ1285 57
americ ans
Ġadmit ting
Ġmac ron
Ġscen ario
Ġalle g
jud ge
Ġcripp ling
Ġamate ur
b ored
f ake
l ot
r obe
w ere
w ives
Ġm ily
Ġp opp
Ġn v
Ġn asa
ot alk
al ay
ob h
Ġro okie
Ġmay o
Ġpers u
Ġboth ers
Ġshut ting
Ġimm ense
Ġcance ll
Ġcash ier
Ġbang ladesh
Ġreward ed
Ġwip ed
jour ney
Ġacadem y
Ġric her
Ġvik ings
y oung
in v
Ġn ich
it as
Ġso da
Ġ2 10
Ġde ploy
Ġv ess
Ġpe ers
the best
ach ed
Ġwait s
Ġra iders
Ġcond one
Ġaut istic
Ġhang over
Ġsexual ity
Ġhay e
ruct ure
Ġreven ue
Ġgtf o
amad rid
b um
j k
n ah
r ong
w amp
Ġha vin
ch t
Ġsh ill
Ġdon thecon
Ġbl o
Ġ6 1
Ġdem o
Ġpresent ed
Ġaud acity
Ġboyfriend s
rel ated
Ġwet he
Ġhal amadrid
could n
strugg le
Ġparano ia
9 5
k ills
s le
s ign
u er
Ġl k
Ġr if
Ġsh elf
Ġcom pe
man n
Ġcry baby
any a
Ġeff icient
Ġclos ure
Ġinvestig ated
Ġcompassion ate
Ġdece it
Ġaugust ine
feel ings
Ġros ter
Ġonelove manchester
champ ion
quir y
Ġs not
Ġf ue
ce lebr
au thor
Ġhum id
Ġacc using
Ġmess enger
Ġset h
inc le
Ġut ah
Ġaddress ed
Ġdy lan
fight ing
Ġclin ical
Ġanc est
Ġshakes peare
Ġlinkin park
Ġkush ner
Ġstead fast
Ġbelg ium
e lect
Ġw aff
Ġd ak
ll ar
al ism
Ġr ipping
Ġdo ck
Ġch i
Ġse as
Ġal ike
Ġhas h
Ġco ord
Ġem inem
Ġfuck er
Ġ7 4
ens ible
Ġcare ers
Ġmurder ing
Ġrh obh
Ġfresh man
Ġhurric anes
Ġappoint ments
cript ions
Ġren der
ici ary
lley ball
Ġauss ie
Ġsacrific ed
ubar ak
g ue
m ma
t an
Ġt k
or ms
is ms
Ġst am
Ġj ub
ur b
il ight
ile aks
Ġperson en
con ference
ps on
Ġconc erning
sp ending
Ġmonday s
Ġfly catcher
Ġpress ing
ned y
Ġdepend ent
Ġsoft ball
Ġhay es
Ġip od
Ġted dy
Ġmak in
Ġtt c
Ġlibt ards
u ja
in ar
re port
Ġk ro
Ġk itty
Ġsome ones
ha i
Ġho llow
Ġvery sad
br own
Ġsin ners
Ġtom my
Ġfull est
Ġdep ending
Ġbox er
Ġcult ures
Ġpract ically
Ġexam ples
Ġmeas ured
Ġobser ve
Ġtwe eps
Ġallerg ies
Ġcycl one
prop hecy
Ġcarne gie
d ar
t weets
Ġthe best
Ġp awn
ac s
Ġst abbing
Ġwe ir
st ars
pl aced
Ġcr uc
ide a
Ġstop the
Ġmed icaid
Ġchar m
ert ime
Ġfaith friday
Ġes o
Ġhot els
cl own
Ġdeb ating
Ġappro aching
haha haha
Ġ1285 25
fun ction
Ġgal atians
Ġcapt ure
Ġspons ors
Ġsanct ions
Ġmol est
Ġconfed erate
Ġturk ish
Ġsaus age
h ear
r andom
Ġt ummy
Ġc uss
Ġn unes
st a
qu ick
ong s
Ġen abled
Ġback up
Ġsc oot
Ġdam mit
Ġhorr id
Ġprom otes
Ġnear by
oph one
Ġshut down
Ġquick er
Ġpract ices
crib e
ban i
Ġsurround ing
Ġvill a
Ġvoc als
Ġcontro lling
Ġlip stick
Ġdw ts
Ġfib ro
Ġsush i
n ce
t ax
on the
Ġd ictionary
Ġu a
Ġst im
ct s
Ġv ind
Ġdon ating
Ġfe ared
Ġgr oom
em ents
to f
Ġshe eran
sh are
Ġapp lies
Ġbig brother
Ġper mit
Ġgl en
Ġgen esis
Ġhol ocaust
Ġarr ow
Ġsweet est
yr ie
Ġinvol ves
Ġgent e
Ġ:' )
Ġprofession als
Ġnl t
iffer ent
nigg as
b at
e ating
f ig
Ġt ing
Ġs way
re te
Ġp ony
Ġn m
Ġn ifty
it ic
Ġe a
Ġr ode
Ġj ur
Ġsh ines
Ġk ong
Ġover d
Ġsc outs
Ġmo ody
ied ev
au x
Ġche ats
wor m
Ġpast a
Ġimag inary
Ġaut ograph
war ming
Ġtor ment
po etry
Ġsink ing
Ġbore dom
Ġliqu id
Ġpj net
Ġavo ided
Ġportug al
womens day
Ġshamb les
_ ^
m ile
t aker
Ġf ic
al ine
Ġlo ans
Ġde act
Ġal ph
Ġun le
Ġad verts
Ġsn acks
Ġje lly
ern ation
Ġfix it
Ġcard io
Ġcomment ators
Ġ200 7
Ġrh ony
Ġbol t
Ġbark ing
Ġfright ening
Ġassess ment
Ġinau gur
Ġpersonen auto
t es
Ġp n
Ġe cc
Ġsh d
Ġne va
Ġv on
Ġal ham
ass ing
Ġworld mental
Ġind ustr
Ġpol ar
Ġche esy
Ġ6 7
Ġz z
Ġmar gin
Ġrece iver
Ġgener osity
Ġbible prophecy
Ġhom osexual
Ġblind ly
Ġcommit ting
Ġchap ters
Ġnovel s
Ġstephen paddock
Ġjere miah
Ġspect rum
Ġpalest ine
Ġphilipp ians
Ġopio ids
rah im
Ġimpat ient
h ub
et ter
Ġr b
Ġr ises
ct ure
if ting
Ġcr ay
Ġres erved
Ġdis orders
pr ised
Ġind iedev
Ġjo lly
Ġteam mates
Ġfore cast
Ġsunday funday
Ġdeb it
Ġcompet ing
Ġpitch ing
Ġpit ts
thes wamp
Ġflood ing
Ġbranch es
Ġassoci ate
onc os
mod el
Ġassemb ly
Ġepit ome
h arm
Ġm int
Ġc king
Ġe lle
Ġun healthy
Ġco ins
tr ibute
Ġur g
Ġass ump
Ġdef ault
Ġself esteem
Ġgen e
Ġhold er
oh h
Ġquestion ed
Ġ18 0
Ġmod erate
play ed
Ġexpress ing
Ġtag ged
win ning
Ġactiv ated
Ġremem br
Ġrnc incle
Ġcryst al
Ġripp le
Ġghaz al
Ġsupervis or
d ies
g iven
i ast
u ld
Ġth ier
Ġw ol
Ġw ander
Ġthe ology
Ġn ores
Ġr ural
Ġj ug
ch ill
Ġv incent
Ġup lifting
ig en
Ġco con
Ġim moral
Ġover ly
Ġsorry notsorry
Ġps a
some body
Ġsmall est
Ġbur gers
Ġdestr uctive
Ġphot ograph
Ġpsych opath
Ġsuggest s
rel ation
Ġinsec urities
spe cial
Ġox ford
Ġpersever e
Ġdiagn osis
Ġb ib
Ġb aw
Ġn ord
Ġwh ack
al an
Ġha unt
Ġj as
Ġwe ary
ol ol
Ġno fear
Ġfa ire
Ġke l
az ed
pt ic
be an
Ġho o
Ġmoment um
Ġfriday the
Ġdest ined
Ġsuff icient
Ġscre ens
Ġdumb est
Ġdiffic ulty
Ġmention ing
Ġweight s
Ġorgan ic
Ġcoll aps
ask ing
Ġwilling ness
Ġretweet ed
mad ness
Ġkelly anne
Ġconsum ers
Ġcart oon
Ġbutter fly
Ġappl ause
Ġmour n
Ġwoo hoo
Ġmagn ific
Ġcert ific
Ġheav ily
reasons why
Ġnutr ition
Ġwethe people
e art
Ġd iving
Ġy ang
al ent
Ġbe le
ic op
Ġre ar
Ġfor med
op ia
Ġun belief
Ġte aser
Ġgr iffin
Ġwhy me
Ġmu y
Ġed ited
Ġed die
Ġrich es
ey e
Ġtast y
Ġhun ter
Ġrepresent ative
Ġspoil ers
oll en
Ġintention ally
Ġbrief ing
Ġdread ful
Ġdisconne cted
Ġtamp a
l ings
m ph
s her
t able
Ġi will
Ġf ields
Ġy n
Ġr x
ir i
Ġde leg
Ġv iny
Ġag t
Ġsp out
the world
Ġover time
xt rem
Ġ7 6
Ġins ert
Ġind icate
Ġself less
Ġcamp s
Ġsweet ie
Ġeff ing
Ġlif elong
Ġathe ists
Ġarg ent
Ġiran ian
Ġsom alia
Ġsorrow s
Ġnug gets
Ġinfr ast
ĠâĿ ¤
c ock
re pe
os ion
ag i
Ġgood day
Ġsp itting
Ġcl ay
Ġco gn
Ġkeep talking
Ġsec s
Ġsn p
Ġcelebr ations
Ġprote in
Ġmir r
Ġhusband s
Ġmanchester arena
Ġlog ged
Ġupset ting
was hing
Ġgain ing
Ġcos play
Ġdc angels
Ġachieve ments
mar athon
Ġhind us
Ġdelight ed
Ġlind a
mass acre
Ġanticip ation
exist ing
Ġbandw agon
Ġb ach
Ġd ab
Ġbe yourself
ac r
Ġr g
Ġso cially
pl ant
Ġcr onies
Ġtw ilight
Ġsun glasses
Ġpeace fully
Ġopen er
ale x
any thing
min utes
Ġval ued
night s
Ġtill erson
Ġphot ographer
Ġnational ist
Ġcop ies
Ġinterview ed
Ġrog ers
Ġclar ify
bus y
Ġnav ig
Ġkent ucky
Ġunemploy ed
Ġfunn iest
Ġnostal gia
Ġslog an
cof fee
Ġsarcast ic
j d
Ġs ind
Ġc er
Ġd ated
an th
Ġin ches
im port
Ġk ang
and ez
Ġcon or
Ġim not
Ġback yard
Ġdis gr
Ġter ry
Ġsun rise
can ada
Ġca pe
Ġforget s
ym ar
Ġrepl acing
Ġlat te
Ġsar a
Ġniger ian
Ġfrank ly
Ġproduc ing
Ġrestaur ants
Ġfeat ured
Ġsett ings
find ing
Ġfif ty
cour t
m ag
r ia
s ummer
Ġt ad
Ġd ian
Ġd ancer
Ġp ale
as i
Ġfr y
Ġ2 15
art ist
act ions
Ġend ured
Ġtell y
Ġcomm ander
Ġoh well
go ver
ph ia
Ġfound er
Ġpat ron
ocr acy
Ġbar g
Ġsocial anxiety
Ġmother fuck
Ġny e
Ġblind ed
Ġmarch ing
Ġum bre
Ġsport ing
Ġcu ppa
Ġaltern ate
Ġterrit ory
8 3
l os
o vers
t em
Ġs abb
Ġc abb
or i
Ġre leg
ac ies
Ġpr ank
ate ment
oun ced
Ġgr it
Ġcome on
Ġsuper hero
Ġiss ued
ann el
Ġdie go
Ġhillary clinton
Ġben jamin
Ġunited airlines
ther apy
Ġtast ed
cho ose
Ġsatisf ying
Ġempower ed
Ġgroc eries
tot ally
Ġfrequ ently
Ġfet ish
stra at
j er
n ett
p f
r ace
Ġf uss
Ġg st
Ġre bel
am o
ur ious
Ġor ang
ep lay
Ġman iac
Ġsa viour
Ġdef ender
Ġpass ive
Ġcompl iments
Ġless er
Ġprom ising
Ġpar ody
Ġty ped
Ġpack ages
Ġrespond s
Ġconsider ation
Ġinvol ving
Ġkh al
Ġocc as
Ġpanic attack
kind a
Ġadvert is
Ġvill ain
Ġnu fc
Ġeag le
Ġchant ing
Ġscro lling
Ġgull ible
h ra
x x
Ġt ou
Ġm akers
en ow
Ġp ond
Ġn ach
om an
al ive
Ġsh aken
Ġk itten
wh e
Ġback bone
Ġsc al
ath om
Ġfl uff
Ġsuper man
Ġexp osure
Ġliter ature
Ġstream s
val ent
Ġsell out
Ġris en
Ġ^ _^
Ġvir at
Ġperiod s
Ġnu ke
spe ech
Ġdrain ing
Ġgreet ings
Ġworldmental healthday
Ġkeeptalking mh
d uring
m ain
m ode
v ill
w c
Ġm au
Ġm ism
Ġch and
Ġv ai
Ġover watch
of life
pr og
Ġheart break
Ġleft ists
oo o
Ġcost a
Ġver ify
Ġboss es
Ġdig it
Ġfellow ship
Ġded uct
Ġfriendship s
Ġdoct r
Ġreward ing
train ing
Ġupload ing
Ġwk nd
Ġdete ct
Ġminnes ota
< <
f ired
r ate
z u
Ġp ension
Ġin put
Ġr ou
Ġse xt
Ġas yl
ol ved
Ġam o
Ġpl ag
Ġbr ack
tr aff
Ġshould nt
Ġatt itudes
Ġins an
Ġ8 2
Ġmis leading
gu ided
Ġcatch es
Ġrum i
Ġmyster ious
Ġinit ial
Ġalternative facts
Ġhumili ation
Ġpotato es
Ġanton io
Ġappet ite
n ap
p age
r ules
Ġh b
Ġc ld
Ġl ump
Ġst ability
Ġr ushing
Ġlo athing
Ġch ore
Ġde em
Ġ- ->
Ġcl ark
cc a
Ġsm ashing
Ġcall er
Ġcare less
Ġcont empt
air y
any body
ann ah
ho ot
Ġchristian rep
ell a
Ġka epernick
Ġaffect ing
ev ent
fest ival
Ġscient ists
chang ed
Ġfare well
Ġjung le
Ġott awa
Ġintens ity
Ġreserv ation
Ġthorough ly
idem ic
d iv
k u
Ġl est
Ġp ipe
Ġo su
Ġre y
Ġtr iv
Ġab user
Ġun just
Ġnew ly
Ġgl ow
Ġmar c
cr ow
Ġsal man
Ġlight er
Ġsir f
Ġsuck er
Ġimm ort
Ġâ Ķ
cho ir
Ġrush ed
Ġuh h
Ġmock ery
Ġlibt ard
Ġwarrant y
Ġlef to
Ġclint ons
f ers
o a
Ġi on
on na
Ġb aker
Ġd anc
Ġl p
Ġbe es
Ġre no
Ġk p
Ġal go
Ġfe ast
Ġag n
Ġaf fl
Ġmuch love
Ġel bow
ma jor
Ġ11 9
Ġfood ie
Ġmer i
ex cus
Ġpet e
sc reen
Ġspo ilt
Ġspr ings
Ġpract ical
fill ed
Ġken nedy
Ġeth ical
Ġprosper ous
Ġreh ab
Ġbor is
Ġpeps i
j osh
y all
Ġth s
Ġw v
Ġb iting
re v
Ġh ides
Ġd iverse
Ġl ens
Ġn ixon
le ans
th ats
Ġst itch
Ġr ants
Ġli mb
ch ain
Ġhe is
Ġgr im
Ġgu ided
Ġfl ows
Ġever ton
Ġsl ag
Ġdem ise
Ġdep ths
ann oy
Ġsum s
Ġill ustr
Ġshout ed
Ġarr iving
Ġblue jays
Ġlat in
Ġul tra
Ġboo ze
Ġafford able
Ġtow ie
Ġcud dles
Ġaa j
Ġapply ing
Ġiniti ative
Ġwik ileaks
Ġnores pect
e lection
h og
m d
r us
Ġb is
Ġh ans
Ġd ile
it ivity
ad os
Ġr as
Ġk etch
Ġtr ivia
st ates
Ġv u
Ġal s
Ġal as
Ġbl unt
Ġ3 60
Ġwhy y
ah u
Ġsl apped
Ġdream ers
co ld
Ġma i
Ġra he
Ġste als
Ġhol iness
Ġcomment ing
Ġ200 1
Ġemploy ed
Ġcalm ing
Ġignore s
Ġmart ial
Ġdescrib es
Ġappoint ed
Ġwrest ler
Ġdepart ure
Ġmun ich
bitch es
Ġcoal ition
Ġhann ah
Ġreck less
Ġintellect ual
Ġkend rick
Ġgree ce
1 01
m ith
r ule
Ġt ires
Ġt issue
er er
Ġc ue
Ġn f
Ġe ct
Ġe lo
Ġre think
Ġst ing
Ġk on
Ġdo your
Ġse h
un fortun
Ġv and
pe ak
Ġres erve
sh i
Ġhappy birthday
Ġ8 7
Ġsw an
Ġsw ollen
Ġpar am
opp able
Ġms gs
Ġrob erts
Ġmain e
Ġgar lic
aph obia
Ġteen mom
Ġwarm th
Ġpred icted
Ġintr ig
Ġmac book
Ġcoz y
sm all
Ġcompan ion
Ġflo at
mass ive
Ġhac er
c u
f yi
g ic
l it
Ġi jn
or ate
is land
ke e
Ġno isy
Ġup hold
Ġ; (
Ġhand ing
Ġcomm ands
Ġsing les
Ġed s
Ġbar ack
Ġappreci ating
Ġimm une
Ġapolog izing
Ġlets go
Ġemploy er
Ġoffici ating
Ġinner peace
Ġml k
Ġcapt ured
Ġ198 8
alt ies
Ġacadem ic
Ġwats on
Ġseeming ly
: \
Ġg ps
Ġu x
Ġne ymar
Ġbr ows
Ġlet it
Ġfl a
Ġstop it
Ġheart ed
Ġhome made
Ġchrist opher
Ġcons ol
Ġret ali
ri ages
Ġcontr ary
Ġball ot
Ġnation als
Ġclos ely
Ġbreaking news
ask ed
bab ies
sad ly
Ġwitness ing
Ġnick i
Ġilleg it
Ġwhitesup remacy
Ġintimid ation
Ġpalestin ian
b in
Ġth orn
Ġb ren
Ġd ummy
Ġin front
Ġha h
Ġk ita
Ġso othing
Ġun aware
ind ian
qu ate
Ġhow ard
ans w
Ġar ian
Ġover thinking
sh ad
Ġad ul
Ġpart ying
Ġche eto
Ġel ites
Ġsl ander
Ġsk ull
Ġfar ce
Ġret arded
Ġnor man
Ġje wel
let on
Ġwel sh
Ġmurder ers
Ġtough est
Ġpred iction
add ress
Ġtm i
Ġstun ned
Ġaccomplish ment
Ġawait s
Ġhump day
Ġinfrast ructure
h ats
w y
Ġw l
Ġi got
at he
Ġd ivers
Ġg v
Ġg ill
Ġr ly
Ġha ag
Ġk s
Ġk ul
Ġch arts
Ġab ys
ist ent
Ġam a
so x
for the
Ġcour ses
work ers
Ġair time
Ġvo lleyball
Ġbuild ings
Ġadv ised
Ġscr ub
mo ore
Ġsort ing
Ġcreep s
Ġsuggest ion
Ġsom uch
Ġyouth s
job s
Ġhurricane harvey
Ġnic est
Ġhoney moon
wonder ing
Ġsque eze
Ġkardash ian
Ġglut en
owr imo
d t
l n
t bh
Ġb atch
re ak
Ġl ma
et ics
Ġr ite
od o
Ġse mana
iv ated
Ġdis mant
so le
Ġlet down
Ġsm fh
Ġhel icop
Ġgl ue
Ġear ning
Ġmar io
Ġcle aring
Ġdef ended
Ġfew er
Ġcolle cted
with in
Ġest ar
Ġpet ition
Ġhi jack
crib ed
Ġ28 0
Ġgram my
Ġow ning
Ġharass ed
Ġtimet otalk
Ġcens or
Ġbund le
h art
r ina
in ph
Ġw ana
Ġm unch
Ġh ank
Ġh ale
Ġf angirl
Ġn um
Ġo liver
Ġyou ve
Ġk t
Ġk ur
Ġjust say
ain ted
Ġsu ge
Ġqu ad
Ġheart beat
Ġtrans it
Ġpet rol
light s
Ġmal ays
men ow
Ġtechn ically
ij n
Ġinf ant
Ġsr k
Ġjustin bieber
Ġrecover ed
Ġmicr ow
Ġdouch eb
Ġrc b
Ġethn ic
Ġpund its
Ġvenez uela
Ġbloss om
a fe
d ick
Ġy ur
Ġsh aped
Ġdo j
Ġde ception
Ġfo ll
Ġar thur
Ġatt ain
Ġmon op
get it
Ġinter action
Ġinter rupt
Ġrec yc
umb led
Ġcur ve
Ġmot to
Ġhang ry
Ġmanchester bombing
Ġran ch
Ġblog ging
ij k
Ġtl c
des ign
Ġdrain theswamp
Ġresc ued
pat ri
Ġlemon ade
Ġthebachel orette
Ġgim me
Ġinaugur ation
Ġpitts burgh
b ait
Ġp att
Ġfr uits
Ġam ir
Ġun safe
tr u
sh ift
Ġass ets
Ġcomp ound
Ġdel ivers
Ġfree zer
Ġreason ing
Ġfav s
Ġps g
Ġ201 9
Ġdi y
Ġsweet heart
Ġmiddle east
Ġview ed
Ġdisrespect ed
Ġmart yr
miss ing
Ġcro ok
Ġber keley
Ġja jaja
Ġfulfill ing
Ġdomin ate
Ġrecover ing
Ġbah rain
rob lems
Ġcub a
Ġpurpos ely
b ol
r ust
Ġi back
Ġp es
Ġn ipp
Ġn ga
Ġg us
Ġin se
et ed
al om
Ġj ah
Ġsh awn
Ġk itt
Ġse g
ag ar
ain es
qu is
qu ad
Ġend e
Ġass et
Ġsk ol
Ġinv asion
any way
Ġgb bo
Ġlaw rence
Ġsum mit
Ġliter al
Ġlad der
Ġprev iously
Ġload ing
Ġhost age
Ġadm its
hr an
him up
Ġhurricane irma
Ġdisp os
Ġmeas ures
Ġbitter ness
Ġaim s
Ġtort ured
Ġsel ves
Ġcontinu ously
Ġsher iff
Ġdictator ship
cont in
Ġbachel orette
Ġunst oppable
Ġà ¹
hus band
b ot
c ies
p ants
p owers
s uff
Ġw an
re cted
Ġc inc
Ġc ured
Ġ< /
st ock
Ġal oud
Ġaf fair
Ġpo ly
Ġem phas
Ġmin es
oth is
Ġtweet er
Ġrun ners
gr ad
Ġhand ful
Ġsl ur
Ġlord s
Ġsim ult
Ġstud ied
Ġgrand father
Ġice cream
Ġgrad er
Ġannoun cing
Ġtechn iques
war ri
Ġrenew al
Ġcontrib ution
Ġloveis love
Ġhood ie
Ġgather ing
lea ving
f lo
m and
y stem
Ġh od
ad vent
est a
Ġout age
Ġdon ut
ab y
Ġ) ;
Ġamazing ly
Ġav g
Ġconc rete
Ġdiv iding
Ġpure ly
Ġhal ftime
Ġdy stop
Ġow en
Ġdict ate
learn ed
Ġisol ated
Ġtransl ation
Ġawaken ing
Ġadmir ation
colle ge
g aga
v c
Ġh bo
Ġf y
en ch
Ġp oppy
Ġo st
Ġam een
Ġgr av
Ġind ex
Ġ12 7
ug ar
Ġbas es
Ġra ises
Ġann abelle
Ġfore head
Ġq anda
Ġcow s
Ġpack s
ey es
Ġwa ving
Ġknock s
Ġident ified
Ġagre es
cons cious
Ġuns ubs
Ġlc fc
c uts
n ast
Ġa e
Ġp addock
Ġe lla
ch r
Ġsh un
Ġar thritis
Ġmus h
Ġind ul
Ġrel ieve
Ġrun nin
Ġbre eds
Ġwomen in
Ġclass ified
Ġhot a
cl ock
Ġdist ant
Ġdisc ern
Ġdm me
Ġfreedom s
Ġpresent ing
Ġrepe ats
Ġbal tim
Ġped est
Ġoper a
Ġglor ify
Ġmanip ulate
Ġsubscrib ers
Ġthisis us
Ġpir ates
Ġevol ve
Ġlem me
d os
h ang
Ġi ke
at isf
Ġd re
Ġp og
gh ost
Ġse min
Ġam ounts
Ġun do
Ġcon sec
pe aks
ings oon
Ġfuck ers
Ġok lah
Ġwind y
Ġhang out
Ġver ge
Ġbomb ed
Ġbother ing
Ġdig est
Ġcrowd ed
Ġtoler ant
Ġcock ro
Ġsepar ation
Ġvictor ious
Ġsurve ill
b igg
Ġt ier
Ġs ib
Ġw are
Ġm ig
Ġm oth
Ġp st
Ġn osh
th etic
id y
Ġmy bad
op ened
Ġne at
Ġam bit
Ġpe as
Ġun president
Ġcr ps
Ġbec uz
Ġbel ive
Ġwere wolf
Ġdec la
ics ervice
Ġhorr ifying
Ġpot entially
Ġpositive thinking
Ġcool ing
Ġsent ences
thank ful
Ġrob ots
Ġ1285 22
che f
Ġinternational womensday
law s
Ġbom ber
blog ger
upp ort
pot ter
Ġguncontrol now
plan ning
Ġgran ny
Ġeleph ant
Ġairpl ane
Ġcocon ut
Ġmicrow ave
p ose
r ix
Ġth ala
Ġh iv
Ġh ubs
Ġthe voice
Ġl up
Ġst er
Ġha bs
ent a
Ġk yrie
ul ing
Ġpe el
pl s
Ġgot s
sh irts
ber gs
Ġbet he
Ġapp rentice
Ġ9 00
man agement
Ġsw ap
Ġprom pts
Ġpar as
Ġrid ers
20 20
Ġpack ers
pet er
Ġcos y
Ġpanic attacks
Ġaddress ing
Ġoper ating
Ġsne eze
Ġdocum ents
Ġbern ard
Ġmont ana
Ġine quality
Ġliqu or
Ġthebachel or
Ġuncond itional
Ġuneth ical
Ġasyl um
k r
z ed
Ġth u
Ġs rsly
Ġw ot
Ġm ish
Ġd ucks
Ġl ined
Ġy as
Ġin hum
Ġbe ep
Ġj es
ch ats
Ġdo it
Ġlove him
qu es
ven g
Ġdr ained
Ġem my
int e
Ġmiss ile
Ġsocial ist
Ġpurp oses
Ġcorr ie
Ġcoll ar
Ġram rahim
Ġjul ie
dis gust
Ġdise ases
Ġstranger things
Ġbrad ley
cry ing
cult ure
Ġcoc aine
Ġketch up
Ġa isle
Ġh ulu
Ġd ats
Ġl ining
Ġp are
Ġp airs
it an
Ġso called
od us
Ġex agger
Ġbr unch
Ġbl as
Ġoff ices
the ir
Ġke e
Ġsm oked
Ġstr iving
Ġins ensitive
uff ed
Ġexpl oring
Ġgener als
Ġgener ator
Ġhair s
Ġpen alties
pres ent
pa io
Ġvers a
Ġng ay
Ġappear ing
help ful
Ġdry er
Ġva is
Ġobl iv
Ġflaw less
Ġdeliber ately
Ġbenz ema
Ġvacu um
agre ement
s d
Ġs ire
Ġb ing
Ġd ing
Ġwh ale
th ers
ent e
Ġch oc
Ġch enna
ur u
st yle
Ġv ive
Ġcon dom
ob i
Ġgr ieve
Ġph ant
ness ee
Ġ7 10
Ġev n
Ġsur real
Ġleg g
Ġreg ional
Ġfact ors
Ġbull ets
Ġmark ed
Ġmer it
Ġspecial ist
Ġhom eland
Ġwel comed
Ġapolog ized
Ġscreen play
Ġsaud is
Ġven ge
Ġpubl ishing
Ġflo ating
Ġdemonstr ate
fol ks
Ġdol phins
qa eda
Ġhott est
Ġunus ual
h ack
n ic
p leas
s ir
Ġa q
Ġs ama
Ġi know
Ġh end
Ġp ending
et os
Ġon ion
Ġne m
Ġwhat is
and i
Ġout fits
Ġout comes
Ġpl ague
Ġthan x
Ġreal ising
be e
Ġche ered
Ġrest less
ri j
Ġep ile
Ġfil ed
Ġbirth er
Ġfit bit
Ġmanchester attack
Ġlock himup
Ġdistr ib
mb ley
Ġspoil er
kind ness
Ġsle eve
Ġalex a
Ġsme lling
Ġdomin ant
Ġvet ting
etr ump
jour nal
Ġmemorial day
Ġobst acle
Ġreck on
Ġsj w
Ġrhy thm
Ġfrigg in
at ime
Ġp is
Ġn sa
Ġe ek
Ġsh arks
Ġtr udeau
Ġcan s
ag reat
Ġno od
Ġor gas
ab r
ep re
ong e
Ġman n
Ġim min
Ġshow ered
ri ke
Ġhorr ibly
ph is
Ġcor p
Ġexp ans
Ġbeha vi
Ġâ ķ
Ġgodis great
Ġisrael i
Ġpunch ing
Ġalex and
Ġdod ge
run ning
Ġtempt ation
Ġflaw ed
Ġlov ato
Ġcontrovers y
Ġvideog ames
f av
h l
s inging
v alley
w t
Ġs ided
Ġs ample
Ġthe o
Ġn athan
Ġr ope
Ġj t
Ġbl a
Ġlife goals
Ġsp ont
Ġqu ery
uck er
Ġres ched
Ġrep et
Ġrec onc
av ail
Ġwar fare
Ġsn atch
Ġrub ber
Ġjud iciary
Ġmod er
Ġcreep ing
Ġpoll ution
gi ants
Ġsuspect s
Ġnam aste
Ġbutter flies
Ġelimin ated
Ġcommand ments
Ġtoss ed
Ġbrid ges
import ant
Ġconsec utive
4 00
g ary
m rs
w k
Ġc bd
Ġre charge
Ġk le
Ġse iz
il ation
ak enews
ie ver
Ġman ia
Ġthink in
Ġdr ift
Ġshe ff
Ġpre ced
Ġspe edy
Ġshit ting
gr iffin
Ġ8 3
Ġsur pass
Ġfil med
work er
de velop
Ġver dict
Ġmillion aire
Ġbutt ons
bey ond
Ġautom ated
Ġxbox one
Ġeffective ly
pro ject
Ġpac ific
Ġchuck y
fre edom
Ġdoz ens
dul illah
Ġaccus ations
m is
Ġth i
Ġs ana
Ġh atch
Ġthe last
Ġl ous
Ġp lead
Ġre allife
ac ula
am us
Ġk rist
Ġde ed
ge orge
Ġgood times
ap ol
em o
Ġthank u
ne eds
Ġem mys
Ġbo ards
Ġche ater
Ġdef ines
Ġair ing
friend ly
Ġdoub led
Ġsub tle
Ġhurt ful
Ġlow s
Ġpet pe
Ġsweet s
Ġtour ism
che z
Ġtrash y
Ġsever ely
Ġdc sports
Ġdoctor who
Ġmex icans
Ġdece ased
rep ublic
Ġsurprising ly
Ġdost o
Ġmagnific ent
Ġillegit imate
a us
b ust
s ame
v as
Ġs lo
at m
Ġd ic
Ġo y
Ġre nd
Ġr ps
Ġde k
qu are
Ġag ing
Ġdr s
for it
Ġfin land
br ush
Ġgl enn
fr ank
af irst
Ġfre aks
Ġ19 80
ex per
Ġben gal
Ġbi j
sec urity
Ġnetwork ing
Ġmos es
Ġlangu ages
Ġengine ering
Ġupgr aded
Ġsympt om
fant asy
intern et
Ġquier o
Ġviny l
unfortun ately
is k
ve e
Ġst ale
Ġr l
ch ap
Ġfr act
st age
Ġbr oncos
Ġpres cription
Ġthought oftheday
Ġexc el
Ġinv iting
Ġje ez
Ġart ic
Ġbc s
Ġprov ision
Ġpleas es
Ġfirm ly
Ġsno oze
Ġsty les
Ġib iza
Ġdowntown la
Ġbog us
Ġlav ar
Ġsneak y
Ġket tle
Ġyn wa
Ġs es
Ġs ut
Ġh h
Ġf k
Ġy uge
Ġr ivers
Ġli mp
ers burg
ess a
Ġim bec
Ġgu ards
Ġstr ay
itt in
pr act
pr ov
Ġbelieve in
Ġsk i
Ġmil est
Ġopp ressed
Ġdist ress
Ġserv ants
Ġblog gers
Ġport r
Ġhost ile
ament e
Ġcritic izing
lay offs
Ġfathers day
Ġdaw g
Ġsnoop dog
Ġvigil ant
sher iff
Ġsabb ath
Ġbaltim ore
c oph
d oc
n an
p ter
p apers
r ics
v ac
Ġl ing
al am
am el
Ġsh i
ur er
ace y
Ġres on
Ġdis asters
Ġgreat s
Ġhelp er
Ġbad day
Ġdel uded
Ġdef o
Ġtruth ful
Ġsk ate
Ġsn oring
Ġgun man
ser v
Ġcamp bell
Ġcow boy
Ġcomment ator
15 0
Ġ200 5
Ġlay ers
Ġtre k
Ġder anged
Ġattend ance
Ġswed ish
Ġowners hip
Ġluc y
col m
Ġprincip al
Ġward robe
Ġperman ently
Ġdou gl
Ġshep herd
Ġdeliber ate
l oud
m un
Ġt ys
Ġm fs
Ġn pr
Ġr he
op in
Ġse ize
Ġtim eless
Ġdr one
Ġbet sy
Ġbed s
Ġred sox
Ġbill ing
Ġworth it
Ġcoun selling
Ġsil ently
Ġhom ies
Ġbrand ing
Ġpas ig
Ġunc ons
po ll
Ġoil ers
Ġlaunch ing
wel p
pro of
Ġcust ody
pak istan
Ġrehears al
a ver
g ut
h om
u ak
v l
y pe
Ġn nam
ic ating
Ġch loe
Ġab er
Ġal um
Ġcon nor
Ġbet ting
pr ote
Ġev ans
ra ff
Ġma a
Ġcre ed
Ġdeb bie
Ġhang s
Ġupd ating
Ġsepar ated
Ġcondemn ation
Ġempower ing
Ġhaw ks
Ġcamer on
regard less
muslim s
Ġfier ce
Ġcolumb us
Ġwend y
Ġyoutub ers
Ġremembr ance
m ubarak
t ome
Ġt ard
Ġa ub
Ġf aint
ay y
Ġbe et
Ġre boot
Ġfor k
Ġj is
Ġk ung
Ġne v
Ġfr own
ul ating
Ġqu o
Ġsomet hin
Ġur an
Ġmor ally
Ġenjoy s
Ġsuper market
Ġgre ens
Ġdark er
Ġtur d
Ġnon stop
Ġspr ite
Ġcoll ins
Ġvers us
Ġcas ually
Ġdish eart
Ġow es
Ġcoy s
Ġspill ed
Ġbarbar ic
orc ist
r il
Ġm aps
re ach
Ġf ountain
Ġit h
Ġtr illion
Ġas c
Ġcr ickets
Ġpre st
Ġ12 5
Ġmed iat
ra pe
Ġdef icit
Ġsk ipping
Ġblack mail
att ed
Ġq at
Ġpositive ly
Ġmis guided
Ġrap ing
Ġmood s
Ġsurv iving
Ġadm ission
Ġly ric
Ġharry potter
Ġcorn ers
turn s
Ġanth ology
Ġremo val
Ġsupers t
build ing
mem ories
Ġrecip roc
Ġinfer ior
Ġa er
Ġm ck
en er
Ġsh orter
Ġup lift
Ġor al
Ġbad customerservice
Ġinc ite
Ġed en
cr ush
Ġmet er
Ġdi os
Ġnational ism
dr op
Ġscr otus
Ġprotect s
Ġaccident s
ask et
Ġorigin ally
Ġmeditation group
Ġinflu enced
Ġyork shire
bal ance
Ġacce pts
Ġscient ific
Ġvamp ires
Ġuncond ition
Ġburr ito
Ġmisogyn ist
Ġnint endo
Ġseren ity
Ġoom f
Ġsnoopdog g
b ah
b ows
b tw
j une
k im
m l
w ah
w oo
Ġs izes
Ġw ink
Ġh ul
Ġf res
Ġthe gold
Ġc i
or o
Ġp us
Ġan o
Ġj ak
Ġcon sole
Ġoff s
Ġshow ers
Ġrep ay
Ġind ones
lo oked
Ġev a
Ġinc iting
Ġz er
Ġseason al
Ġfre el
Ġbring back
Ġbc os
Ġwis er
Ġpress er
Ġchamp agne
Ġver bal
Ġrom o
Ġcred ible
Ġben nett
Ġcomplain ed
Ġfell as
Ġobject s
Ġconfir ms
Ġbump ed
Ġcitizen ship
Ġstor age
Ġedm onton
Ġmarsh all
Ġlaure n
Ġjenn ifer
disapp ointed
Ġunderst atement
Ġvess el
Ġimmin ent
m v
Ġs ap
Ġf aking
th in
Ġr akh
Ġr erun
Ġj v
Ġk ol
Ġwe mbley
Ġnot icing
Ġtr am
ard i
Ġqu oting
Ġhel m
Ġfl ir
Ġfire fight
Ġposs essions
Ġside walk
Ġmet aph
Ġshort film
Ġach ing
Ġmart yrs
Ġmoon light
Ġengine ers
Ġwhis key
Ġsty lish
Ġmerc iful
Ġana heim
Ġstruct ure
favor ite
Ġome ga
Ġmirr ors
Ġumbre lla
traff ic
epre vention
Ġt amb
in ers
in ction
Ġto l
Ġl aps
Ġr ans
ith e
Ġme gan
Ġv as
Ġv lad
Ġam ig
ep l
Ġnew music
Ġgr t
ap ore
Ġtrump et
av in
Ġsy coph
co aching
Ġret iring
cr ap
ret t
com mon
Ġfac ility
Ġprop osed
Ġcap it
Ġbur dens
Ġequ ation
Ġfast ing
Ġfair ness
Ġten nessee
Ġindian army
Ġdecl ined
Ġol ivia
Ġexec ution
keep ing
aa frica
char ged
Ġcorpor ations
Ġparticip ating
Ġpant ies
Ġfid get
Ġeurop aafrica
Ġpuzz le
Ġnuk es
Ġscoot er
Ġcertific ate
Ġeuropaafrica us
k ik
Ġs ought
Ġw ig
Ġb ama
Ġf ern
ic ion
ad ha
Ġk ane
Ġk irk
Ġlo vin
Ġbr ock
Ġcr ib
Ġgot t
Ġmind blown
Ġass umed
app en
Ġed gy
Ġep idemic
Ġmem phis
Ġbar rel
Ġste vie
Ġdeal ers
Ġphot osh
Ġlady gaga
Ġland lord
Ġpod ium
Ġphys ics
fail ing
Ġpee ve
Ġfi ets
Ġadop tion
Ġdh g
Ġpand ering
Ġintoler ant
Ġscor p
Ġmosqu es
Ġcongratul ate
Ġleon ard
Ġdiscont in
b ast
k ick
s ub
t ions
Ġd airy
Ġin i
ot ent
Ġon eday
ad r
ac i
th ren
el p
Ġnot funny
Ġso f
Ġso br
Ġbut ts
Ġus open
Ġle aking
Ġun int
Ġcon form
ip h
Ġover turned
ment e
Ġteam jesus
Ġsch umer
Ġsk ipped
co ok
Ġcontr acts
Ġsunday service
Ġjoy ce
Ġcut est
Ġswe aring
Ġmic ro
Ġincl usive
ery l
Ġcertain ty
Ġemploy ment
Ġpin ned
Ġrant ing
Ġharass ing
Ġchip otle
Ġfoolish ness
Ġti ene
Ġsli pped
ici ency
Ġfrequ ent
Ġnr l
Ġingred ients
d ated
m ike
w ks
Ġw n
Ġh q
Ġf akes
et a
Ġfor mal
Ġst ain
Ġj ill
ers e
pp o
ce eds
st uck
Ġus c
Ġus mnt
Ġor ph
Ġbl end
Ġsm ear
Ġbet s
Ġbo i
Ġbest friends
Ġperson nel
Ġmor onic
Ġinter vention
Ġsin ner
Ġsl ack
ars ity
Ġinst ill
ane ous
Ġcor ps
Ġsign als
ret urn
Ġclean er
over it
Ġtex ans
Ġut most
Ġobam as
Ġbub bles
Ġnan owrimo
Ġnik ki
terr ible
adel phia
Ġcancell ation
Ġlegg ings
j as
u u
u ated
v ard
w w
Ġb ic
Ġb ong
Ġh itch
Ġthe ories
out of
Ġtr inity
Ġch ased
Ġun grateful
Ġher os
Ġmake americ
sh ield
Ġfl otus
ash amed
Ġmiss iles
Ġtrans action
Ġbrother hood
Ġham as
Ġhack s
again st
Ġaccom mod
Ġcivil ization
Ġsuggest ing
Ġboo ing
Ġangel ou
Ġadvert ise
Ġros ie
Ġtak eth
Ġeconom ics
Ġmour inho
Ġwhist ling
leaders hip
Ġzig lar
Ġsurveill ance
Ġ ern
Ġt ai
Ġs th
Ġh amb
Ġto b
Ġp ly
ot er
Ġli ly
Ġk is
Ġlo os
Ġso d
od ies
ant ed
ul ent
res ign
Ġcom cast
Ġbl ake
Ġqu oted
Ġar nold
ek s
Ġdis comfort
Ġwell s
Ġfull ness
Ġty t
Ġcor respond
bl ind
Ġom fg
Ġcost ing
Ġsoci et
Ġplac ing
Ġrul a
Ġwild life
Ġyog i
Ġpupp ets
rel ief
cent er
Ġken ny
Ġriver side
Ġcapt ion
Ġbrut ality
aj oke
Ġmont real
Ġmethod s
Ġmorr is
Ġtok yo
Ġbele ive
p y
z an
Ġth ine
Ġb ind
at enight
Ġl ush
Ġp est
Ġn ed
Ġan atomy
am m
am pton
Ġsh amed
Ġch ut
ur o
end e
se ction
ab ism
Ġnew born
Ġwork in
Ġcr is
so ft
for got
Ġho op
Ġbu h
Ġameric afirst
Ġbas ics
Ġspirit ually
Ġdoub ting
Ġlow energy
Ġtal aga
Ġterrorist attack
Ġvac ations
Ġpaper work
Ġsens ible
Ġrise up
Ġbroad way
Ġnic er
Ġsme lly
put ting
Ġsel ena
Ġkay a
Ġhaun ting
Ġoak land
Ġpow der
Ġdiplom acy
Ġsabot age
origin al
Ġrelent less
2 14
d j
r ide
Ġ Ø
Ġ ï
Ġt ul
Ġt ide
Ġf ict
Ġj oker
Ġtr ay
ob ack
Ġar gh
Ġfa ults
Ġplay in
Ġplay ground
Ġx an
af fe
Ġplace ment
Ġsim s
Ġexpect s
Ġcol oss
Ġball oon
Ġmur phy
Ġfit fam
Ġrap ists
Ġresign ed
Ġroy als
Ġcontinu ous
lik ed
Ġthes is
Ġexplo it
Ġperce ived
Ġkara oke
bigg est
avail able
Ġsheff ield
b ible
n om
s om
Ġw ade
on der
Ġc ena
Ġl su
Ġit is
Ġsh il
Ġch airs
Ġde arest
ab l
ab o
Ġcl icked
Ġqu and
tr avel
of d
Ġid gaf
Ġsun s
Ġbab es
Ġcur l
Ġsol ving
Ġtrave led
hop ing
Ġreflect s
Ġcore y
Ġmand atory
cor byn
Ġassoci ation
yl ie
Ġtitan ic
Ġkenn eth
tun ed
Ġthegold bergs
8 6
a gh
h ash
m atch
q s
r m
Ġt us
in um
Ġi have
Ġl ud
Ġg aur
ic ult
ac ion
Ġst ow
Ġsh itt
Ġsh uffle
Ġch ast
Ġse ated
Ġas pir
il itating
Ġv mas
ig ible
Ġwork hard
ff s
Ġ7 9
Ġfun k
Ġbre thren
no o
Ġav i
ps alms
Ġtrans c
Ġcond esc
Ġdin ing
Ġtour ney
Ġreach es
sa us
Ġinfl ation
Ġtor ch
Ġwo e
Ġjeff erson
allow een
prod uct
Ġdiver t
Ġhistor ical
Ġstub born
Ġsimult aneously
a an
m ist
Ġl icking
Ġn our
Ġg igs
Ġnot ting
Ġtr iste
Ġv ous
and ers
ast on
Ġman e
Ġbr as
Ġgod sw
Ġen uf
ib a
Ġsm okes
pr over
Ġameric as
Ġind ict
gr o
bo o
co ast
Ġmem orable
ung ry
Ġrock y
play s
Ġpleas ures
Ġpin ch
Ġpit iful
bi ased
kill ers
Ġec st
chang es
Ġtut or
Ġgul f
Ġoklah oma
n l
o aks
p ill
t ough
v ision
w ont
Ġm ika
Ġb g
Ġe o
th ng
Ġdo better
se pt
Ġte hran
Ġthem ed
so ver
Ġhome coming
gr ief
Ġpay ers
not iced
Ġsur ge
Ġret ain
Ġmess aging
Ġcor rection
happ en
Ġpath ological
Ġant ib
Ġweak est
Ġrich est
mo vies
Ġspr ink
Ġsports manship
Ġblog s
Ġempt iness
Ġ60 5
Ġannoun cers
Ġgrab s
Ġmatt ress
greg ation
Ġconqu ered
Ġobser vation
Ġmanifest ation
Ġmun do
Ġcooper ation
Ġmaf ia
Ġboll ocks
Ġlous y
j h
l ang
r idge
er ie
Ġd um
Ġd ye
Ġd iana
Ġin ade
ol ett
Ġal z
Ġun lucky
Ġcl aire
Ġen orm
sh ell
Ġwr ight
Ġrem edy
eric a
Ġself harm
Ġref ers
af ts
Ġje opard
Ġbar riers
Ġmad am
play er
Ġnational anthem
Ġmc d
will ing
Ġdece ived
Ġell en
bull ying
interest ed
Ġcollab oration
Ġrecip es
Ġrib s
Ġxen ophobia
Ġpear l
Ġtraum at
Ġorient ation
Ġmonop oly
Ġepile psy
c ester
i ams
l ace
Ġt ch
Ġm ick
Ġp hew
Ġbe au
Ġsh h
Ġse ct
Ġas well
un ting
ge e
ous es
ail ing
ny c
Ġdes e
Ġhand les
Ġpay er
Ġsch iz
Ġcomm end
Ġchar olett
Ġrest oration
Ġdont care
Ġcal ories
Ġannoy s
Ġwo ah
Ġoper ations
Ġworkout s
Ġshar ma
Ġsubject s
Ġglor ified
Ġbold ly
Ġlag i
Ġbik ini
Ġdisconne ct
Ġnaw az
Ġpam per
Ġdynam ic
Ġdere k
d it
d ings
f b
z ie
Ġb aked
Ġd ill
Ġp ax
Ġe up
Ġsh ips
Ġsh annon
Ġk ms
Ġbut th
ol s
Ġde me
Ġdon key
Ġor gs
Ġlove wins
Ġbl k
ip olar
Ġjo h
Ġass ure
Ġmem or
Ġhar am
Ġsecond ary
Ġrob bery
Ġsweet psalm
Ġak bar
prob ably
Ġdut ies
dad dy
Ġkl opp
Ġfins ub
Ġglo om
shock ed
Ġcham bers
Ġrefere es
Ġnun ca
Ġmosqu ito
Ġcirc uit
Ġjesusis lord
Ġtran qu
s ight
w ine
Ġw icket
on o
Ġb p
Ġd anced
Ġd arts
Ġl ash
ot ha
Ġlo d
and the
se at
Ġfe ck
Ġqu es
Ġim am
ach t
Ġapp les
Ġfin ances
Ġmat ern
Ġsl ower
av oid
Ġsur g
Ġfac etime
ient o
Ġjack ie
Ġvers es
ev a
Ġdece ive
imp ressed
Ġembr acing
dog an
Ġselfish ness
Ġmater ials
Ġmock ed
lay ing
Ġattract ed
Ġbah ubali
Ġresour ce
Ġgrac ias
Ġinfin ity
Ġencounter ed
insp ired
Ġprec is
Ġsie mpre
Ġrih anna
amu cci
Ġalleg ations
Ġlma oo
a ired
c lim
g p
h ost
s ending
Ġf ot
Ġd ots
Ġl ak
es om
st y
ig ans
Ġun pl
ob ed
ib les
Ġover load
Ġdis co
tr ave
Ġlet t
ber ries
ne ck
Ġstr ings
oc y
Ġmed als
gr am
Ġkind er
go vern
Ġque bec
Ġbar rier
Ġdeal er
Ġworth while
Ġrece ives
Ġuk ip
Ġwel coming
Ġpu edo
Ġhero in
Ġphil adelphia
Ġplat forms
Ġwal t
Ġgirlfriend s
Ġtreason ous
Ġspir al
Ġmanip ulation
iqu ette
Ġdeport ed
Ġrp g
inform ation
Ġemer ge
Ġpsychiat rist
Ġcharolett esville
l augh
Ġh os
Ġh ace
el ight
Ġk urt
all el
Ġab e
ie v
Ġhas nt
Ġ3 50
Ġper vert
Ġper isc
Ġ8 1
rs ervice
Ġhar mon
Ġmother hood
Ġstar ve
bre w
Ġgym nast
Ġten er
Ġorgan ised
Ġmal colm
sm h
Ġangel a
Ġcloud y
Ġmand alay
Ġtele prom
Ġwire less
Ġselect ive
Ġaggress ion
Ġsli pping
cour se
Ġstraw berry
Ġunp leas
Ġscrip ts
Ġpanc akes
Ġenlighten ment
Ġmarg aret
Ġexpans ion
f our
m orrow
p ublic
y ah
Ġt iff
Ġm ack
re ce
Ġn ue
ar an
Ġk g
Ġk ylie
Ġus age
Ġgr in
Ġind o
Ġsun k
Ġinst ruction
Ġexp enses
Ġchurch ill
Ġcof fe
Ġspread s
Ġpleas ing
Ġinnoc ence
Ġsan chez
Ġencour ages
rel ig
Ġsea hawks
soci ety
Ġassign ments
Ġimperfect ions
Ġpenc il
Ġdecla res
Ġchenna i
d ik
d umb
p le
on th
Ġn ir
Ġin ject
om ent
al on
Ġst arring
Ġr cc
Ġr hoa
Ġsu l
Ġsu ther
ok u
Ġle go
Ġun o
Ġun informed
em ot
Ġcar ib
Ġind ication
Ġfamily time
gr ab
Ġhand ic
Ġz ak
Ġunder mine
Ġhot rservice
gy m
Ġrid er
Ġill iterate
fin als
Ġcoup on
Ġfool ing
Ġprev ention
Ġvisit ors
Ġdefend ers
Ġcro oks
Ġchic ag
Ġmodern family
Ġirr itated
cor nell
Ġlic ence
Ġscient ist
rom ans
Ġcham ber
Ġkathy griffin
sem ble
attr action
olive by
Ġdoyour job
8 00
c and
g ay
Ġm op
Ġthe lord
an or
Ġp w
Ġo be
ar thy
Ġ< --
Ġst il
Ġk ia
Ġam er
Ġthan g
iv an
Ġreal izes
Ġwr k
ang ry
Ġ10 3
Ġpres erve
Ġdet our
Ġrock star
Ġcold play
pet ty
Ġparis agreement
Ġdetermin es
Ġcheat ers
Ġoccup ied
Ġnegoti ate
supp ort
Ġmong ering
Ġantis em
retweet ed
Ġweir do
p un
v iv
v ine
Ġ ounce
Ġs op
Ġf kn
Ġc bc
Ġp kk
am at
os o
Ġch ai
Ġjust ification
ul ant
Ġkn ives
Ġbr ibe
Ġdis may
Ġthank god
Ġad r
Ġdes ired
Ġhard working
Ġsl oppy
Ġrespect able
af ting
Ġya weh
ps ych
Ġshut s
Ġak h
Ġtour ists
Ġgard ening
Ġexerc ising
Ġactiv ist
Ġven om
Ġaim ed
Ġmedic are
Ġreflect ing
kill er
jam as
Ġcub an
Ġpound ing
Ġpand ora
Ġkas i
tham endment
Ġraf a
Ġukr aine
Ġbds m
Ġinhum ane
9 4
h ua
n on
r od
¸ ı
Ġt iring
Ġa ure
Ġth ai
Ġi believe
Ġb ikes
Ġthe good
Ġc ort
Ġd ice
Ġp oker
Ġg id
is coming
Ġme ek
Ġso ak
Ġv ivid
Ġam using
Ġbr ides
Ġover comes
Ġfl ock
Ġper ish
Ġrep ost
ather ine
Ġmar ie
Ġmean ings
enc ia
con c
con st
Ġsign ature
cl ose
Ġglad ly
Ġshout s
str om
Ġsen ile
Ġthreat ens
Ġdirect ors
Ġquit ting
Ġly f
faith ful
Ġjan ja
Ġdod ger
Ġpp v
Ġsimpl et
Ġhumili ated
prod uctive
Ġblat antly
prep ared
ĠâĻ ¥
Ġï ¸ı
Ġunpleas ant
t ouch
Ġ î
Ġt ir
Ġw ut
Ġb ise
Ġb ounds
Ġh ib
Ġf ont
Ġc ents
Ġp out
Ġp itt
Ġy uk
Ġg ta
is it
le wis
Ġu b
Ġgo b
Ġk re
ly s
il ia
ate ll
Ġal w
Ġsp n
Ġsp ree
Ġneed le
Ġcl ash
Ġtake away
Ġwin ston
Ġhead aches
av i
what you
Ġye lls
Ġque er
Ġsingle life
Ġer dogan
Ġrad ar
Ġrom ney
Ġmurder ous
Ġtour ist
Ġdeliver ance
Ġstick y
gre ts
Ġtyp ically
Ġridiculous ly
Ġhun gover
nam on
Ġgam eplay
Ġjon athan
acc ident
Ġfred dy
Ġdys function
Ġinstinct s
Ġdile mma
c akes
c oup
j okes
Ġa pe
Ġw ickets
Ġc w
Ġd izzy
Ġp q
Ġy h
Ġgo o
os st
Ġat well
Ġal arms
Ġcon vey
Ġwho ops
Ġsp okes
Ġar paio
Ġkeep going
Ġlive life
Ġz oom
Ġsing apore
Ġhouse of
co ll
Ġfre ed
Ġbring it
work ed
Ġguess ed
Ġ15 00
Ġint end
Ġmoving on
Ġgh ana
ther es
Ġrespond ers
Ġmart y
Ġtechn ique
bur ger
Ġattr action
Ġdistract ions
Ġsuicid eprevention
Ġobed ient
Ġcod ing
Ġdement ed
Ġwasteof time
Ġdisgu ise
Ġvitam in
Ġflir ting
Ġjanja weed
k ki
p ac
s an
s ud
Ġw nt
Ġb ins
Ġc em
Ġg k
Ġg arn
Ġch ores
Ġde e
Ġal fred
Ġlove craft
if ax
Ġhis panic
Ġgr id
ud i
Ġover heard
Ġpre season
ail and
au gust
Ġgl itter
me et
Ġdef lection
enc eday
Ġred ucing
Ġbar f
Ġcor ny
wr iters
Ġrock ets
Ġwall ace
Ġswe ater
Ġlock s
Ġlon er
Ġdirect ing
Ġdesign ated
Ġiphone x
Ġrepresent ed
Ġcrack s
Ġdiscover ing
walk ed
Ġconstit utional
Ġteaching s
about it
Ġscar ier
gi ene
Ġconfl icts
Ġvalid ation
Ġaunt ie
Ġpoison ing
Ġarab ic
Ġobstr uct
Ġraven s
Ġexcess ive
Ġstereot yp
Ġpursu ing
Ġtread mill
m all
o is
Ġ Ù
er k
Ġw imp
Ġan ts
ch annel
Ġso ir
Ġab u
Ġal gu
Ġex al
Ġnew ton
em b
ang le
for ces
br id
br ill
vers ion
happ ened
Ġah med
Ġexcept ional
Ġbeha ving
Ġfavour ites
Ġtrib utes
Ġaccording ly
ophob e
Ġdemon et
Ġgradu ating
Ġfasc ists
Ġcollect ing
Ġprayfor london
Ġmile y
Ġtransfer red
Ġtransform ed
Ġunlike ly
Ġsandwich es
ran ny
Ġrc icservice
Ġkap il
Ġbibl ical
Ġcounsel ing
Ġdou g
Ġsquir rel
b ipolar
f akenews
j ah
Ġt ens
Ġs aga
Ġd ud
Ġp uck
ar ters
id as
Ġtr im
Ġtr acy
Ġv arsity
Ġcom me
Ġte ase
Ġreal ist
Ġad ren
Ġpre acher
li able
Ġve gasshooting
Ġdream big
Ġdam aging
Ġhorr ified
Ġson y
Ġcolle g
Ġden mark
Ġgh etto
Ġdear ly
Ġess entially
Ġni all
Ġhes itate
Ġfeat uring
Ġproph ets
Ġassign ed
Ġarch ite
apr il
Ġmixt ape
c b
d or
h es
l il
r in
in ner
Ġb ball
ay o
Ġbe lla
Ġon t
Ġsh ay
Ġch oking
st o
il ence
Ġwas p
Ġun ga
Ġcon fer
Ġcon man
Ġag ora
Ġfl are
Ġsl ime
Ġstay woke
Ġpos ters
Ġppl s
de fe
Ġna i
Ġdi aper
Ġbag el
fa ult
Ġforg iving
Ġcomfort ing
Ġdu a
cover ed
Ġsens ors
Ġmarch madness
miss ed
Ġyog urt
Ġwood en
ett es
Ġclar ke
john son
Ġpil ots
kill ing
Ġilleg ally
Ġpersist ent
Ġcheek y
Ġnause a
Ġpup ils
Ġcontrovers ial
grow th
Ġbisc uits
Ġtriv ial
c rew
e h
f ic
s oul
us ic
Ġc x
Ġn ast
ic on
am y
fe et
Ġdon ot
Ġun helpful
ne ath
for th
Ġjesus mess
ene ed
Ġbirthday s
Ġviol ated
Ġscr ap
Ġneg lected
Ġskin ned
Ġmel an
Ġgoog led
Ġentertain ed
Ġtu ition
Ġprevent ing
Ġ199 0
unders tood
Ġlean ing
Ġnk jv
Ġrah ul
enjoy ing
Ġalleged ly
loc al
request ed
Ġcorrup ted
Ġantid epress
dik anu
b ush
d at
g ins
l osing
n ar
z es
Ġt apped
Ġth ot
Ġl akes
as ia
as ure
al ore
al ong
Ġu z
Ġst oke
ct v
ck y
Ġman ages
Ġfo i
Ġsp x
Ġcl an
Ġar abs
Ġsc oop
og s
Ġwom b
red ict
Ġsw ept
Ġet hi
Ġpast ors
Ġtrain ers
ipp y
Ġinn ers
Ġ200 3
Ġdistr ust
mom s
Ġcook s
Ġcrack ers
Ġpuss ies
sm ith
Ġforeign ers
Ġattr ib
Ġexec uted
Ġalcohol ic
Ġconsequ ence
Ġmelt ed
Ġpel osi
Ġsque ez
Ġscumb ags
Ġdorm ir
Ġstu art
prover bs
Ġteleprom pter
d ro
e le
l ink
s am
w ann
z el
in j
Ġf uming
Ġc akes
at l
or th
or ant
Ġg ork
Ġo vation
Ġis lands
al ie
Ġha ird
Ġwe er
Ġhe m
Ġhe ated
Ġas d
Ġdon ors
Ġun its
oun ting
Ġex ited
Ġsp ade
Ġsp encer
Ġtrump lies
Ġmo och
Ġph ir
Ġwhere as
Ġper p
te acher
br oke
read s
Ġav oc
Ġcol umn
Ġsol are
Ġhi jab
Ġperform er
Ġlab e
Ġalong side
Ġinvest ors
Ġbal con
Ġmix ers
Ġglob ally
Ġmaster y
Ġble ach
Ġangel es
Ġdecl aration
Ġshair y
Ġts k
Ġprint ed
Ġsimpl est
Ġbry an
Ġoblig ation
Ġasp ire
Ġcott on
Ġsach in
Ġatroc ities
Ġrealest ate
Ġhomosexual ity
Ġjesusmess ias
b il
b ath
b ys
l ime
w reck
Ġt issues
Ġf arts
ic ians
Ġre x
ess e
ig ent
Ġcom ingsoon
qu et
Ġmake it
Ġdis abilities
ber n
Ġlast night
ang an
of ten
gr ind
gr oss
cept ions
co aster
Ġcor nell
Ġlaw of
let ter
Ġmas ks
Ġext ension
Ġban anas
Ġrom ero
Ġrespons ibilities
Ġuser name
hol es
Ġsi xt
Ġdump ster
Ġdict ators
spe aking
Ġesc aped
Ġabund ant
Ġspa gh
Ġpharm acy
Ġunre liable
Ġcrank y
fool s
doub t
Ġhelicop ter
z n
Ġt j
Ġa o
Ġa es
Ġh ue
Ġn ats
om p
ic c
Ġmy st
Ġlo ven
Ġch al
Ġbut ch
Ġv ari
Ġpe ek
Ġal ber
Ġun f
Ġgr if
pr oc
Ġgl imp
not ice
ert ies
Ġhon oured
af an
Ġhorr ors
any more
Ġmad ison
Ġcol ored
Ġthrow back
Ġstar ter
Ġger ms
Ġmel ting
Ġaccom pan
Ġtoler ated
leg end
Ġflood ed
Ġtodd lers
Ġweakness es
dem ocr
Ġmotivational quotes
Ġwiret ap
Ġancest ors
Ġpetpe eve
Ġglimp se
e ves
e ither
s ar
w ash
Ġt apping
Ġi just
Ġh uck
Ġf erg
Ġd ag
Ġy ad
Ġu f
am ine
Ġne arest
Ġch unk
iv ating
Ġbr ace
Ġim ace
Ġback pack
Ġstart ups
pr otest
Ġrun way
Ġhead er
av o
Ġpower less
Ġpar r
Ġcre ws
Ġmotiv es
Ġrad i
Ġroad trip
oph ies
Ġwel ove
Ġjer ks
Ġplat inum
Ġdraft ed
Ġfreak y
Ġprefer red
Ġchair man
Ġnurs ery
eng land
Ġmn f
Ġconvinc ing
Ġsett ling
Ġdivor ced
step hen
Ġdevot ed
Ġhills ong
Ġpenny wise
Ġdecre ase
Ġhyster ia
Ġdess ert
Ġinconven ience
Ġnnam dikanu
Ġperisc ope
h unt
m obile
r ade
Ġb ure
Ġo la
Ġin ac
al if
al ized
Ġr ays
Ġk ier
Ġhe z
ag u
up ac
Ġfl irt
be er
of july
Ġsupp er
Ġins id
Ġmind less
Ġass ert
ars on
Ġcomm its
Ġmar r
Ġsk irt
vel vet
Ġpos h
Ġprop ose
Ġprof iles
Ġwife y
lev ance
Ġdrive way
Ġver izon
Ġmix ing
Ġstat istics
Ġbrand on
Ġsens ational
Ġsearch ed
Ġdefend s
hold ing
Ġbathroom s
Ġinf uri
Ġgang s
Ġcud dling
Ġsuit case
Ġmigr ation
Ġbudd hist
Ġrank s
Ġobser ved
Ġflo ors
Ġbroadcast ing
Ġtemper ature
Ġcin namon
Ġproced ure
Ġxan ax
m oy
r h
Ġc ind
or ith
Ġl is
Ġn aming
ac ious
os c
ch em
Ġsh en
Ġsh ith
Ġk are
Ġv il
Ġun r
Ġcon j
Ġcl utch
Ġgu iding
ha a
og en
he a
orr ies
aw ake
pr int
Ġcar a
Ġ12 79
br ady
af raid
Ġsn ip
Ġfil ters
Ġunder taker
Ġir s
min ation
Ġeng v
Ġcent ered
Ġsaturday s
Ġfinish es
Ġcivil ian
igs aw
Ġscar amucci
Ġgam ers
Ġbudd h
Ġtele phone
Ġhurry up
Ġauthentic ity
Ġwiz ard
3 00
h ou
y oun
Ġt aker
Ġw ale
Ġm ason
Ġf uzz
Ġc ube
Ġd ame
es ar
Ġn ia
Ġre united
ad as
ad ata
Ġk isi
Ġwe aken
Ġnot or
Ġtr il
and re
ie lle
Ġun biased
her ent
Ġag or
Ġcr ust
Ġback ward
Ġfa z
Ġover flow
Ġmu ito
ile e
Ġstr iker
Ġspe eds
Ġfin n
Ġhard ship
Ġcomm ence
Ġcont ains
Ġchar gers
ro cious
umb ers
rem inder
sp oken
Ġhorror film
Ġelection day
Ġba at
Ġprocess ing
heart s
Ġfrank enstein
Ġathlet ics
Ġspl end
Ġtraged ies
Ġblank ets
net work
break fast
Ġsubst itute
Ġtempor arily
Ġaqu i
Ġmarvel ous
Ġbry ant
Ġbald win
Ġprocrast ination
clear ly
Ġpars ons
Ġdeem ed
Ġuran ium
d ancing
g le
n ab
s end
Ġh iking
ed ia
et ically
Ġha p
Ġsh an
Ġtr ades
Ġso ar
Ġman ning
Ġnew begin
pl ete
Ġcr amps
sh ed
sh ar
sh ay
Ġad oles
cc o
Ġed ward
Ġed its
Ġreg ain
Ġvict ories
Ġsuff oc
dr iver
val ues
ino is
Ġarrest s
uter onomy
Ġta e
keep er
Ġthro ats
worth it
Ġfi ance
Ġdur ant
Ġinstit utions
Ġrival ry
fant astic
Ġmalays ia
suff ering
Ġcondesc ending
Ġbalcon y
a ism
b n
d ems
h alloween
j en
m att
p ick
r icks
t ale
Ġth ich
Ġs gt
Ġd x
Ġp ms
Ġg az
Ġo sw
it all
ve ll
et hing
al ot
Ġk art
st aff
est ra
Ġfe ather
are you
Ġnew job
Ġneed less
pl ed
Ġoff ence
Ġdr ums
up on
Ġins ights
Ġchr ome
me eting
Ġturn er
Ġwonder fully
Ġent ity
Ġap ko
Ġpar al
Ġsal v
Ġlight ly
Ġbull pen
Ġ19 60
Ġrock in
Ġmis understood
Ġden ies
uk a
Ġpack et
atter ing
iest a
Ġpor ter
Ġrepresent ation
Ġtem ps
Ġgut ter
Ġvulner ability
Ġunif orms
Ġsna pped
tow ork
Ġalham dulillah
Ġblas ph
f rey
j us
l oy
m ax
u ating
in ness
Ġth ailand
Ġf athom
Ġc air
Ġp ind
Ġp iv
Ġp ione
om i
Ġk ath
Ġnot fair
Ġlo ol
Ġch ess
Ġwor m
ce eding
fe m
Ġor leans
Ġcon don
ast ed
Ġgood by
Ġover fl
Ġmo ist
Ġmo ab
Ġthank ed
ath at
Ġtry n
of my
int age
br ing
Ġdel usion
ert on
ro e
Ġgon a
Ġfar go
Ġfar mer
Ġes e
Ġnor way
Ġmess iah
Ġunder min
Ġsum m
Ġmet adata
Ġdet r
with me
Ġfit z
Ġgrand son
Ġnb ap
Ġ200 4
Ġenc ore
Ġvol unt
Ġcos as
know s
Ġassh at
fil tr
Ġillness es
Ġexec ute
Ġmut ed
char ac
Ġnause ous
strugg ling
Ġfrnd s
Ġdoctr ine
Ġdoucheb ag
Ġpedest rians
f ab
s up
Ġth uto
Ġs ath
Ġh ut
Ġc mp
Ġd we
Ġp se
Ġy ass
Ġbe lls
th x
Ġr ts
Ġk sa
Ġam anda
Ġor th
ab itch
Ġgr ove
Ġqu ando
Ġen er
Ġsc aring
Ġbo iling
oth es
Ġz el
Ġmar x
fr ance
Ġcompl ac
Ġcompl ains
Ġunder neath
ern family
Ġpur ge
Ġty rant
Ġty ranny
Ġll b
Ġfriday s
Ġdamn ation
Ġjoy train
wr itten
Ġanx iet
ex p
Ġdeb ilitating
Ġpet ulant
Ġmatch ing
Ġnational ity
Ġpod ernfamily
gre et
Ġprotest ors
Ġul tr
Ġcas ino
sm ile
Ġfest ive
Ġscript ures
hope fully
face book
Ġeth ic
Ġchester bennington
Ġnoth anks
Ġdevot ional
Ġnol ife
Ġalg orith
Ġrefresh ed
Ġfors aken
Ġenab ling
tru ly
Ġindones ia
Ġnotting ham
f ine
j ong
n os
r ice
Ġs atell
Ġto re
Ġp aw
Ġn ay
Ġre bell
Ġr ss
el ord
Ġv ick
Ġup right
Ġal way
Ġal qaeda
Ġun happiness
Ġun popular
Ġun willing
Ġsp otted
Ġdr acula
Ġmo g
sh ort
Ġfirst time
Ġz ach
Ġsur rog
Ġkind erg
Ġwrong s
Ġlisten er
Ġmag net
sw itch
Ġdoub les
iel ding
Ġcover up
Ġhy giene
Ġdeb atenight
Ġcost umes
Ġbud s
Ġkar achi
Ġsmart est
sec ret
Ġpred ators
fil ms
Ġwitness es
Ġkat rina
Ġrum or
exc use
Ġproph etic
Ġslam ming
Ġtant o
Ġbru ised
Ġwc w
Ġpron ounce
Ġcryst als
Ġbrow ser
Ġbiggb oss
Ġbhar at
Ġportr ait
Ġmediat yp
Ġbise xual
c ash
j im
n one
p ig
r ail
Ġt ah
Ġm und
Ġg als
Ġre watch
ac el
Ġst ark
Ġli vin
Ġsh alom
all ove
Ġall ey
Ġcom pr
ort ions
Ġgr avy
Ġen able
Ġdr ones
Ġpre order
of mind
li us
Ġrem orse
Ġcar amel
Ġmat a
Ġair ports
Ġcent uries
Ġcard inals
str ange
la an
but t
Ġblind s
zz y
Ġki ya
Ġtemp o
Ġmcc arthy
Ġtow els
Ġpump ing
Ġradical islam
Ġunfollow ing
Ġrum ours
Ġimpeachtrump now
Ġboycott nfl
Ġbh ag
Ġnan ny
Ġslam med
Ġsmooth ie
Ġfer r
Ġcheek s
Ġpul se
Ġcraz iness
Ġindv saus
Ġweep ing
Ġmuj he
Ġgover ning
Ġrapt ure
Ġdanc ers
Ġike a
Ġpog ba
Ġrans om
f resh
r ose
Ġt shirt
Ġa uction
Ġc one
Ġc ump
Ġc ider
at ri
Ġp ne
Ġbe you
Ġst oned
Ġj igsaw
os ition
Ġat rocious
un less
Ġun contr
iv ile
Ġback lash
he ws
iss ed
ath let
Ġfollow back
irl ing
pr ove
Ġmost requested
Ġmin isters
Ġcar riage
Ġtru ely
Ġjo an
Ġyes hua
Ġent ers
Ġmen os
Ġart work
Ġroom mates
Ġdisapp ro
Ġvi jay
eth em
Ġheal er
Ġfig uring
will iams
Ġdu pl
Ġly ft
Ġwo ot
Ġded icate
Ġexhaust ion
Ġguard ian
Ġbump er
Ġfuel ed
Ġtransl ate
Ġminim al
Ġhein ous
Ġcogn itive
b ags
e ys
m und
Ġa ired
Ġh ym
Ġthe ss
Ġk umar
Ġcan al
ol ics
ie m
Ġam used
Ġ- -
Ġlife of
Ġsc ram
sh ows
itt lethings
aw ful
Ġwait ress
Ġfin na
Ġacc um
Ġinter fer
af uck
Ġhuman itarian
ling ton
Ġmen ace
Ġste in
Ġislam ists
Ġcol ts
sp ot
Ġdi as
Ġah athat
mo il
lect ions
Ġ1285 63
Ġgrad ers
Ġscreen shot
Ġdistr acting
Ġnom ination
Ġow ens
paren t
Ġmand ate
Ġflood s
Ġalm ond
Ġdemocrat ically
quest ions
Ġfunction ing
Ġish q
Ġwithdraw al
Ġstrateg ic
Ġwiret apping
Ġpalestin ians
Ġbaff led
Ġverb ally
teach ers
Ġstopthe hate
Ġmostrequested live
b ug
e a
f athers
j io
n early
p ace
t orm
y d
Ġthe view
ot ism
Ġst d
Ġst aged
Ġr atch
Ġli me
est op
our i
Ġv anity
Ġout er
Ġout lander
Ġbl ade
Ġsc ent
Ġdown fall
Ġfl ate
Ġstop p
be ck
Ġinst ig
wor n
do or
Ġide als
Ġfre der
Ġny times
Ġcam bridge
Ġsell er
Ġimpr ison
Ġloc als
Ġbang alore
Ġtow ers
Ġken y
Ġtak in
Ġell ie
Ġluc ifer
Ġale ppo
Ġpremium s
Ġinher ited
stud ent
oct ober
Ġdian e
Ġalz heim
c aster
j ri
n ant
u ke
Ġth re
Ġs ipping
Ġw ool
Ġw oh
im on
ill er
Ġso aked
un ks
Ġab ba
Ġno hate
Ġout right
Ġam in
ab ee
res ident
qu iet
Ġfeel good
Ġcr op
Ġgu ides
Ġafter math
Ġend of
ian i
als a
Ġjo ins
Ġob ese
Ġlisten ers
Ġhon ors
af fect
Ġclass ics
Ġele anor
Ġhot i
opp ers
Ġvo ir
Ġbull sh
Ġposs essed
Ġhy dr
ider ate
Ġevil s
Ġaut oc
Ġgovern ance
Ġinterview ing
Ġtre v
Ġbreath s
Ġdrunk en
po ints
Ġcu enta
Ġreveal ing
sl ow
Ġnw o
Ġyah weh
Ġsimpl icity
Ġfif teen
Ġrail way
Ġinstit ution
Ġstanley cup
Ġwahh abism
Ġvegg ie
Ġgoof y
Ġexplod ed
Ġelit ist
Ġbrack et
Ġtyt live
Ġenorm ous
Ġlawof attraction
b attle
l p
p k
t z
Ġt sa
Ġb ates
re ls
Ġh ed
Ġc ush
Ġl s
Ġp anda
ar se
as am
om ing
Ġbe m
Ġre wind
Ġr ave
am endment
Ġj aws
Ġlo o
Ġall iance
Ġout dated
Ġle ban
Ġag ar
tr ash
Ġmo lly
Ġfl ame
per haps
Ġmon keys
ms on
Ġend ures
Ġend anger
Ġheart ache
Ġkid do
Ġes a
Ġda isy
Ġcor ona
Ġste llar
Ġsir i
Ġmis understand
Ġmotivation monday
hum ans
Ġorgan ize
Ġwa ay
Ġciv ility
Ġdesign s
Ġliberal ism
Ġsens ation
Ġdevelop er
Ġprior it
Ġdescrib ing
Ġembr aced
Ġpunch es
Ġprison ers
Ġcock y
cur rent
Ġbum mer
Ġmigr ants
Ġbond s
Ġlag os
ste ve
Ġstir ring
Ġlinked in
blood y
Ġhast a
Ġmillenn ial
Ġ12807 7
Ġbapt ism
Ġerad icate
Ġuncons cious
Ġnbap layoffs
d ain
g d
j edi
m ama
n uts
r ap
t akes
y oga
in able
Ġb unk
ar ca
Ġin filtr
al bum
Ġst ack
ut d
Ġnot ices
Ġdo lls
Ġdr ied
Ġdis belief
Ġpo lling
Ġbel fast
Ġph obia
Ġbig gie
be hind
Ġho ard
Ġpart ial
Ġbu eno
Ġinter ference
Ġsl ick
fr ancis
Ġgen eric
Ġfav ors
Ġpast e
Ġpat io
Ġred velvet
ton y
Ġair craft
Ġparen thood
Ġcut ie
arr ied
Ġvoice mail
Ġviol ation
Ġunited states
Ġafric ans
Ġniger ians
Ġcharlott es
Ġfrank ie
Ġthom pson
Ġcondition ing
Ġtack y
Ġwhis pers
Ġhahahaha ha
Ġsha ved
comm un
Ġcomprom ised
Ġcarn ival
Ġzeal and
Ġln p
osst amil
h ills
l ining
m ails
n asty
z en
Ġi hat
Ġm gm
or ters
Ġp v
is co
as m
Ġbe aring
ad ers
os ters
Ġhe e
Ġhe p
Ġtr ipping
Ġch ili
un s
Ġdon na
Ġun law
Ġun available
Ġlove her
Ġman ga
Ġen rich
Ġdr ool
Ġtrump t
Ġro ar
Ġhigh s
Ġplan ets
af ort
Ġsn d
Ġsw ipe
Ġstory telling
Ġfound ed
Ġbb can
Ġest imated
Ġforever alone
Ġshock er
Ġgoal ie
Ġlad en
Ġtit led
Ġsqu at
Ġinform ative
Ġdiscuss ions
Ġcondem ns
thr u
Ġful fil
bor o
Ġvent ure
Ġseal ed
Ġnin ja
Ġmanipul ated
Ġhaz ard
Ġoutdo or
Ġoutdo ors
Ġcarib bean
Ġspagh etti
j j
n andez
in love
Ġf d
Ġd wn
Ġd reading
Ġp lea
Ġy y
Ġn ate
it ism
ay n
ow l
Ġe book
Ġk ak
Ġse w
Ġjust doit
end as
ind e
Ġbr icks
Ġgood ies
ought s
Ġmon et
be ware
li ar
Ġspe lled
Ġkill in
Ġstay tuned
Ġmar ines
go al
do ctor
how ever
Ġjoy ous
Ġrelationship goals
Ġtren dy
Ġconv os
Ġcross es
Ġvac ay
Ġlat ino
Ġdu vet
Ġcongress man
Ġadm ired
bab we
Ġber ry
Ġinf id
Ġdemand ed
Ġdisney land
Ġrely ing
Ġdiscrimin ate
nor th
pent er
Ġjustsay in
advent ures
Ġmilest one
Ġsurg ical
c ara
e ffect
f ires
w arm
Ġs ized
Ġm w
Ġl um
Ġl ass
Ġl ite
Ġn il
is in
Ġre ct
Ġk ad
Ġne wh
Ġch ah
Ġsu ite
ab ye
Ġbr itt
Ġgood news
Ġen ables
ass ment
ne ighb
Ġinter ven
Ġz ind
Ġdem ol
Ġlow key
ech o
Ġill inois
Ġhat soff
Ġrob inson
Ġtur moil
Ġgrand kids
pre z
Ġfed erer
Ġsuffer ers
Ġresign ation
Ġrefer ences
Ġjam ming
Ġgut less
Ġpig e
conf ession
Ġslight est
Ġrot ated
par adise
Ġjoint address
Ġdiamond s
Ġconcentr ation
Ġhehe he
Ġtrav esty
Ġbats man
brit ish
Ġhtt ps
redict able
c ra
d ang
s os
t u
u ish
er ving
Ġi cc
Ġm erica
Ġthe l
Ġthe struggle
Ġp uth
Ġo wed
Ġyou ll
Ġin quiry
Ġha lls
Ġne x
ter est
Ġv ow
and dad
Ġex empt
Ġex odus
Ġbl aze
Ġgood life
Ġgood will
Ġ= (
Ġmu pp
Ġgu jar
Ġke v
ach ine
Ġho je
Ġho ops
Ġfin isher
Ġrep ub
Ġz ar
aren d
Ġsk yr
Ġinv ites
umb a
Ġbar ber
Ġsocial ism
Ġglad ness
set t
sc ared
Ġmc m
Ġwilling ly
Ġhost ed
follow ing
Ġtun a
Ġathlet ic
Ġguard ians
Ġaward ed
Ġprevent ed
Ġdomin ated
Ġplot ting
Ġfright ened
Ġsob bing
Ġappeal ing
Ġstrateg ies
Ġhyster ical
Ġdisagre es
Ġimmort al
Ġletit go
Ġjewel ry
Ġvenge ance
Ġtril ogy
Ġagor aphobia
Ġener get
Ġkinderg art
Ġmediatyp x
d od
h il
n orm
er ves
Ġs ic
Ġb icy
Ġto om
Ġp igg
Ġbe ver
Ġst ored
Ġr r
Ġk es
Ġwe as
Ġtr us
Ġtr ophies
il et
Ġout ward
Ġal aska
oun cing
Ġnew day
Ġgood friday
Ġco ffin
Ġpre g
Ġword ofgod
Ġel m
Ġaw esom
ank ind
Ġsl ash
Ġhear ings
Ġsend help
Ġbuy er
de ce
Ġtest ify
Ġclean se
Ġhom ophobia
Ġeduc ating
Ġconvers ion
Ġdrag ons
Ġcrack er
Ġlou ise
Ġdisp ar
Ġmand ela
Ġjers eys
Ġfinan cially
Ġresident evil
Ġmitch ell
cross ed
Ġmisogyn istic
mur der
Ġpengu ins
Ġstam ina
h urt
j ac
r ings
t n
Ġm ri
Ġd k
Ġp ff
Ġp ave
Ġn aps
Ġg ow
Ġin hab
as ha
Ġr up
am er
Ġtr amp
Ġpr inter
Ġcom a
Ġbr om
Ġbl izz
Ġgr ud
Ġover due
Ġmuch o
Ġtw ists
Ġshould a
Ġstart rek
Ġfin ed
br uh
gr av
Ġsw ore
ane w
Ġhar vard
Ġpot ty
Ġball er
Ġdet ox
mp o
Ġcomment ed
Ġdom me
Ġbow ie
Ġchick ens
boy friend
Ġloud est
Ġ:- /
Ġphil ip
Ġtyp o
Ġrefund ed
Ġinf est
Ġmah al
Ġrd ma
Ġdisplay ed
Ġspider man
Ġtheat ers
Ġgur l
Ġyah oo
Ġshy t
Ġgall ery
Ġwhitesupremac ist
Ġchains aw
Ġrin se
Ġlur king
Ġcockt ails
igen ous
Ġdivers ion
a ith
h oy
h ungry
p ence
t ay
v ot
in ator
Ġm gr
Ġm ph
Ġo it
al id
Ġre id
Ġre inst
Ġr im
ir an
Ġlo ll
Ġv intage
ant o
Ġkn uck
Ġmu h
ord e
for all
ich rist
Ġbu hari
Ġel f
Ġenjoy ment
Ġpret t
Ġprop erties
Ġbusiness man
bl as
Ġna o
Ġny a
fin ity
Ġbox ers
Ġagree ing
Ġtouch down
Ġdm v
new year
Ġmi jn
Ġcop ying
Ġten ho
Ġexpress ions
Ġlegit im
Ġearn s
Ġdy er
Ġisa ac
Ġdesk top
Ġfemin ists
Ġoce ans
Ġcert ified
Ġjai hind
Ġbm w
i astic
k l
l v
m ies
r ocks
s imp
Ġa ha
Ġw m
Ġw iv
Ġf n
Ġn igh
ot on
th im
Ġst oner
Ġj al
ch am
Ġnot re
Ġab ol
iv o
Ġwork life
Ġcr us
Ġcr ore
Ġnever hillary
Ġplay station
Ġdown hill
Ġstr ap
man uel
Ġz uma
Ġac l
Ġblack out
Ġconf id
Ġey ed
Ġpat rol
Ġty r
come y
Ġconc uss
Ġdisc redit
Ġna ar
Ġrob bing
Ġprov ince
room s
izz a
Ġsmart phone
Ġvac c
iar ies
Ġincom ing
Ġsr il
Ġbuff et
Ġflash back
Ġparticip ation
Ġrequire ment
Ġmerry christmas
Ġrome o
Ġtrumpp ence
Ġcontempl ating
Ġitch y
Ġwilder ness
offic ially
Ġnosh ame
Ġa ry
Ġa ura
Ġi js
Ġp bs
Ġn es
Ġg sw
Ġin ward
th om
Ġsh ia
Ġde w
pe e
iv ation
Ġbl and
Ġsa ith
ub a
Ġph el
itt les
Ġapp ropri
Ġspe eding
Ġhard en
ug by
Ġsad der
Ġpro ceeds
Ġbar ron
Ġste wart
Ġmet ime
Ġdoub lest
Ġwed dings
Ġom ar
Ġpm ln
Ġrad icals
Ġgrand children
Ġsaturday night
Ġlu fc
Ġ200 6
Ġstick ers
Ġlar g
Ġbat hing
Ġjul ia
ias co
etr uth
pat ient
Ġkab hi
fra ud
Ġconce al
Ġark ansas
defin itely
Ġmotherfuck er
Ġlett uce
brill iant
e aster
m agic
n ick
s um
u va
Ġa ver
Ġs q
Ġs ry
Ġi ba
on j
Ġm oy
Ġm ls
Ġc v
Ġp all
Ġyou s
ac co
Ġst ap
ent re
Ġsh apes
Ġwe ave
Ġlo ong
Ġlo oser
Ġout of
Ġcon g
Ġcon do
res ist
ap l
ap olog
em p
ire ction
Ġworld ly
Ġem ir
Ġmay hem
Ġmon ica
Ġits not
pr ings
Ġkill me
Ġz amb
Ġself worth
ri el
Ġmess aged
Ġunder way
Ġsho ved
Ġann ie
ser ious
Ġtrave lled
Ġpop ul
Ġscr ut
ye a
Ġbrit ney
Ġhide ous
king dom
Ġinternational dayof
Ġincom plete
Ġmt g
Ġven us
Ġtort uring
Ġcum tribute
call s
Ġunexpected ly
Ġgc p
Ġelev ate
Ġoccup y
Ġax e
Ġbron ze
Ġgamb ling
Ġnurt ure
Ġamarn athy
Ġexal ted
b os
n en
n ames
n ational
v ably
an j
en ation
Ġl ament
Ġp end
Ġy ar
Ġg ently
al ians
Ġre bu
Ġu re
id iot
Ġch ile
Ġas bc
Ġde mean
Ġpe ed
Ġus b
Ġkn ack
ump ed
ge y
Ġgreat ful
Ġshow case
Ġpo ore
fer endum
Ġass im
Ġcomm onsense
Ġimp otent
ins ide
Ġce ases
Ġreg ulations
Ġpur ity
Ġbar r
Ġsil enced
Ġprep aid
Ġdom ain
Ġprot ocol
Ġrev ision
Ġcompet itor
Ġimpr ov
Ġmel issa
Ġtast ing
even ing
Ġalex ander
would n
pass ion
Ġshud der
Ġhan h
fol k
Ġredeem ed
agr ande
Ġkardash ians
Ġconstruct ive
Ġscrip ted
Ġincons iderate
Ġrit ual
Ġthunders torm
3 60
c ents
d eter
f aced
g iv
k ay
k udos
p as
p orn
in them
Ġs worn
Ġb erg
Ġh ugging
Ġf ou
Ġg au
it ality
om ani
Ġj ams
Ġsh ane
Ġch ump
Ġch ants
Ġun des
Ġcom eth
Ġpl ates
Ġag endas
Ġcl aud
Ġcl icks
Ġwould a
Ġsc ape
ull ah
Ġro aming
Ġur i
gr owing
app u
Ġap athy
Ġsub miss
Ġmotiv ating
watch able
otes ville
Ġcommun ications
20 3
Ġbegin nings
Ġsnap me
Ġproject echo
Ġdick head
Ġcompet ent
they ear
Ġannoun ces
Ġnh at
Ġcomb ine
Ġwhe at
Ġmt n
Ġfort ress
Ġow l
Ġdun can
Ġdiss ert
Ġsubscrib ed
Ġjess e
Ġdiscour se
Ġcul pr
Ġpattern s
expl ain
Ġaven ue
liber als
Ġhorm ones
excus es
Ġtys on
c alm
d ah
g ift
m g
t ol
Ġl h
Ġl end
Ġl ng
Ġr ut
Ġsh iv
Ġch eryl
Ġab hor
ant on
Ġup ro
ok a
ab by
Ġpl se
Ġpl aza
Ġbl ad
ob a
Ġqu ot
sh im
Ġright ly
Ġmon ument
be cca
Ġwin n
ign ed
ign ant
Ġel igible
ater al
bo llah
Ġ19 50
Ġhu i
Ġtest ament
Ġfant as
Ġsort itout
Ġmeant ime
arm ac
amb a
Ġbye bye
Ġconfident ly
Ġscar f
Ġatl antic
Ġjeff rey
Ġcrooked hillary
Ġgreet ing
sur prised
Ġinstruct or
Ġvit ri
Ġchin moy
Ġbankrupt cy
comp any
Ġrecru iting
Ġpess im
Ġcros by
Ġende av
a ways
f ashion
t ics
u pl
w ag
w au
y as
Ġw apo
Ġf g
Ġy ield
Ġg ems
Ġin a
Ġwh ipped
Ġwh ores
le b
Ġr ere
el ve
Ġj ed
Ġgo ons
Ġch oked
Ġse gu
un ite
Ġv ince
Ġv hs
Ġpe ach
act ic
Ġrem inis
bo ards
Ġsn ark
Ġhuman atm
Ġcontr ast
Ġmess es
Ġrub bing
Ġcol omb
olut ions
Ġsub conscious
Ġant ics
Ġill umin
Ġhi atus
Ġtour s
Ġcal c
Ġcal v
Ġcharl otesville
Ġprofess ors
wait ed
Ġrout er
Ġwal ter
Ġtiny hands
Ġkl itschko
Ġwarn ings
bor ne
hand ed
Ġdelight ful
Ġmes mer
Ġgd p
Ġgif s
Ġinvolve ment
rac ism
Ġassass ination
Ġelectr onic
Ġinterrup ted
Ġgaw d
Ġkitt ens
Ġphant om
Ġtaketh ek
andthe beast
greet ings
k ah
Ġh edge
Ġf su
Ġl ond
Ġl anc
om ic
Ġis le
Ġis tand
Ġre im
im age
ill ed
Ġk au
ol ine
Ġor ig
Ġun watchable
Ġpl zz
Ġte ame
are th
iv il
Ġman us
Ġneed les
Ġcl ich
Ġthank yout
Ġter i
Ġind ec
br others
Ġgl am
Ġstay safe
Ġz ones
Ġinst agood
Ġac oust
Ġele g
Ġsick ened
Ġap ne
Ġfut ures
Ġmil an
Ġ19 70
Ġmonday morning
omb re
Ġidi ocy
Ġstrength s
Ġhom er
Ġeduc ational
Ġemploy ers
fam il
christ ians
Ġped ic
Ġchocol ates
Ġroy alty
Ġhal t
Ġbra ves
Ġlimit ations
Ġbug ger
Ġ198 4
Ġerr ands
Ġgc se
Ġsmack down
Ġbrook s
Ġfrancis co
iot ics
Ġevol ved
Ġinfect ed
Ġzim babwe
Ġraz or
Ġplag iar
Ġdougl as
Ġoit nb
Ġamarnathy atra
b out
c ass
m others
o lymp
u i
Ġt upac
Ġa ux
Ġw itty
Ġi bs
re view
an atomy
Ġl inger
Ġp unt
Ġn ola
Ġg ents
it ors
Ġre acting
Ġr v
Ġr ish
op es
Ġk un
Ġk aw
Ġnot ed
Ġv ap
Ġ: |
Ġal o
Ġun failing
Ġday ton
ab c
Ġbr acel
em por
ings chool
Ġback pain
sh ak
Ġpo v
he brews
Ġind igenous
Ġbre ach
Ġrec ession
Ġwar ped
Ġdream er
Ġsw ings
Ġred dit
Ġson ic
Ġgener ale
Ġmod est
Ġ16 0
Ġcat fish
Ġloving life
Ġnigg az
Ġcy bers
Ġtar a
Ġsubs criptions
Ġmax ine
Ġsusp end
Ġpee ing
Ġbump s
class ic
Ġlouis iana
Ġxen ophobic
Ġboycot ting
Ġamid st
Ġcensor ship
Ġflate arth
d m
g aw
k ings
n as
n ad
r ance
r ality
s ha
t ic
Ġa ar
Ġm mm
Ġh g
Ġp ots
ll i
Ġg own
ac l
Ġj ade
ok now
Ġcon verted
Ġbr otha
ump ing
ip ts
Ġtrump is
Ġpre ds
Ġel a
Ġbb m
some how
Ġscre ws
Ġdi arr
oph ren
Ġ200 2
Ġseek er
201 3
Ġsqu ats
Ġdu o
har ry
Ġkh uda
Ġnote book
ado x
Ġexerc ises
Ġsusp ension
Ġnic kel
Ġups ets
Ġclick ing
Ġpreach ed
Ġharvey we
Ġkay o
Ġfi xt
Ġmap le
del ight
Ġgust o
Ġtrav is
Ġlal aland
Ġrecruit ment
Ġcockt ail
mcc ain
inte gr
Ġmatern ity
Ġosw ald
b ob
o vie
Ġw ick
Ġi cel
Ġf tw
Ġc uff
Ġo live
Ġe f
Ġr andy
Ġj edi
ch ance
Ġsh at
Ġk ot
Ġhe ed
Ġbut ler
un iverse
Ġde od
Ġpe ac
Ġal a
Ġcl apping
ings ervice
Ġqu id
Ġen for
Ġeven ings
Ġworld cup
Ġ10 4
Ġpay back
Ġbook worm
Ġsur geon
Ġsit com
go og
ene w
Ġart ific
Ġsound cloud
bl iss
Ġimag ining
Ġsort a
Ġchill y
Ġbright en
hon or
Ġprison er
Ġharm ful
Ġmigr aines
Ġtrick y
Ġbrief ings
Ġintim acy
stay ing
Ġcomed ians
Ġgoth ic
Ġgras ping
Ġnord strom
Ġlup us
Ġaure lius
Ġenerget ic
Ġtoom any
Ġdoublest and
6 00
b other
n em
p our
s essions
Ġw p
Ġi ot
Ġf iasco
Ġn oun
Ġg iver
ar ming
Ġin human
as se
Ġis il
Ġst al
Ġha irst
ld raft
ent o
Ġun born
pe op
Ġman gg
Ġ/ :
we b
pl ate
Ġcl ife
Ġar mor
ib u
Ġmo v
Ġwr ink
Ġpre pping
Ġbig g
Ġrep airs
lo o
Ġsl ain
Ġev an
Ġz ee
Ġcho os
Ġcur tain
gy n
Ġrid ge
Ġcanc eling
Ġneg l
Ġbeauty andthebeast
Ġpal a
Ġinvestig ations
Ġcricket er
Ġtrad er
Ġtrait s
-- >
Ġwrest le
cong ress
Ġaim ing
Ġcc mv
Ġluc as
prof it
Ġgather ed
jack son
Ġrick y
Ġjaw ans
Ġgraph ics
bud s
agr aph
Ġoccasion ally
Ġacknowled ging
Ġhush abye
Ġhypn osis
cab arca
bia fra
Ġurg ency
Ġdystop ia
Ġbehavi ors
Ġcem et
d un
er r
Ġm ers
us ually
Ġf ert
Ġp ou
Ġg na
om er
Ġre ed
Ġk w
ome ver
Ġfr on
Ġde kh
Ġle ase
res ults
Ġlife coaching
Ġlet hal
he at
Ġwr apping
Ġkeep it
Ġatt n
Ġur ine
pr inc
Ġsupp ress
ft a
Ġfin ancing
Ġid le
you re
Ġmiss ouri
Ġteam mate
Ġsun light
app ro
ro le
Ġlearn s
Ġmoment o
Ġpot ustr
Ġsub ur
Ġdev ote
Ġdist inct
Ġden nis
Ġdaily bread
Ġcent ers
Ġemb assy
Ġcanc els
Ġach a
201 2
Ġtit ans
Ġcos by
fam ous
Ġrole model
Ġhall way
Ġrat io
Ġmirac ulous
Ġcritic ized
Ġwal sh
Ġdisp ute
Ġriver dale
Ġmary land
gi ance
Ġtie mpo
acc ount
Ġwarn er
haw k
Ġdust y
Ġdrown ed
Ġconcl usions
Ġyanke e
Ġpedoph iles
Ġanch ors
Ġresil ient
mum anddad
Ġmechan ism
Ġpix el
nold s
Ġinnov ative
Ġargent ina
gut ted
Ġphotosh op
Ġgid dy
Ġtakethek nee
Ġicel and
d p
e fin
n ag
o ir
t une
Ġt ien
Ġd ances
Ġp f
Ġn ud
Ġon ions
ac ha
Ġst ern
Ġst ero
Ġr lly
Ġj ude
op ening
Ġun noticed
Ġcon te
Ġcon ned
ab ove
Ġpl ed
Ġco x
the ws
Ġdr ip
Ġtrump ers
Ġreal news
Ġad ject
ah o
Ġfl own
Ġstr ipped
per or
Ġph arma
Ġfuck en
Ġchr on
Ġinter ior
itch at
Ġsun burn
Ġcle mson
Ġterror attack
Ġreg istration
Ġhar ves
Ġred uces
Ġsoul mate
Ġmet e
Ġant ichrist
Ġhol s
Ġver t
sc ult
ero om
Ġaud rey
Ġpal ette
Ġannoun cer
Ġtag ging
Ġloc ated
Ġfraud s
Ġreview ing
thr ow
Ġlegit imately
Ġjail ed
Ġkr ish
Ġpig gy
Ġcontro ller
shock ing
Ġrod gers
Ġdup ed
Ġker ala
Ġramp ant
Ġacknowled ged
Ġeager ly
Ġchir opr
holiday s
Ġinherit ance
Ġassump tions
Ġgrav ity
Ġunsubs cribe
Ġmetaph or
Ġsolare clipse
alif etime
Ġunlaw ful
b bc
m ak
o ice
s kin
Ġs ik
Ġi can
re search
Ġto zer
Ġe in
le igh
Ġre my
th ma
Ġj od
Ġj ax
os aur
Ġnot ion
Ġch ub
Ġv ry
ab oli
ep is
Ġfo llo
Ġthere al
Ġcl iche
ous ers
Ġbest ies
aw i
Ġfuck trump
Ġwell done
ug ly
Ġsl uts
Ġpain killers
Ġet iquette
Ġadd icts
Ġpar agraph
Ġfall out
Ġmove ments
Ġcre ek
there fore
Ġmad den
Ġmill en
Ġdeb acle
Ġ14 5
Ġpan els
Ġcoach ed
Ġoct agon
Ġsyr up
Ġsnow ing
mom ents
thanks giving
Ġdefe ats
mind set
Ġunbelie vably
Ġbeast s
Ġjosh uak
Ġsatan ic
Ġvent ing
Ġbond age
Ġpier ced
Ġunt ill
Ġretr o
rup ted
cap tain
Ġfors ake
Ġkor an
Ġenh ance
Ġrecyc ling
Ġgymnast ics
Ġmandalay bay
c orr
Ġt armac
Ġs ikh
Ġw agon
Ġf cc
Ġc yr
it ates
im mer
um an
Ġwhat the
Ġv l
ag les
Ġup to
Ġkn ot
iv able
ob ic
Ġgr ain
ap art
Ġaf t
Ġshe esh
Ġmo le
aw kward
oc o
Ġspe ws
Ġins ign
fr uit
Ġgon z
Ġnor wich
att a
ier a
con v
com mer
Ġmet all
Ġny pd
Ġdiv a
Ġstar ters
Ġweird est
ced es
Ġcal vin
Ġkar l
Ġgay a
Ġgar land
box ing
Ġrout es
rench ing
Ġmail box
Ġkim jong
Ġconsum ing
Ġnarciss ism
Ġjihad ist
Ġenthus iastic
Ġpip eline
Ġfh live
Ġld n
Ġcurt ains
apol is
Ġqat il
Ġcrystals ound
Ġpotustr ump
a ved
d ys
l ou
l unch
s ol
Ġm ta
re form
Ġh onda
Ġf is
Ġf ay
en y
Ġp ere
Ġn ode
Ġg aut
al ah
ac use
Ġk b
Ġso g
Ġfr a
un ge
Ġv amos
Ġab uses
Ġpe er
Ġun forget
Ġcon se
Ġtim ely
Ġbr ah
Ġfo e
to go
Ġke h
Ġdis dain
he e
ne ct
act ed
ci o
Ġbo e
be lle
Ġho or
Ġpro active
Ġhand shake
me x
less on
Ġleft ies
Ġcour ier
Ġrub y
sp ort
mp arty
Ġpan thers
Ġsuic ides
Ġview er
Ġpsych otic
Ġphys io
Ġsud an
Ġvers ions
rop he
Ġtrib ulation
from the
Ġtrail ers
ari os
Ġilove my
Ġtele com
Ġattach ment
Ġdunk in
Ġlaz iness
Ġendorse ment
Ġcyn ical
Ġimiss you
Ġpersec ution
Ġaun ty
Ġreleg ated
Ġimbec ile
Ġfict ional
Ġinternationaldayof happiness
wau kee
Ġmangg ahan
Ġjoshuak l
a frica
l ake
t ears
v sp
Ġth ur
Ġh ong
Ġh ier
Ġc out
at me
Ġto da
Ġis so
Ġr ivals
Ġk urd
Ġhe ctic
Ġnot ch
Ġtr ace
Ġtr oy
Ġpr icing
Ġwas her
fe ver
Ġab by
Ġab hi
very thing
qu ila
Ġman g
Ġevery ones
ick ers
Ġcl aw
Ġco aster
Ġcr amp
Ġstr o
Ġmiss my
Ġgl ued
Ġpay ed
Ġchar ities
Ġimp acts
bo at
Ġdep uty
oub le
Ġsuccess es
Ġda ft
Ġav a
ex perience
Ġbur gl
Ġviol ently
play offs
Ġben nington
Ġexist ential
Ġaud iod
follow ers
Ġexce eding
gen u
Ġhahaha h
tweet ing
terror ists
Ġrenew ing
Ġmiser ably
Ġbuff y
Ġclock s
Ġrot ation
Ġthn k
Ġmiche le
Ġmerc ies
Ġcarl os
Ġdegr ading
Ġtc mparty
gard en
Ġbrun o
Ġgreys anatomy
Ġobliv ious
Ġdissert ation
a ji
h le
l ap
p ict
u is
er m
Ġs esh
Ġm ice
Ġm az
Ġh in
or ia
Ġd ana
Ġl ays
Ġo de
is ations
Ġon wards
Ġit u
Ġre el
Ġst umble
Ġj ol
Ġtr ance
Ġab om
Ġab ound
Ġsu k
Ġam use
pe c
Ġex alt
Ġman go
Ġag u
Ġnever mind
Ġdis astr
Ġmo vi
sh ades
ci us
Ġstr iking
ily n
Ġwhere is
Ġput insp
Ġfun ctions
gr at
Ġrec ur
Ġmar ley
Ġmar tha
Ġref usal
Ġele ven
Ġfil ip
Ġpat ty
Ġair b
Ġfriday night
Ġcol bert
Ġdev on
Ġshort age
Ġpakistan is
Ġbi ology
Ġtough er
Ġjump er
Ġtown s
Ġprocess ed
wood s
Ġhosp itality
Ġremain ed
Ġdan i
Ġsam ples
Ġtun ing
leg it
Ġsuc ceeding
pir ation
Ġobser ving
Ġpier cing
Ġjen ner
Ġpercent age
Ġmaj esty
Ġunp redictable
Ġswallow ed
Ġsneez ing
Ġparaly zed
Ġorgas m
Ġprecis ely
Ġhaird ress
Ġbure au
Ġhez bollah
Ġscape go
g osh
l ater
t ur
u ity
Ġ oud
Ġi o
Ġthe five
Ġd ared
Ġto by
Ġp iers
Ġn uff
Ġo ok
ot ch
Ġst a
Ġch im
Ġch opped
Ġas da
Ġv ague
Ġab i
Ġday off
qu ite
ort on
Ġgr aves
ap at
pl z
Ġim d
to get
Ġtw ats
Ġend uring
Ġnews papers
Ġmar i
Ġcur sing
Ġcor rected
Ġdamn it
Ġbb w
Ġ> >>
Ġmic key
sc ream
dr ama
Ġbow ls
Ġ1285 32
Ġaud itions
Ġpod esta
Ġpitch es
Ġrequest ing
Ġgard ens
Ġfest ivals
Ġdecl aring
Ġprofessional ism
check ed
Ġentrepreneur ship
Ġeid mubarak
Ġcorn wall
Ġlouis ville
Ġglo omy
fi ance
Ġhumili ating
imm igr
Ġblu et
Ġredeem er
Ġpostp oned
Ġump ire
Ġrhy me
Ġperce ive
breat he
brit ain
Ġbiggb osstamil
Ġkidna pping
Ġhypn otherapy
Ġrapid ly
Ġresent ment
inph illy
republic ans
Ġcris ps
Ġgodsw ord
Ġschiz ophren
Ġconfer ences
Ġethi opia
Ġlarg ely
f x
Ġc alf
Ġto i
Ġl af
Ġn al
om fg
Ġe ck
Ġha f
Ġj p
Ġj em
os pect
Ġhe brew
st rike
Ġus her
Ġsay a
Ġsc ope
sh ops
oc us
Ġlong ing
ty pe
te a
Ġlist ing
Ġhand y
Ġsl iding
Ġsch em
Ġsk ins
Ġed wards
Ġret ard
Ġfre t
cr u
Ġmid week
Ġlaw suit
Ġdepress ive
Ġju ven
Ġlay er
Ġbomb ers
Ġkh ush
Ġfalse hood
Ġrepresent atives
Ġfraud ulent
sof joy
sl ide
log ic
Ġscient ology
angel es
roc ess
Ġsincer ity
Ġine ffect
Ġenlight ened
Ġemer ging
Ġroller coaster
Ġboun cing
Ġsovereign ty
Ġbelievein yourself
Ġorph an
f ac
i u
k d
p red
Ġt zu
Ġth m
Ġp ins
om en
Ġe got
Ġre vert
Ġre levance
Ġfor cabarca
ad dy
th elove
Ġr il
Ġsh ack
Ġde ff
Ġab bott
Ġam d
Ġun well
Ġgr apes
Ġfa zer
Ġher d
tr ib
Ġbelie bers
Ġwait er
ise ase
be it
Ġ10 2
Ġind uced
Ġind irect
Ġgirl z
ug u
Ġchrist ie
Ġz zz
Ġz ijn
av is
af ety
Ġinv alid
Ġbar ista
Ġfoot steps
Ġsmile y
Ġball oons
Ġhy de
Ġdist ingu
Ġill um
ser ving
Ġweak er
Ġnational ists
Ġrich mond
Ġah scult
Ġcult ivate
Ġbow ler
Ġciv ic
har a
ez y
add ict
Ġsurround ings
Ġcart oons
assho oting
Ġpad s
Ġell iot
Ġstink ing
Ġconven ience
Ġbenef icial
Ġflour ish
Ġarian agrande
atisf ied
Ġgenerale lection
b uster
n iger
n azis
r ather
Ġs ly
Ġs ard
Ġw ak
Ġi h
Ġm x
Ġm gh
Ġb v
Ġb by
Ġc attle
Ġp ans
Ġy oo
ed es
ic ulous
Ġre pr
ad ult
th ouse
Ġgo on
op ed
Ġk ry
Ġtr ab
ol as
ist ical
Ġfe ma
Ġman ual
Ġman afort
way ne
Ġsp ins
Ġthem es
Ġtoday in
Ġreal ities
Ġfl ore
aw l
ty p
lo vers
Ġgl aston
av an
Ġturn out
Ġmusic ally
af i
Ġet a
Ġhar i
Ġsho vel
Ġsex ting
Ġfac il
Ġom n
Ġfootball er
Ġswe ats
Ġcat astr
Ġfat ty
ga e
Ġhack ers
Ġmaster chef
Ġaccess ible
Ġyay y
Ġimpact ed
Ġsme lled
Ġspons oring
Ġalle giance
hat ers
Ġcp ac
educ ation
Ġhumili ate
Ġgc u
Ġpir ate
Ġraid ernation
Ġtomato es
Ġingred ient
Ġaston ishing
vir gin
Ġmonit oring
Ġwatt pad
Ġthigh s
Ġdisgr aced
Ġavoc ado
Ġratch et
Ġdisastr ous
b ff
d ia
j es
o ints
p il
y y
Ġs ark
Ġw igg
Ġi was
Ġf iber
Ġto be
Ġp ong
Ġn ax
Ġan on
Ġsh ir
Ġk ip
Ġne br
Ġdo you
Ġso good
ter ms
ur ry
Ġas thma
st ed
Ġam an
Ġal erts
Ġle agues
Ġun g
Ġnow ords
Ġbr ib
Ġnew life
Ġco exist
Ġro c
pr ime
Ġper ks
Ġrep ulsive
Ġold school
Ġve ins
Ġinter f
Ġgl owing
Ġcont empor
Ġz akh
Ġsy ri
Ġpain fully
Ġap a
Ġpar ad
Ġbuy ers
Ġair plays
Ġtrans fers
sp end
Ġvis uals
Ġliber ation
Ġpan icking
Ġanim ation
pet ersburg
Ġdems inphilly
Ġresearch ing
Ġmax im
Ġsusp icion
Ġcheer ful
Ġpin terest
Ġhes itation
Ġtab lets
Ġbay ern
Ġfel ic
Ġmort al
yl v
Ġshr ink
Ġstink y
Ġentit lement
Ġmedi ocr
Ġimper ial
umm ies
Ġexplo iting
success ful
mean while
Ġsv c
Ġconfed er
Ġendors ed
Ġsummers lam
Ġsucc umb
Ġsib ling
agreat again
Ġseiz ure
Ġtrev or
Ġartific ial
Ġinsign ific
g il
n ies
s ent
s ong
v on
y na
Ġa ja
er als
Ġw ob
Ġh ugged
Ġf oto
ing ers
at work
Ġd umber
Ġin the
th reat
th ofjuly
Ġha ul
Ġv m
Ġun ve
Ġun forg
ab h
ab el
ap ologies
ans on
em br
Ġcr iter
Ġher man
Ġres ulting
az er
Ġwr it
of er
ign s
Ġbre tt
Ġsl oth
Ġself help
Ġref in
Ġsy fy
Ġeur os
Ġblack list
Ġcustom s
ane y
Ġpar adox
Ġcreat ors
Ġ> :
arr ow
Ġyoung sters
Ġtour ing
Ġground hog
Ġcongress ional
Ġcampaign s
bu hari
Ġmagic powers
Ġindepend enceday
Ġneck lace
Ġtend ency
Ġtay l
Ġhaw k
Ġesc ort
Ġnep al
Ġts un
Ġstret ching
Ġconcl ude
Ġmayweather v
Ġtes la
arre ll
Ġrevers ed
Ġbarg ain
patri otic
Ġshil pa
sept ember
Ġrcc g
Ġkindergart en
Ġcemet ery
Ġglaston bury
c ando
r of
s outh
Ġt udo
Ġa inda
Ġth ir
Ġw if
Ġb ok
at an
Ġd art
Ġn air
Ġn ina
Ġn ana
ed en
Ġre q
op ing
Ġhe h
Ġch alk
od ing
Ġall ergy
our self
Ġv atic
Ġsu x
Ġout ing
Ġam it
Ġun friend
pe ed
Ġman utd
Ġplay book
Ġfl ops
Ġfin ite
Ġwin frey
br ave
Ġhum ming
red eem
fr on
Ġplan ner
fl ower
Ġrest ed
Ġed u
Ġinv aded
ier ra
Ġap na
Ġla o
Ġir vine
Ġtv d
Ġpar allel
mer dale
Ġhar ley
Ġmot o
Ġcor pse
Ġgre asy
Ġfac ilities
Ġvi able
Ġbitch y
Ġvis ions
Ġpak vs
Ġna am
ham med
Ġremind ers
Ġak in
Ġserious ness
boy cott
Ġrecogn izing
Ġboo ed
Ġhav oc
Ġpurch ases
Ġpubl ics
Ġcontest ants
Ġscand als
Ġabund antly
Ġtooth brush
Ġrequire ments
Ġunt ouch
Ġske pt
Ġphenom en
Ġlav ender
Ġrestr icted
Ġbarn es
Ġliv id
Ġnad al
Ġvouch ers
Ġalign ed
Ġtrop ical
Ġruth less
Ġsocalled president
Ġspont aneous
Ġbutth urt
Ġalw ys
defe ated
Ġdwe lling
f al
i was
j os
j ul
m ember
s ch
t ore
u itt
in fo
Ġf wd
ing h
en h
Ġy ank
Ġn arend
is enough
Ġre bound
th al
ver dict
Ġr att
am n
el er
Ġsh ri
ill es
Ġno ir
Ġun ending
Ġbr gy
Ġsp at
Ġcl ive
Ġqu otest
Ġdis se
Ġtw elve
Ġfl ed
Ġfl aming
ild o
Ġsomething s
you th
Ġmiss iss
Ġhum ankind
Ġrec ap
Ġtom b
fr ustr
fl ood
af a
Ġpos ing
Ġes v
Ġsat ire
cr ack
Ġq asam
Ġblock chain
Ġprop ortion
Ġopp ress
Ġdev our
Ġmas cara
Ġperform ers
Ġmc fc
Ġug liest
Ġtrash ed
Ġport fol
Ġfresh ly
Ġeg os
Ġcoward ice
Ġtrib al
rel ax
Ġsab er
Ġ08 00
Ġprayfor vegas
Ġdies el
Ġbrut ally
Ġdevast ation
Ġflu id
wonder ful
Ġpd x
Ġdunk irk
Ġtid y
Ġavo ir
Ġgil more
Ġboil er
Ġdisheart ening
Ġfirefight ers
Ġdiscontin ued
Ġadr ian
Ġalgu ien
Ġpiv ot
Ġdeod orant
b uzz
c ost
d ig
n ature
Ġs alsa
Ġw ired
Ġm hoa
Ġb ho
Ġf ading
Ġc st
Ġc acs
Ġd amp
Ġto ken
Ġp ing
Ġp ies
Ġy al
Ġn ab
Ġis i
Ġu u
ill o
Ġk ho
ome z
Ġfr ick
Ġun rest
Ġbr is
Ġbr ig
ump tion
Ġsa x
Ġcl uster
ib ble
Ġmu ff
ire land
Ġro j
na ils
of us
Ġhappy newyear
Ġsame old
Ġx p
co at
Ġhold ers
je e
Ġann ih
Ġfore x
Ġmil waukee
bl er
Ġclear er
fort une
Ġcommun ism
Ġgener ate
su its
Ġcal gary
Ġadmin istr
Ġly in
Ġbrill iance
Ġpitch ers
dis c
Ġactiv ists
Ġcha otic
Ġwhe w
Ġpurch asing
Ġborder line
Ġwreck ed
tot he
Ġgir ly
bud get
Ġinteract ions
Ġunlock ed
Ġethn icity
Ġslaughter ed
Ġfals ely
Ġkee pp
Ġrakh ine
Ġsociet ies
f alling
p ull
p rem
in vest
Ġf itted
Ġl st
es i
Ġg imm
Ġan ore
Ġu i
el u
Ġsh amp
Ġtr ails
Ġdo k
Ġdo od
Ġde fer
Ġpl ots
Ġsp ank
Ġqu inn
Ġres ides
Ġad ap
ang a
Ġstr ain
of mylife
Ġrel uct
Ġpay tm
Ġprob e
Ġdel icate
wor se
Ġsong writer
Ġcy cles
Ġba ar
Ġpal mer
Ġresult ed
Ġphil and
Ġpaul o
Ġbbc news
Ġrisk y
wed ding
sm art
Ġtor ah
Ġcheese cake
Ġwrest lers
Ġhal o
Ġta o
Ġmut ually
Ġlimit less
isa iah
Ġdod ging
Ġconfir ming
Ġcontrib utions
Ġtack ling
Ġappl ications
Ġintrod ucing
Ġwip es
Ġpier ce
Ġexplos ive
Ġanaly st
Ġbog g
Ġfrequ ency
Ġdecor ations
Ġelector ate
Ġfier y
Ġevangel icals
Ġreb els
Ġprost it
Ġalexand ria
Ġinac cur
Ġbicy cle
Ġacoust ic
Ġjuven ile
ylv ania
a o
g f
k iss
p uff
Ġt fl
Ġc ot
Ġc fl
Ġl ga
th on
Ġcan on
Ġfr o
Ġv b
Ġv ra
Ġv ale
Ġab dul
Ġal ma
Ġwho o
ob v
Ġsp ike
Ġhapp end
Ġqu its
Ġcr oc
Ġad ela
Ġpo e
Ġind ifference
Ġche que
Ġgirl power
Ġel vis
Ġsl ob
ro ots
Ġpresident bannon
Ġsk ating
Ġclass ical
Ġblack berry
do ch
Ġpolit ely
Ġconf essions
Ġreg ulation
Ġir gc
ho oting
rem ind
Ġang st
Ġtrans plant
Ġfix es
over heard
Ġsave me
ows ki
Ġprov iders
Ġwel p
Ġmine craft
yr ia
Ġlay out
Ġess entials
Ġlasve gassho
Ġchronic life
Ġbillion aires
Ġiron ically
Ġwip ing
Ġcann ib
Ġintimid ated
Ġbrazil ian
Ġgrill ed
Ġexhib it
Ġrif le
Ġcompe lled
Ġsemin ar
Ġdismay ed
Ġsril anka
Ġmediocr ity
Ġcacs cc
i ated
l ately
s ons
v re
w arning
x c
Ġa ime
er d
er cy
Ġb ck
Ġf uc
Ġy un
Ġbe acon
Ġre arr
Ġre write
ac ist
Ġst ared
ut an
Ġse v
Ġas per
il ah
ol it
Ġv ault
Ġsu ed
Ġun god
Ġday care
ind epend
Ġex hale
qu el
Ġhas sle
Ġen r
Ġyear ly
sh ate
ang o
Ġper v
Ġword sof
Ġel vee
Ġmiss pe
just in
Ġattack ers
Ġfree biafra
Ġ11 5
Ġtv s
Ġpar amed
Ġcor on
Ġq a
cl osed
Ġll oyd
Ġchildren s
Ġfac et
Ġfac up
your s
Ġlow life
Ġdeep state
inc red
Ġrob bie
Ġmist reat
Ġprov oke
Ġcop ied
pres so
Ġtro lled
Ġscreen writing
Ġfed ex
Ġpaul a
erc ise
Ġloc ate
Ġappear ances
Ġkk r
Ġdisplay s
Ġbum s
Ġhomeless ness
Ġwk end
Ġvirt ually
Ġcontrib uting
Ġfunction al
Ġron ald
Ġvom iting
Ġburst ing
rec ord
sing le
gur u
Ġincreasing ly
Ġdisrupt ion
Ġeleph ants
Ġjin x
Ġhumid ity
Ġinsan ely
opin ion
amm ation
viv or
Ġmayweatherv mcgregor
b ene
j al
m ash
m arried
t one
t ost
Ġ ets
Ġ vern
in to
in paradise
on k
Ġc un
Ġo ll
et our
ad ian
am az
all s
Ġse i
Ġpr iced
fe llow
ort mund
Ġlife quotes
oy s
Ġover re
Ġmo cha
ci ating
Ġem merdale
Ġmar co
Ġmar aboli
Ġleft y
Ġleg ion
Ġfan atic
Ġma e
Ġfre estyle
Ġmot ha
Ġposit ives
Ġtreat ments
Ġint act
book ing
Ġchoose kind
Ġbroken heart
Ġrich ards
Ġpresent er
Ġpen ns
Ġcup board
respect ive
Ġpract iced
Ġallah u
Ġpolic ing
Ġprev ents
Ġeffect ed
Ġcoll ision
Ġridic ule
hel d
Ġwat ford
Ġner ds
Ġjan et
Ġchronic les
Ġja ja
Ġalex is
Ġradical ized
Ġsurround s
Ġfle et
ili ation
Ġdod gy
Ġpill ar
Ġpill ows
Ġchampionship s
Ġker ry
Ġhelpl ine
Ġcripp led
Ġcolumb ia
Ġbart ender
Ġnore grets
Ġlitt lethings
Ġproceed ed
Ġholl and
Ġbisc uit
Ġunle ash
Ġnewbegin nings
ivile ge
Ġleban on
Ġcalv ary
Ġairb nb
Ġquotest oliveby
b f
b day
e ff
l eness
z ac
Ġth irty
Ġm ik
Ġc ic
Ġp um
Ġr amb
Ġr udy
Ġr iley
ut t
Ġlo bs
Ġpr inting
ak y
ag ree
Ġno che
day fiance
Ġlove u
Ġman ly
Ġcr im
Ġtrump rally
og g
Ġright wing
Ġbel ated
ne g
ord ie
Ġfl ake
Ġfl ashing
Ġlong time
Ġbu at
Ġsun ni
Ġinc est
Ġsec ured
Ġmar iah
Ġdef und
Ġclass mates
olog ue
Ġcur led
con n
Ġhar bor
Ġfood for
Ġty re
Ġste ep
Ġexp ort
Ġav atar
got this
Ġdie hard
Ġbeat les
Ġrip s
Ġprote ctor
Ġcup cakes
Ġform ation
Ġspread love
Ġcast e
Ġsuicide awareness
Ġprogress ives
know ledge
talk s
win ter
Ġsales man
Ġattend ant
Ġinflu ential
Ġmah ar
Ġcounter ing
Ġfu i
Ġassoci ates
sure ly
Ġobser v
Ġwhit ney
Ġjihad i
Ġcooper ate
Ġ1278 81
Ġlifeless on
Ġtantrum s
Ġgro ove
chap ter
raff ic
Ġjeopard y
Ġindo ors
Ġfuzz y
Ġcatastr oph
e xtrem
k al
l ins
p irit
v id
w ester
y ad
Ġa ad
Ġb anger
Ġc ess
Ġd hs
Ġl ashes
es ity
Ġn ons
Ġg ou
om on
Ġe ug
Ġfor real
Ġr ows
Ġj w
ent ive
ill usion
Ġk ha
Ġdo o
Ġso aking
Ġwor ms
Ġas i
ist o
Ġal am
ind o
Ġbr ake
ans wer
ass o
Ġmu ll
Ġtrump supp
Ġtw ink
Ġpre ston
ms g
Ġ10 9
Ġhome grown
man aged
Ġlos angeles
enc et
Ġfre em
Ġcad a
Ġsimp son
Ġdoub ted
Ġintern ship
Ġearth ly
Ġprov oking
Ġdin osaur
mor ow
dr inking
Ġstream er
Ġba iley
Ġlat inos
Ġknowledge able
Ġcompet ence
Ġmel o
zz a
Ġchris cornell
Ġcivil ized
Ġjul ian
Ġpitch ed
vo ir
Ġder ail
Ġri oting
Ġshar if
Ġgam ble
Ġrough ly
Ġreject s
Ġfingers crossed
Ġbump ing
Ġrank ing
Ġnecess ity
Ġstereot ype
Ġscholar ship
Ġassa ulting
Ġoccas ions
Ġartic ulate
pract ice
vac ation
Ġzakh mi
Ġvatic an
g io
l iv
r c
y oo
Ġt ks
er ity
Ġm st
Ġm iz
Ġm cl
Ġh ina
Ġe ch
Ġj ugg
ch icken
op a
Ġk aine
ter ing
Ġse ating
ol an
ak t
ation ally
Ġgr udge
Ġway y
up un
Ġbeing mumanddad
Ġbest rong
ath i
Ġrep ug
Ġmor ph
ult ure
Ġchar ter
Ġchar ism
Ġimp art
Ġsw itzer
Ġmag ically
Ġce os
Ġmid term
Ġste lla
Ġbull ish
Ġint l
Ġint imate
Ġtick ing
good night
Ġcelebr ates
Ġ17 0
Ġpan ama
Ġnation wide
sc am
Ġlab eling
Ġcup cake
Ġmc g
Ġju icy
Ġfamil ia
was n
Ġ23 4
Ġger ry
Ġxx x
Ġdump ing
Ġscar red
Ġrejo icing
Ġgreet ed
Ġcollab or
Ġlone wolf
Ġcatal onia
Ġsnugg le
Ġast ounding
Ġchor us
Ġpine apple
Ġdak ota
Ġelo qu
Ġcockro ach
Ġambit ious
Ġnood les
Ġadren aline
Ġdiarr hea
Ġkimjong un
Ġtodayin church
b ike
f ury
g ave
k es
o cial
w ire
Ġb he
Ġthe v
Ġd ank
Ġan ointed
is ure
le af
le ments
Ġu pp
Ġr apping
am ong
Ġha iti
Ġj av
Ġfr inge
st udy
Ġpr one
Ġde pp
Ġv ape
ak o
Ġpe w
Ġal ger
ab et
Ġbr ushing
Ġdis liked
Ġem peror
Ġtake over
oc ast
Ġrem atch
Ġperson as
Ġ10 8
Ġrel ies
Ġve to
Ġmust er
Ġrec re
Ġcomp on
uss y
Ġpass ions
Ġfree way
Ġsw inging
Ġpar ach
Ġcur ling
Ġhar per
Ġstep han
Ġpoor customerservice
Ġvo ic
com ment
Ġhu a
Ġfilm maker
Ġbuild er
Ġmer ci
Ġhair y
Ġshoot ers
Ġarr anged
Ġequ ipped
Ġsweet ness
Ġcam b
was her
Ġger mans
Ġrh onj
Ġcoll uded
ec urity
Ġcorrect ness
Ġcath olics
pay soff
Ġeh h
Ġapproach ed
Ġalle vi
Ġpil gr
Ġtong ues
Ġnep otism
Ġmarry ing
Ġstret ched
Ġvlog s
Ġank les
Ġvp debate
Ġsid eline
Ġroast ed
Ġcasual ties
Ġlin ux
Ġrever ence
Ġdesc end
Ġdisciples hip
Ġkidna pped
Ġboog ie
chr onic
Ġster ling
Ġuncondition ally
Ġbuddh ism
Ġharves ters
Ġunforget table
d ow
g aming
m acon
Ġm cr
Ġb ingo
Ġto pped
Ġg aza
Ġo va
el ab
ut or
ch en
ent er
Ġsh alt
Ġhave faith
ur able
st ones
il ove
ol ve
Ġno va
ul iani
Ġun sett
Ġex es
qu ia
Ġte quila
Ġbr ink
Ġqu arters
Ġover looked
og ether
Ġins ists
br ide
Ġmiss ions
Ġlot ta
Ġcont ents
Ġz ayn
bo om
Ġmag gie
Ġfil ing
Ġsal ah
Ġfocus es
Ġ13 4
Ġna a
Ġbur bank
Ġbank ers
Ġimm ens
Ġhor a
val uate
ole on
Ġlunch time
Ġrisk ing
Ġboard ed
Ġmassive ly
cent re
Ġshar on
Ġdar ren
Ġfu els
Ġspir itchat
Ġcp c
Ġmans ion
lu ke
mess age
deal ing
Ġtransport ation
Ġlahore blast
foc used
Ġprol ife
Ġjourn os
Ġfran co
Ġhtt p
Ġprosecut ed
Ġluk aku
Ġperpetr ators
Ġecc les
warri or
Ġuncontr oll
Ġclife macon
l c
l ago
p uppet
s ays
t ail
Ġm oss
Ġb ap
us on
Ġc ed
Ġc atherine
Ġc ctv
Ġl leg
Ġy est
it iz
ot ion
Ġon s
Ġre becca
ld r
Ġse uss
Ġpr izes
ist ed
ag irl
Ġget overit
Ġle igh
Ġun sc
Ġcon ver
Ġtime for
ob o
Ġcr ock
Ġar ist
Ġsc old
sh ut
Ġworld peace
Ġph oned
ens ed
Ġlong beach
Ġcar penter
Ġsin ister
Ġjob less
Ġcomp osed
Ġcomm od
man i
Ġrest s
Ġsw all
min ute
Ġq t
Ġcolle ges
Ġden igr
cle aning
girl friend
Ġbattle field
Ġqual ifying
Ġspl ash
Ġapproach es
Ġcell phone
Ġvolunte ering
Ġsty list
Ġiq bal
Ġtuck ed
lu v
Ġcounsel or
Ġearthqu akes
Ġmsd honi
wit ness
Ġhips ter
Ġembar assing
gener ation
Ġgit mo
Ġwaff le
Ġdismant le
Ġcapit ol
ofd uty
Ġinade quate
Ġsatell ite
Ġvitri ol
Ġharveywe instein
Ġinsignific ant
g ence
h ir
l t
p in
s in
w x
z ar
z ero
Ġh uff
at rump
Ġto ot
Ġo vr
ac io
Ġst ove
Ġr ien
Ġj ava
Ġlo athe
Ġse per
st arter
Ġv ed
Ġout number
Ġam end
ab ar
Ġex orcist
Ġpl ur
Ġte lev
Ġgod father
the ast
Ġover paid
Ġoth r
Ġro hit
oss ier
of theyear
of alifetime
pr iced
Ġend ings
Ġmor mon
br ose
Ġrec ount
Ġev icted
Ġexc ru
Ġz u
Ġmar a
Ġsw am
Ġfact ual
Ġred und
happ ens
Ġya ar
Ġmark ing
ops y
Ġliter ary
Ġjud icial
with it
Ġ24 0
uk i
Ġcard board
nes ia
sc ott
Ġbank holiday
Ġgym life
Ġcam per
Ġobv s
Ġ1285 16
bu h
jesus christ
Ġtrad itions
Ġhurric an
Ġmax well
Ġcomey hearing
terror attack
Ġchem icals
rain ing
cre ate
Ġphd life
Ġfred die
Ġphoenix rally
Ġjeremy corbyn
Ġdegr ade
Ġnostal gic
Ġevangel ical
Ġdeploy ed
Ġfreel ance
Ġobe ying
sud den
Ġdemonet isation
Ġlabe lled
Ġzel da
Ġthankyout aker
Ġpedic ure
Ġbluet ooth
Ġexcru ciating
b lo
b red
g ap
q qa
w ift
Ġa am
Ġf aded
as ers
Ġre do
Ġfor fe
ad vert
Ġr asp
id ol
Ġk um
un ci
il o
ul um
Ġun wa
Ġday time
Ġcom et
Ġbr i
Ġsp ying
Ġcr pf
Ġim ho
Ġar ises
og ic
Ġad idas
Ġsm th
per form
Ġspe wed
au ce
Ġbu c
Ġ12 6
Ġear phones
Ġgetting old
Ġsl ides
Ġsur ger
Ġboy sc
Ġpass age
Ġque ues
Ġmill s
Ġcomplet ing
your life
de ck
Ġhol a
Ġcommun al
Ġ18 00
Ġequ ity
Ġcase y
19 89
Ġrap es
Ġko ch
ole ad
Ġvac a
Ġmel ody
Ġbat on
Ġjam mu
Ġspoil s
Ġheat wave
inter view
Ġnick name
Ġsel dom
Ġvalid ate
blog gers
Ġhopeless ness
cre ep
Ġrevolution ary
Ġdemonstr ated
Ġelev ated
cour age
Ġfart ed
Ġconce pts
mons ter
Ġfib re
Ġdismiss ed
sleep ing
Ġrelative ly
Ġreds kins
uy ah
Ġvegg ies
Ġware house
democr ats
Ġimace leb
Ġferr ari
Ġknack ered
Ġputinsp uppet
b ard
d othis
k ap
p es
t ick
t ree
Ġa ah
Ġi phones
on my
Ġm ow
Ġh ir
Ġthe worst
Ġd ine
Ġd aring
Ġl or
Ġl orry
Ġp im
Ġn ets
Ġg love
Ġan gr
is ers
is not
ay ed
ow ars
th ate
Ġst agger
Ġk arn
Ġme er
Ġse wer
if ier
if fs
ep lan
we e
Ġcl o
Ġover think
oc ation
Ġho over
Ġ12 1
Ġhum bling
me ans
Ġsl ang
Ġstay positive
Ġmar cel
Ġwrong ly
Ġhouse work
Ġenough isenough
Ġap oll
Ġcur ly
Ġdad life
Ġred uction
Ġra ha
Ġmad man
Ġdisapp ears
Ġnet any
Ġer m
Ġmonday motiv
Ġcanc ers
Ġlog ging
gl ob
Ġgas p
Ġunc les
Ġcro hn
Ġsle azy
Ġroy moore
Ġfle eting
ibr an
horr ible
Ġshel ves
Ġsher man
Ġperpet ual
thel ord
Ġinstall ation
rt g
occ up
Ġnig el
Ġinterpret ation
Ġamarn ath
Ġnavig ate
Ġintrig ued
Ġnev ada
Ġrerun s
proc ess
Ġinfuri ating
Ġparsons green
Ġtayl ors
Ġfoodfor thought
f us
r ates
Ġt ic
Ġt arn
on te
Ġthe truth
Ġc j
at urday
an igans
Ġl le
Ġl ut
Ġl ana
Ġl ala
Ġg ast
Ġg ah
Ġan archy
Ġe ject
Ġk os
um sy
Ġde x
Ġno c
Ġor i
ig ation
Ġun defeated
Ġgr izz
Ġsp arks
Ġqu etta
own er
ide as
to god
Ġad oration
Ġbo ats
Ġpart ly
Ġpres ale
Ġsin ful
ro lling
Ġdef iant
Ġsk int
no ve
Ġap ni
Ġmot d
Ġra ider
Ġca esar
Ġsol itude
ives matter
Ġfly er
Ġfly ers
Ġwind shield
Ġdefin ing
Ġappreci ative
Ġgrand ad
Ġhero ic
Ġtroub ling
ape ut
bab e
ov ic
remember ing
Ġtwist ing
Ġdomin os
Ġdownload ing
Ġvirt ues
Ġlah at
Ġspam ming
Ġscratch ing
Ġhindu ism
Ġanaly ze
Ġacqu ire
Ġnad ie
Ġturk u
Ġwank er
Ġpriest s
Ġendors ing
Ġinterrup ting
Ġspout ing
Ġfluff y
Ġabys s
Ġsire ns
hash t
Ġautoc orrect
Ġmgm t
Ġgujar at
belle w
Ġswitzer land
d ress
h ire
h ugs
i w
k it
r ough
Ġa zz
Ġw ich
Ġh ary
Ġp iy
es ign
Ġn ous
ll ess
ar ri
am en
ut ches
gh y
Ġgo s
im ma
Ġcan ned
ak k
Ġab iding
Ġget well
Ġwill ie
Ġun patriotic
ound ed
Ġnight ly
Ġspe lls
pr ops
Ġfuck it
Ġho h
au er
Ġhard y
Ġ12 3
ra j
Ġlol z
Ġye e
Ġdont giveup
Ġje well
Ġnice attack
je ff
Ġsal mon
Ġdead liest
Ġste er
Ġint ake
off icial
Ġdisc iple
Ġwest la
Ġtext book
ell ie
Ġskin care
fit ness
esh it
esh ire
Ġbeha ved
Ġpun ct
Ġdevelop ers
Ġuni qu
Ġbon fire
mat thew
else a
Ġsuit able
Ġnove lla
Ġkl an
Ġcs r
Ġegypt ian
Ġparticip ants
Ġwhit epr
Ġphr ases
Ġstrip es
Ġconfront ed
Ġsurf ing
Ġfundra ising
Ġcompe lling
Ġoverd ose
Ġrou ge
Ġsut ton
Ġsobr iety
accident ally
Ġstereotyp es
Ġoverfl owing
Ġemir ates
deter mination
Ġcontempor ary
Ġtsun ami
Ġportfol io
Ġshamp oo
= >
b om
b eth
c aught
r iver
r ush
r ising
r ays
on it
Ġm ails
Ġm itb
Ġh amp
Ġthe ex
Ġc ory
Ġc ds
or er
Ġg ma
om ore
Ġis this
Ġst ares
od d
un o
Ġus s
ap on
Ġcl ause
Ġim done
Ġmu th
Ġthr iving
Ġfl icks
Ġnight shift
Ġspe cials
pr ice
Ġrem ed
Ġtell in
Ġdes cent
Ġtweet ers
Ġpro hib
me up
me alone
Ġev r
Ġtwitter s
fr i
Ġcle ars
Ġopen ness
Ġsw iss
olog ists
mer cy
ng ood
Ġmid field
god s
Ġav fc
Ġdet ained
Ġhol mes
10 3
Ġquestion able
Ġther apeut
Ġcat ast
right eous
Ġwalking dead
ga ard
Ġaud it
Ġrh ym
Ġfindom me
Ġwarm ong
Ġinfl ammation
Ġjul iet
Ġbeach es
Ġsoft ly
Ġbelong ing
Ġmos cow
Ġdish washer
Ġcritic ise
Ġsle eves
Ġearn ings
Ġtap i
Ġmand y
Ġjay e
Ġnep hews
Ġsustain able
path etic
Ġgigg le
Ġwol ver
quis ite
rij ding
Ġtard e
epl us
Ġpione er
Ġtryn na
Ġcybers ecurity
Ġmetall ica
Ġpenns ylvania
g ies
g ots
h os
v ic
w olves
Ġt aps
Ġs age
Ġm ister
Ġh ots
Ġc ette
Ġg ator
Ġst amps
Ġst umbled
Ġr ino
Ġr oku
Ġj um
Ġj ord
Ġsh ifting
Ġwe bc
est on
our ce
Ġ2 30
Ġam c
se mit
se ller
Ġhas il
Ġco hen
he al
Ġbo oster
li hood
ict ive
br inging
Ġkill ary
Ġass ange
Ġinst ance
Ġimp osed
Ġdem onic
co al
Ġcons ens
Ġma ur
work out
Ġfut ile
Ġhot ter
mas ters
Ġmer cedes
Ġest ou
Ġpu ede
dr ink
Ġcam illa
Ġhun ters
enn on
Ġglobal ist
Ġmos ul
mad rid
Ġrecommend ation
Ġdomin ion
fly ing
Ġcere br
Ġmagaz ines
Ġpedoph ilia
rec ogn
Ġadvis ors
Ġhorn s
cond ition
Ġpud ding
Ġcarn age
Ġpom p
Ġsag as
champion ship
Ġdeact ivate
Ġlefto ver
Ġnf ldraft
Ġaub urn
Ġamig os
return s
Ġecst atic
Ġsweetpsalm ists
Ġgrif ter
Ġpse udo
Ġpne um
norm ally
Ġconfid encet
Ġcriter ia
wester n
j t
o it
p el
Ġt ink
Ġs ont
Ġto s
Ġyou suck
it rump
Ġwh er
Ġu it
Ġr ol
Ġk ir
Ġtr ashing
ur ers
Ġall in
Ġus ps
Ġus poli
Ġlike wise
Ġlove trump
ab reak
Ġhow s
Ġgr imm
ud er
Ġco el
ha ul
Ġbel ittle
act ly
ang p
Ġph arrell
Ġmon te
Ġpol o
Ġpay roll
Ġsl s
Ġment ors
Ġpower ed
fl u
Ġsy ll
olog ne
cr icket
Ġrub io
Ġsho ving
Ġbaby girl
Ġchang er
de en
Ġdev oid
Ġhop kins
Ġfootball ers
who a
Ġprotect ive
Ġjack ets
Ġlets play
Ġphys i
Ġsan ction
Ġdig its
bu ying
fuck in
Ġtechn ician
Ġisrael is
Ġenv ious
fil es
Ġglobal warming
Ġhug ely
rench ed
mark eting
leg ends
Ġsne aking
Ġtend s
Ġpreach ers
Ġinit ially
iy ay
Ġtank s
Ġtooth ache
Ġbor ough
Ġimpl ies
hero es
Ġpuert oric
Ġsymbol s
comm unity
Ġcraz iest
Ġportray ed
Ġgab by
estr ian
Ġprol ong
Ġrefr ain
coun cil
Ġcruc ified
iast es
Ġcollaps ed
answ ered
Ġgork a
Ġaccompan ied
omani ac
Ġphenomen on
Ġsurger ies
b illion
c p
d et
g el
i ou
l ists
y ep
Ġs well
Ġi cing
Ġf oss
Ġthe flash
Ġl ago
Ġp ab
Ġit na
id dle
Ġk ale
Ġhe ap
Ġch os
un ny
Ġde j
Ġno k
Ġle kki
Ġfo h
Ġsp awn
Ġcl umsy
og ical
Ġad on
Ġstr at
Ġstr oll
Ġword press
ash o
br ien
Ġmar gar
Ġtom brady
av ings
Ġpeace ofmind
Ġref lex
Ġdem ain
Ġgen res
air ways
Ġart istic
Ġexp ed
Ġcut ler
Ġtraff icking
Ġmis use
Ġsave aca
Ġshut tle
Ġkey note
bre xit
Ġeduc ators
izz le
Ġ1285 36
Ġcast ro
Ġlink ing
Ġpal in
Ġnegative ly
Ġconnect s
tle ft
Ġbrilliant ly
walk er
Ġspoil ing
Ġber k
Ġapril fools
Ġblast s
Ġsepar at
Ġprayfor manchester
Ġenvironment al
acc ord
Ġbot ox
Ġtn f
Ġtwin peaks
Ġgust a
pur pose
Ġlovemy job
din ner
Ġsacrific ing
Ġholly oaks
Ġrab id
Ġcleans ing
Ġlefto vers
Ġswan sea
Ġhul k
Ġhuck abee
Ġnotor ious
Ġsumm ertime
Ġinterf ere
redeem able
Ġphiland ocast
Ġnetany ahu
Ġconfidencet olead
m ie
o oh
t ub
Ġt ina
Ġt ipping
Ġs ine
Ġc ait
or g
Ġd uff
en as
Ġy ak
ar me
Ġin hale
as is
Ġe fc
op athy
Ġhe ir
Ġtr ousers
Ġfr at
ag ent
Ġ: <
Ġal on
Ġkn ob
Ġkn itting
Ġoff shoot
Ġen uff
Ġmo o
he ed
Ġ10 7
ens on
Ġgl oss
not es
Ġz bc
Ġbless es
Ġx l
Ġclass act
Ġcons p
ier d
Ġfound ing
Ġq s
Ġang uish
Ġsum mary
Ġmotiv ates
Ġdet est
Ġcoun c
Ġmer a
Ġemail ing
Ġclean up
had r
bre aks
Ġmc master
Ġgh ar
Ġ1285 15
val ue
Ġbomb ings
Ġpal ms
president ever
fil ter
Ġregret ting
Ġars ed
Ġtm obile
abs olute
Ġmicr ophone
Ġjihad is
Ġunivers ities
Ġhob bies
Ġdishon esty
Ġadvoc ating
Ġlect ures
Ġnl p
Ġbru ins
tos chool
Ġucl a
Ġwhisper ed
Ġreserv ations
Ġpud dle
fel d
Ġbabys itting
Ġantid ote
Ġrecon nect
Ġbeng ali
Ġblo ated
Ġindustr ial
Ġrhe um
relig ion
Ġcolleg elife
Ġineffect ive
Ġungod ly
f asc
l ia
r ous
s wear
u ah
x ip
Ø §
Ġt ainted
er te
Ġb im
Ġd ortmund
Ġp orts
Ġn apping
Ġan ointing
Ġin action
Ġof c
Ġwh omever
Ġbe am
Ġit ching
id it
Ġmy side
im ir
op per
Ġk ut
Ġwith dr
pp in
ore au
Ġal arming
Ġwill ow
Ġun iting
Ġun mas
Ġbr akes
Ġgr ants
the game
the birds
Ġdr ought
Ġmu llah
og p
Ġpart ially
Ġinter section
Ġsl ate
Ġlot ion
Ġsun der
Ġz oe
Ġmar ilyn
Ġrespect fully
ik o
Ġ11 2
do ll
ene y
Ġsuper girl
Ġsign ings
Ġer in
Ġmod eling
Ġflight ofalifetime
Ġaut op
201 4
vi ya
Ġgrad ually
Ġelect ing
Ġpizz agate
Ġdefe ating
Ġped o
Ġtrad ers
Ġwo op
Ġnap oleon
Ġinf owars
ograph ic
Ġadvert ised
Ġtab lo
Ġpool s
then ats
Ġacknowledge ment
Ġbrav est
Ġlam ar
Ġbare foot
dev os
Ġdl c
Ġpean uts
Ġwhisper ing
Ġump ires
fund ing
Ġwasteof money
Ġincons istent
Ġdefect ive
Ġassa ults
Ġrey nolds
Ġretali ation
Ġiback thenats
Ġemphas is
Ġantidepress ants
jri wal
Ġpigg ies
a fr
b uck
n ia
o os
o fe
s cience
t oth
x s
y ton
Ġ xt
Ġi cons
Ġf ades
at y
Ġp ang
Ġk od
ore l
Ġv uel
fe bruary
Ġno bel
Ġam nesia
ul se
art a
Ġun true
Ġby u
Ġtime out
Ġfa is
Ġover look
ne ut
iss ions
Ġfl attered
oc ent
of you
Ġfun fact
Ġhard ware
Ġ12 00
Ġob esity
Ġdel ights
Ġac ne
vel ope
Ġhell uva
Ġsw fc
Ġnor walk
Ġsim one
Ġhold on
Ġfall on
ald e
Ġbill board
Ġclear ance
Ġrain bows
Ġny g
Ġ14 4
Ġrob e
Ġemb od
Ġak f
Ġwest brook
Ġlock ing
Ġsell ers
Ġba ah
Ġfur ry
belie vable
Ġgrowing up
oul ter
Ġiv y
Ġmt p
Ġsix th
Ġdy nasty
Ġannounce ments
Ġos soff
Ġcontrib uted
eng lish
ĠâĢ ľ
road s
Ġbun s
Ġremo ves
Ġsher lock
cre en
cre ation
Ġexpert ise
Ġbiafr an
Ġinsight ful
Ġoccup ation
Ġintimid ate
Ġvik as
Ġflex ible
Ġyt d
Ġphill ies
hun ters
past or
Ġapprox imately
Ġapost le
Ġabsor bed
tit les
Ġevalu ation
repe al
Ġoccas ional
Ġhale y
Ġdiscern ment
Ġalum ni
Ġblasph emy
Ġweas el
Ġhaf iz
Ġzbc zone
a friend
d ates
g om
n ak
o ves
u an
u fc
v il
Ġa haha
on gh
Ġm ths
Ġc ain
Ġc tr
Ġc ement
at u
Ġto pp
Ġg ears
Ġg ala
Ġan arch
is iveness
Ġwh aat
le aks
Ġr j
Ġr ump
Ġk ed
Ġlo oting
Ġcan e
Ġno class
Ġam bani
Ġal tleft
Ġle verage
Ġle pen
Ġun w
Ġun loved
Ġex empl
Ġpl a
ob y
Ġfo is
Ġsa ppy
ass ault
Ġdr ipping
Ġke ll
Ġbel ts
Ġmon aco
Ġur d
Ġur gh
Ġper m
Ġins ider
Ġmed itating
ash i
Ġsin us
Ġkill menow
app e
Ġcry in
cr ash
Ġpar c
Ġsal aries
Ġra ids
com edy
Ġbeg ged
Ġstupid est
Ġya ad
Ġrain ed
Ġmis placed
Ġneg atives
Ġbi ological
Ġconv ictions
Ġjack ed
Ġcrit ique
Ġcolor ful
Ġars ene
Ġflash backs
Ġconfl icted
Ġwitch es
vis it
Ġjihad ists
Ġhardwork paysoff
Ġconduct ed
Ġspark ling
Ġanaly tics
Ġlength s
rat ri
Ġlb j
Ġasp iring
Ġnie u
Ġlands cape
Ġâĺ º
Ġindic ator
vict ory
Ġjub ilee
Ġagn st
Ġrepet itive
exper i
Ġtob acco
Ġconcuss ion
Ġpoore st
olymp ics
Ġnebr aska
Ġtaylors wift
i and
l g
o ad
x mas
Ġs ene
Ġw eneed
Ġb ount
Ġc ucks
Ġd ummies
es ham
Ġn oses
Ġg pa
Ġbe a
ke vin
Ġha g
Ġme c
Ġnot okay
Ġso c
Ġch ow
od el
Ġwhat happened
Ġab it
Ġab st
Ġdon or
ink a
Ġnew t
Ġfo lly
Ġgr ape
Ġsc our
Ġser a
Ġmon uments
int ell
Ġper il
Ġrel ive
Ġbre eding
Ġpro jection
Ġcont acting
Ġtom petty
cept ive
Ġsn itch
Ġgen etic
Ġdep ot
Ġgre ase
fo ll
Ġstuff s
Ġball et
fort e
Ġmic ha
str ump
Ġcat aly
Ġgold berg
Ġapolog ist
Ġlon zo
Ġhealthcare bill
Ġeurope ans
Ġble eds
Ġspin al
Ġwal ang
imp act
des erve
Ġil k
Ġire v
Ġhaw ai
Ġsack ing
dream t
Ġbust ing
eph esians
Ġmaintain ing
Ġawait ed
Ġfer ry
thep rocess
Ġtd f
Ġpy ram
Ġcb ngood
Ġsequ ence
Ġist an
Ġaddict ive
Ġconsult ant
Ġbachelor inparadise
Ġcau cas
Ġue fa
Ġnach os
vell ous
Ġpind ick
Ġrebell ion
Ġtrus thim
Ġistand with
goog le
Ġmers al
Ġstero ids
Ġflore nce
Ġcatast rophe
Ġcbngood news
d al
e con
f le
k han
l ack
o es
o ops
p oke
t re
t ober
w ad
z ep
in nat
Ġw ba
Ġh ints
Ġc ologne
it ations
ar l
ay ing
le o
le bron
Ġon ward
Ġst pat
Ġk ami
Ġtr ill
Ġdo ve
Ġare you
od s
Ġall elu
Ġse als
st rength
Ġget away
we bs
Ġcr ab
Ġcr ude
Ġgot o
Ġsc ree
Ġreal isation
he ights
li ance
Ġcar ly
Ġrel apse
Ġsad dens
Ġacc uses
Ġear l
Ġmat thews
Ġcomp uls
ra f
Ġfar age
ins piration
Ġret ires
Ġsou lless
Ġblack ish
Ġet her
Ġir respective
Ġbar bie
Ġmer r
Ġmur doch
Ġak shay
Ġlas er
Ġimm unity
Ġpract ise
Ġconsider ate
Ġrul er
Ġgrad school
Ġscreen shots
Ġcompet itors
kn ock
Ġentertain er
Ġlg m
Ġtexas church
Ġcheap est
Ġident ical
Ġol ig
bb mas
Ġdiss ent
Ġplant ing
Ġodd ly
Ġcraw led
Ġbak ery
iat ric
Ġcbb uk
Ġfee ble
Ġskill ed
Ġtall er
sing h
gun s
Ġbarbar a
Ġmorr ison
mart in
oct r
breat h
Ġobtain ed
Ġatroc ity
Ġneon azis
Ġadul thood
Ġmakeameric agreatagain
Ġshen anigans
thom as
Ġpneum onia
b asket
c ro
d ry
d ose
e asy
u age
v ia
x l
z omb
Ġs assy
Ġf en
Ġd f
Ġd ork
en i
is rael
Ġit z
Ġst ur
am ar
am as
Ġgo ed
Ġk ai
Ġtr ix
Ġfr oze
ak ens
Ġal together
Ġle aker
art ed
Ġcom ms
Ġnow watching
Ġnow orries
Ġman a
Ġher nandez
Ġtrump ster
Ġres ide
Ġcould a
be ha
of them
Ġend or
Ġper verted
Ġho lla
gr aph
Ġpro x
Ġlot to
Ġev iction
Ġlol olol
Ġimp ose
ma an
Ġref lected
ik ka
Ġed gar
Ġinv inc
Ġset hr
Ġwhole hearted
Ġside ways
Ġpolice man
Ġdi ya
play ers
Ġcost ly
Ġsouth ampton
Ġcast s
pol icy
Ġbal och
real izing
Ġka abil
Ġprem ise
Ġble ak
Ġdj s
uh h
ipe g
Ġfu eling
cor rect
Ġiraq i
Ġesc uch
pat ience
Ġbrief ly
Ġcann on
reh ensible
Ġsignific antly
Ġaust erity
rend an
Ġiq rtg
Ġappe als
Ġry t
Ġalign ment
Ġmerch and
las vegas
Ġveg ans
Ġkink y
Ġbeng als
Ġindustr ies
Ġiback thebirds
flo or
Ġjoh ann
Ġdysfunction al
Ġinsid ious
Ġwordsof wisdom
Ġwebc am
e xt
f et
h orse
n r
n og
t ill
in ent
Ġh ams
Ġf ouls
Ġl er
Ġp ups
Ġg ian
Ġg ibran
Ġyou know
it ian
is se
as an
Ġfor ming
Ġst ained
Ġst agn
el i
Ġha bl
Ġsh aft
Ġhe idi
Ġch ak
ur ous
Ġfr action
Ġv ows
Ġpe ck
Ġlike for
Ġkn ots
Ġun pack
Ġun wind
Ġun prepared
Ġcom er
Ġhow ling
are l
Ġag grav
the way
Ġover t
Ġover head
Ġover weight
Ġsm ok
for um
for give
Ġbu ena
Ġind oor
Ġel ena
Ġrec ieved
ra iser
Ġent ries
Ġep i
Ġap i
olog ically
Ġmid west
Ġbb n
Ġcontin ent
let ting
Ġge o
Ġdisc ord
Ġest imate
oo ge
Ġstrength ened
Ġappreci ates
Ġdoor step
su icide
Ġdat ab
Ġpersonal ities
Ġprocess es
Ġcreep ed
Ġdesign ers
Ġsaf ar
Ġmult icult
hold ers
Ġven ues
put in
power ful
Ġgi uliani
Ġ199 2
Ġveterans day
Ġelimin ation
ru ined
Ġbff s
Ġpard oned
Ġsmack ed
Ġdos omething
mil itary
Ġsteven s
Ġauss ies
Ġinev it
Ġmultip ly
Ġabd uct
Ġcott age
Ġaan rijding
Ġabsor b
tex as
Ġvel vet
Ġexplod ing
Ġworsh ipping
pod cast
Ġhaye bellew
Ġbethe change
Ġperp lex
epis ode
upun cture
Ġunwa vering
Ġcerebr al
Ġistan bul
a am
c aps
c arter
f icial
f ields
i ates
m oh
m iles
p ump
v gl
Ġ ers
Ġa ide
Ġth ts
Ġth oreau
Ġw ider
Ġw ether
Ġm itt
Ġb st
Ġb ert
Ġh itter
at ile
Ġp av
Ġn ur
Ġo ste
Ġbe ech
Ġfor ty
th etime
Ġj umm
ith appen
Ġtr ot
Ġch ed
Ġno excuses
Ġor t
Ġle isure
Ġte k
Ġnow ay
Ġbr aces
Ġany how
Ġag r
pl ans
Ġcr umbling
own ed
sh aring
Ġbet ty
Ġpre teen
Ġstr ife
oc on
ft y
for this
Ġthing y
Ġcar bs
Ġrep rehensible
Ġche z
Ġkid dos
Ġaw oke
Ġmind ing
Ġcount ies
Ġmat rix
Ġrec ons
Ġgiv in
Ġcont ained
app a
Ġbless up
ik ed
Ġprom os
Ġleave mealone
Ġfore most
Ġson o
Ġfac ulty
Ġexpl icit
Ġcant stop
Ġstress es
Ġwater mel
Ġwed s
Ġdiv id
gu est
Ġresist ing
Ġgrateful ness
jo on
Ġland slide
Ġsuffer ings
Ġbrand ed
Ġport al
Ġnom inate
Ġpas a
Ġlim iting
Ġri pe
Ġtab oo
Ġdisp ens
Ġfruit fulness
conf used
Ġrent ed
hy dr
Ġmorn in
Ġmanifest o
Ġbrush ed
Ġbrad ford
curren cy
Ġnegoti ations
rec ently
Ġbron x
Ġrestr ictions
Ġdetail ed
arth ur
Ġzion ist
Ġchir ping
Ġexhib ition
base ball
Ġpopp in
Ġdeact ivated
prog ress
bust ers
obed ience
Ġhep burn
Ġgrud ges
Ġcolomb ia
typ ical
Ġlobs ter
nove mber
Ġallelu ia
Ġsethr ich
h ers
y on
Ġt ails
in ha
Ġw ret
Ġm ou
us et
Ġc bo
or ld
Ġd ome
Ġd pr
Ġl ance
Ġg ory
is ance
Ġwh ol
Ġre z
Ġu conn
th i
th eless
Ġr ails
Ġr bi
os oon
ch ic
Ġnot ified
Ġcan ucks
Ġcan vas
st v
Ġpr ints
Ġv ans
ak an
Ġget me
Ġal icia
se ed
Ġle ah
Ġsp h
Ġcr ing
Ġover priced
Ġur ges
int ech
Ġfam ine
au th
Ġmor gen
man ia
Ġmar ian
Ġbook er
Ġimp oss
Ġwar mer
Ġ11 3
Ġsw t
Ġbed ding
Ġequ ate
upt ion
sc ary
Ġ1285 61
Ġchill i
Ġgay e
Ġpod er
Ġprev ails
ther esa
Ġpic nic
ifi able
Ġhost el
Ġprem ature
Ġhun ted
Ġped i
Ġtrumps america
Ġheavy weight
Ġhal ifax
Ġflor id
Ġtay o
Ġbond ing
person al
rob lem
fre ak
Ġdemonstr ates
Ġbru ises
Ġfold ed
tos leep
Ġveget ables
Ġnie ces
Ġsot ired
Ġharr ison
Ġmanufact uring
Ġmanufact ured
Ġpund it
Ġprospect s
Ġintrig uing
Ġhijack ed
Ġkt bff
Ġunpresident ial
Ġvive gam
onge val
Ġindict ment
Ġconj uring
Ġcomplac ent
Ġmund ane
Ġkrish na
Ġadela ide
Ġasper gers
Ġimmens ely
Ġlovetrump shate
Ġktbff h
n oth
p esa
in it
Ġs iss
Ġs ierra
Ġi y
at ures
or ah
Ġd ts
Ġto en
Ġl hh
ll b
it us
ch arm
Ġtr ag
Ġdo h
Ġse mpre
Ġv v
Ġout line
Ġam brose
ard y
ry s
ost ic
Ġgr iff
Ġoff ends
uck ed
Ġar mp
Ġsc ra
Ġpre ference
of o
Ġsupp ression
Ġmin aj
Ġpower of
Ġfree zes
fl owers
Ġhuman e
att itude
Ġconf u
oub ted
mer ry
Ġstud ios
Ġconc eded
Ġjour no
aged don
Ġdi aries
Ġtrave ler
Ġdisappoint ments
Ġsnap chats
Ġver ification
Ġknowing ly
after noon
Ġbow ing
vi ille
Ġorgan isations
great est
Ġsan it
Ġbright est
Ġcommer ce
Ġsched ules
Ġsched uling
Ġexam ine
Ġspec ulation
Ġmcc ann
Ġcheer leader
Ġcomey day
Ġtab s
Ġgang ster
Ġlapt ops
Ġglor ia
lay er
Ġic u
Ġbol ton
mod i
Ġtum or
Ġwt d
Ġaccur acy
Ġouts ider
Ġexplo ited
Ġsv u
Ġspice y
attr active
Ġsneez ed
Ġsail ors
bott om
Ġpeg gy
Ġperpetr ator
disgust ed
Ġhend erson
Ġalber ta
ricks day
Ġcharlottes viille
dece mber
Ġinaccur ate
2 17
d ent
j p
v ana
w ants
Ġ ã
Ġt ds
Ġth res
Ġm ing
Ġh ilton
Ġf ob
Ġc es
or ient
Ġl r
Ġy ates
Ġn sw
Ġg ak
Ġo ch
is o
le en
im prove
op ic
Ġwe eds
all star
Ġtr ang
Ġlo af
Ġday dream
Ġpl um
Ġman ila
we aring
Ġsa al
Ġcr am
Ġim sorry
Ġher b
ish ere
Ġover came
Ġthr ives
Ġbig fan
Ġbad m
pr oper
Ġper th
Ġmus k
Ġcare y
Ġrun away
Ġcomm uter
Ġac ute
Ġsn atched
Ġps u
Ġrub bed
Ġlight en
Ġhot line
Ġ> .
Ġer ased
Ġjour neys
Ġbuild ers
Ġ13 9
Ġresist trump
Ġhi j
Ġhom age
Ġprayers for
Ġdom ino
motiv ated
Ġoper ator
pay ing
Ġwid ows
Ġhuh u
Ġedit ors
pass ed
Ġactress es
Ġtoss ing
Ġhallel uyah
Ġtoy ota
Ġcarol ine
Ġtimet able
Ġmanipul ating
mong ering
Ġfairy tale
Ġdepr ived
sal ute
Ġwand ering
Ġparam ount
Ġreconc iliation
Ġalgorith m
nem outh
Ġchub by
Ġpere z
disc ip
Ġoffshoot books
innat i
Ġmulticult ural
c ases
j ess
l ose
r iz
y u
Ġm ab
or ange
Ġd oth
Ġd ubs
Ġl bc
Ġp buh
Ġy anks
Ġo viya
ed ays
om es
Ġon eplus
Ġu ter
Ġch uffed
Ġbut cher
Ġthis morning
Ġpr icks
Ġpr isons
un believable
Ġwhat ajoke
Ġkn ox
Ġpl ugged
Ġte ary
Ġman up
Ġco vent
Ġmo h
Ġmo fo
Ġpo ets
he aling
Ġro aring
[...]
