#version: 0.2 - Trained by `huggingface/tokenizers`
l a
Ġ k
o n
Ġ la
Ġ e
t a
Ġ p
Ġ d
o j
a n
i s
a j
e r
Ġd e
Ġ s
e n
i n
Ġ a
o r
Ġ m
l i
t i
a s
a r
Ġ n
t o
r e
Ġk aj
Ä Ŀ
r o
r i
Ġe s
t e
u n
Ä ī
Ġe n
Ġ v
Å Ń
Ġ f
r a
o m
l e
c i
Ġk i
ta s
l o
Ġa l
a m
Ġ t
a l
Ġ ti
Ġ Äī
t oj
d o
u r
Ġes tas
e l
k a
e s
i o
Ġn e
Ġ i
Ġ re
Ġ b
t is
Ġ in
Ġ h
Ġv i
Ġ K
Ġ L
d i
Ġ E
oj n
Ġk on
Ġp o
â Ģ
Å Ŀ
Ġm i
p er
Ġp or
ta j
k o
Ġ li
Ġ S
t er
u l
Ġ j
Ġ g
i g
Ġ (
u m
Ġ M
u j
Ġ an
Ġ o
Ġp ro
Ġ A
d a
Ġ 1
v i
Ġ ÄĿ
r an
Ġs e
Ġm al
Ġ P
u s
k s
ĠÄī i
Ġ l
aj n
d e
Ġk e
Ġp ri
v o
Ġk un
Ġp er
v as
Ġs i
p o
Ġ T
Ġe l
s t
Ä µ
k on
v a
i ta
e m
ĠL a
t u
Ġ ÅĿ
c o
in g
t on
Ġes tis
la n
r u
m o
per an
Ġ âĢ
Ġs u
d on
z i
Ġ N
Ġk om
p e
Ġa ÅŃ
ta n
Ġ B
Ġd i
Ġki u
Ġ 2
o s
la s
Ġp li
d u
Ġ D
l u
Ġ V
i a
ar o
Ġ I
Ġ te
i ÄĿ
Ġ un
a ÅŃ
c e
Ġki el
Ġin ter
g i
Ġe k
Ġp re
ka ÅŃ
Ġ ri
Ġ Ä
ĠE s
v e
r en
a ci
on i
Ġi li
t en
Ġun u
Ġ F
m a
L a
Ġn i
Ġ R
r is
e b
Ġti u
g o
t ra
i l
Ġa li
Ġf or
Ġ G
u z
e k
Ġse d
Ġs en
d is
Ġd is
ĠEs peran
k i
in o
Ġm on
ĠÄī e
Ġh a
m an
Ġ "
Ġ J
p on
o l
m i
f i
g a
Ġ c
v er
Ġ H
0 0
t r
p a
v is
ĠÄĿ i
ta ÅŃ
m e
Ġs ur
Ġ oni
Ġv er
. .
t ri
Ġf ar
Ġ U
Ġki uj
j o
f er
b o
Ġ1 9
n i
Ġk a
toj n
t ro
d oj
a la
di Äī
Ġ C
v en
m en
t or
Ġl ing
ÄĿ o
Ġp ar
Ġa p
Ġa r
p i
a Äµ
b le
e d
Ġ -
Ġ ta
Ġd u
le j
Ġp a
Ġan kaÅŃ
Ġ or
Ġla ÅŃ
Ġt ra
Ġ uz
Ġpo vas
on o
v an
l oj
Ġti o
s o
p ren
z o
Ġd a
k u
g an
ĠEsperan to
ci o
Ġn o
ĠM i
Ġp lej
Ġn om
b or
Ġt u
ĠV i
Ġn ur
ĠÄ Ī
a ta
Ġh om
d an
f or
Ġkon s
Ġm ul
a do
Ġj ar
Ġ lo
Ġ O
k aj
Ġ 3
Ġsu b
k ti
Ġb on
n o
Ġt ro
Ġm em
Ġek z
g is
) .
k e
b ro
ÄĿ is
ĠÅĿ i
l on
Ġd um
d en
k oj
er o
ĠL i
k to
Ġg ran
Ġ ra
la j
Ġ le
ĠE n
ar a
Ġpo st
Ġan taÅŃ
Ġre s
u b
r oj
er n
d as
âĢ Ŀ
Ġe ks
Ġm e
g ra
ul oj
ka z
g e
Ġm an
re s
b u
k ri
Ġm in
m p
k is
ver s
Ġm a
m on
Ġp l
r as
Ġv en
i lo
) ,
c h
ĠT i
Ġs am
c a
m es
r on
0 1
en i
eb las
kon diÄī
Ġt re
Ġa k
Ġla n
b er
Ġha vas
a b
c on
Ġn un
ĠÄīi uj
ig i
v oj
Ġ :
s ta
Ġes t
li o
en to
e j
Ġo kaz
st ru
Ġm o
p an
s i
aÄµ o
Ġ ur
Ġj am
Ġs ci
or o
Ġki am
Ġes peran
Ġs o
li k
r in
d aj
Ġo l
ÄĿ as
Ġs in
ĠN e
Ġe ble
Ġg ra
c es
ĠK om
ĠÄī ar
ĠâĢ Ķ
Ġ Â
Ġs ta
ľ i
Ġti uj
iÄĿ is
Ġd o
l in
Ġk o
ti ko
taj n
ĠâĢ ľ
Ġk u
Ġsi a
ĠA n
Ġla bor
Ġkon tra
r aj
Ġal don
ĠÄĿ is
Ġte m
p or
ti ta
Ġj e
k ta
ĠÄĿ in
te m
Ġling vo
.. .
Ġb e
p ar
Ġte ks
Ġk re
Ġv or
is to
Ġes ti
Ġkom en
g as
tri bu
z a
ĠI n
u lo
Ġv o
Ġs er
Ġ2 01
ĠK aj
t ur
v aj
Ġali aj
Ġm or
p u
Ġp en
h a
z e
Ġse k
Ġf a
ks i
p ro
Ġper mes
Ġk el
an te
am en
ï ¿
kri b
ï¿ ½
in a
Ġkontra ÅŃ
ĠÄīe f
z on
p re
Ġn eni
ĠK i
to s
k ci
Ġf i
an o
g ar
m oj
Ġkom un
Ġt ran
Ġpar to
k or
Ġt ri
s on
Ġp aro
Ġ [
Ġs pe
Ġjar oj
b a
um o
an oj
Ġf in
Ġti e
i te
Ġe Äī
a le
Ġti el
er man
an toj
Ġa m
an ta
Ġt er
n a
Ġpo s
t re
e jo
Äµ o
p en
Ġe le
u zi
Ġ2 00
e t
Ġ 4
v in
ĠS ed
Ġk or
g oj
t in
p le
Ġo f
Ġde ta
v on
ĠâĢ ĵ
aci a
Ġdis pon
Ġ W
Ġmi a
ĠS e
Ġkon diÄī
Ġsi an
b on
c en
Ġteks to
ĠÄīi u
Ġpl en
Ġ ro
Ä ¥
z en
is toj
k ul
c oj
lan do
Ġb a
Ġde vas
ĠKom un
Ġ Å
re a
ÄĿ i
l ing
ĠK on
Ġhom oj
Ġ ci
Ġmi li
Ġe b
Ġ 5
Ġin f
a li
Ġekz is
Ġm ar
v ar
E n
d io
da p
Ġp lu
ĠP o
ĠN i
ĠkondiÄī oj
i r
k as
Ġunu a
ÅŃ ro
Äµ oj
ĠÄ ľi
p l
Ġki un
Ġ Z
Ġh is
m in
tu ro
ÄĿ oj
gan i
ce p
Äī e
Ġki e
Ġ1 8
en er
Ġpermes ilo
k om
Ġin K
g u
Ġdeta loj
Ġa per
Ġtra du
ĠVi du
Ġd on
Ġs ig
i t
vo lu
h o
Ġi om
Ġ |
Ġur bo
Ġap lik
ig is
is mo
Ġp as
Ġmul taj
Ġdi vers
k an
S am
ĠÂ «
Ġti un
oj e
Ġli a
Ġki o
Ġp e
Ġl in
d er
p ri
Ġar tiko
ĠK rea
ĠKomun aÄµo
tribu ite
t ing
Ġn ia
ta ro
kondiÄī e
u d
ĠM ar
om o
Ġin for
Ġtran s
Ġgran da
Ġap ar
dap tita
Ġh el
e o
i er
Ġj un
Ġf on
Ġf ra
Ġaldon aj
ĠA tribuite
Sam kondiÄīe
kondiÄī ojn
Ġdispon eblas
ti o
Ġc er
ĠNe a
k te
Ġuz kondiÄīojn
g io
ĠNea daptita
Ġaplik eblas
Ġn a
Ġmal s
Ġtro vi
g on
Ġk an
Ġkom pren
ci a
Ġk la
p li
Ġj aro
ter n
Ġa fer
Ġj a
Ġ ce
e to
å Į
ç ¤
Ġan kor
ç¤ ¼
c is
åĮ ħ
Ġmon do
ç¤¼ åĮħ
Ġti on
âĢ ¦
ç¤¼åĮħ ç¤¼åĮħ
Ġtu te
n u
am i
Ġl ern
Ġpo v
s e
M i
ĠÄī u
Ä Ī
Ġdi ris
in i
Ġl on
ĠR e
1 9
Ġpo li
Ġin s
f a
ig o
Ġpos te
p oj
a d
or i
Ġf un
Ġm ala
e lo
Ġti am
Â »
Ġj u
Ġinter n
Ġi lin
Ġk ul
ÄĿ a
Ġv in
Ġri ce
Ġv oj
Ġl u
Ã ¡
f o
k la
Ġor gani
Ġta men
Ġp ub
h i
ti ka
Ġ ren
ĠâĢ ¢
ĠA l
Ġi u
ÄĿ on
âĢ Ķ
Ġbon e
Ġes tos
s er
iÄĿ as
u x
b i
Ġan g
Ġa ten
tem pe
er i
Ġres pon
Ġankor aÅŃ
Ġli ber
e co
Ġkel kaj
Ġf il
t p
Ġvi a
k ces
Ġri la
l is
Ġtem po
Ġs krib
Ġsu per
Ġali a
Ġno va
ĠÄīi r
r us
ĠÄĪ i
w a
ĠÅĿ an
Ġmul te
Ġde man
Ġd an
ĠM a
Ġ 6
tis toj
tor o
en o
u o
Ġparto pren
vo s
d ojn
g ran
Ġs a
Ġhis tor
Ġpro f
ĠÄīir kaÅŃ
Ġekz em
d in
Ġa d
Ġkon stru
Ġeks ter
Ġn or
ĠÄīi am
k am
h e
Ġof te
Ġekzis tas
Ġinter es
Ġlo ÄĿ
Ġi de
Ġk ri
an to
Ġsig ni
Ġtu ta
Ġspe ci
Ã ©
g ita
u ti
Ġm en
as k
i taj
b la
ig as
Ġpro gra
Ġlan do
Ġha vis
Ġv ar
Ġ raj
ĠÅĿ ta
i m
Ġre z
Ġp lan
Ġp ra
Ġpen s
Ġd aÅŃ
Ġs an
Ġpre s
uj o
Ġper son
z io
m is
Ġpro p
b e
t ran
" .
re so
b roj
s pe
ĠP or
Ġin di
m as
ĠF ran
Ġpre zen
Ġsu kces
la bor
va do
Ġre gis
Ġ ajn
Ġin stru
ti gi
in e
Äī o
k lu
Ġc en
f ek
E A
aci o
ĠP a
x i
Ġ Äµ
ig ita
Ġde ci
Ġ 7
g en
Ġg ru
Ġvo las
f oje
Ġk ro
ĠI li
Ġv ol
m ar
Ġpro ksi
te co
Ġri gar
Ġp i
" ,
v or
âĢ ľ
ĠE k
Ġo fi
a lo
i on
tr oj
an t
a t
e li
g res
Ġk va
g n
m aj
aÄµ oj
in ta
Ġ 8
Ġmal f
Ġsi aj
Ġk ol
Ġde v
Ġa ting
Ġvi vo
Ġka p
k ur
Ġn u
Ġpo po
Ġokaz is
b oj
k ojn
Ġfar i
Ġs ol
Ġs tu
ĠE ÅŃro
Ġpro du
Ġbe zon
s ono
is te
fer en
wa ve
ta do
Ġsi tu
Ġno v
Ġsu fi
m ul
ĠP ro
Ġg erman
Ġa mi
s en
Ġre gi
um en
Ġo b
on oj
Ġkons i
ĠA r
Ġ 9
Ġpl ur
Ġdivers aj
m ojn
z oj
Ġf ran
ĠM on
van kam
Ġren kon
Ġf o
Ġling voj
Ġk am
Ġo p
ala j
tu ra
u ro
Ġh o
Ġsi mp
k toj
ĠÄ ľ
Ġne ces
k ra
am a
iÄĿ o
ĠÄĪ u
ci oj
Ġt ur
p aro
an a
Ġ ï¿½
k ajn
ĠN o
ga do
ki pe
ĠT io
dan to
e c
Ġk ur
g reso
en a
Ġlan doj
ĠD io
Ġv es
z or
kci den
Ġde zi
Ġsigni f
u t
ĠâĢ ŀ
Ġku ti
l ojn
Ġra pi
a taj
ter a
t ru
p as
eb le
Ġ1 5
Ġki on
l or
on a
te jo
ĠS an
Ġen ha
ĠP ar
ĠK a
er e
n e
Ġg e
s a
. [
Ġkiuj n
ar e
Ġne k
i ero
E s
Ġm uzi
Ġpre ci
c ento
da ÅŃ
g aj
Ġ19 9
ita to
l er
ĠÅ ľ
ĠTi u
ka do
li gi
b r
Ġki es
ri o
Ġel don
ti on
Ġso ci
c aj
Ġk ar
Ġartiko lo
ĠM e
Ġk var
ĠU EA
eb la
Ġvi an
Ġfar is
Ġf lu
ĠÅĿ ajn
Ġsi mi
in io
ĠD o
ita n
Ġhom o
Ġorgani z
Ġ ru
Ġmal pli
es to
Ġv e
k t
Ġ1 0
vo l
roj ek
Ġnom o
Ġ Ã
ĠU nu
Ġest us
Ġla s
Ġ1 7
Ġpro pon
di ta
Ġpro ble
Ġf ami
Ġak cep
Ġf aci
ĠG erman
ĠD e
el oj
em bro
Ġbon a
ĠJ a
ĠS o
Ġsci as
Ġti a
Ġun i
ti tu
00 0
Äī i
ĠO ni
t ino
il oj
Ġt uj
Ġtu t
K O
Ġang la
Ġfun kci
ĠÄĿ ener
Ġe d
Ġpov us
al oj
ven o
ĠA ÅŃ
Ġg vi
ĠL e
Ġa b
K i
ĠJ o
Ġsi ajn
ĠM al
Ġmal gran
Ġpres kaÅŃ
ĠU ni
Ġra kon
min is
Ġele k
am o
Ġes pri
ks o
ĠT amen
Ġpre zi
di aÅŃ
Ġ Ġ
Ġkonsi der
an g
tr as
l en
Ġvi zi
Ġjar cento
Ġb il
u la
Ġor ig
ĠÄĿ us
ĠÄĿ ia
ĠPo st
âĢ Ļ
ko v
Ġsci en
Ġek de
Ġti es
Ġpo vis
Ġ uzi
ed er
Ġj en
Ġ to
w w
Ġekzem ple
ĠD um
tis to
ĠR o
T i
j ek
Ġk tp
men to
Ġb i
g x
Ġb lo
Ġ1 6
Ġko le
Ġ1 2
te s
Ġp rin
Ġde k
p is
Ġneni am
li ko
Ġv al
Ġb ata
Ġf ilo
Ġvi r
ter i
Ġf ru
Ġs iste
ç¤¼åĮħç¤¼åĮħ ç¤¼åĮħç¤¼åĮħ
Ġf er
Ġ2 0
c er
Ġt en
in oj
Ġe volu
Ġku ra
Ġa kti
pa b
c as
b ar
sta taÅŃ
Ġk res
Ġo ku
ri ta
Äµ ojn
v u
Ġn ask
Ġmon a
Ġtrovi ÄĿas
Ġf lan
Ġh ej
Ġp ren
Ġsub ten
ter o
Ġes tu
ci on
m ajn
Ġi m
Ġrez ul
Ġp ris
ĠÄĪ e
t h
pan io
t um
kon om
g us
ti ve
tan te
li ka
er oj
Ġ1 4
Ġti om
Ġp u
Ġuz as
ÅĿ i
Ġver e
ĠÅ ľi
de k
f ri
vi ta
ĠIn ter
ĠS a
an d
Ġesperan to
or oj
1 8
di a
ĠS i
s io
Ġs pi
Ġn aci
un o
Ġsam e
Ġ .
b ur
Ġdu a
z is
Ġ ,
ĠB a
Ġdis ku
ling va
Ġesperan tistoj
Ġ â
el on
Ġli bro
g es
Ã Ń
Ġop ini
in te
b aÅŃ
Ġk aÅŃ
Ġ uti
ĠD i
Ġp la
in taj
Ġapar ten
Ġs per
Ġ1 3
Ġpub lik
ĠJ es
ti k
Äī a
re k
Ġ /
KO KO
so cio
te g
iÄĿ i
Ġe vi
laj n
un a
um i
Ġintern acia
Ġp rojek
Ġsam a
an taj
or a
Ġd om
Ġdo k
Ġneni u
z aÅŃ
Ġmal fer
L i
ĠÄī io
Ġk vankam
f ar
âĢĿ .
Ġvor toj
ÅĿ o
Ġkomun umo
Ġpa tr
ĠE l
Ġdi f
d us
kipe dio
f on
1 0
amen ho
em o
Ġdi ras
en ta
Ġan stataÅŃ
ĠUni vers
Ġn in
Ġmalf aci
v io
is t
Ġde f
Ġam as
or d
Ġdis vol
ro s
1 2
c k
Ġ '
Ġk ara
Ġm aj
Ġvor to
Ġin klu
kis to
lo gio
ĠÄīiuj n
Ġili a
Ġling von
Ġkon du
a ÄĿ
Ġ rus
ĠU sono
ĠC h
Ã ³
Ġkon tro
Ġs tra
Ġd os
Ġes pl
v ojn
Ġfar e
ĠS u
Ġvi d
um e
no ve
k vi
li to
j a
Ġmo d
Ġvi la
Ġafer o
Ġse p
Ġven is
li ta
Ġrenkon ti
Ġk las
Ġs on
A n
k ton
m al
Ġl er
am e
Ġofi ci
Ġkon f
Ġkva zaÅŃ
ĠB o
Ġb o
ÄĪ i
Ġkomen cis
Ġm is
] .
Ġgra va
Ġaper is
ti gis
lo gi
Ġde nove
Ġeb las
ĠP er
âĢĿ ,
ĠL u
te ma
k ita
Ġa ran
Ġkla ri
in t
Ġta go
r un
Ġpoli ti
ti taj
Ġgran d
Ġ19 8
Ġre g
Ġla sta
Ġmem or
ris to
Ġ us
peran to
er a
Ġe konom
lo s
le ks
g ojn
es tro
Ġka pab
al is
ko s
Ġpa tro
ĠKi am
ĠM o
f lu
ĠEsperan ton
Ġlabor o
ti lo
Ġes per
e le
Ġlo ko
Ġre da
ti va
Ġmi an
Ġri mar
Ġmal bon
ĠÅĿ a
c an
Ġde n
Ġb u
ĠK ro
ĠÂ »
s kul
en e
pan a
Ġkun e
k uloj
g os
an u
ĠÄīef e
Ġ ;
Ġhistor io
k io
Ġkun labor
Ġte le
Ġni aj
ĠK o
Ġrice vis
Ġe ven
Ġmal no
Ġtra di
i oj
Ġali an
c ojn
Ġkom ple
ĠVi kipedio
Ġi uj
p ub
un i
do s
ĠR us
Ġver sio
Ġ 0
ĠZ amenho
k tas
Ġam baÅŃ
Ġkro m
Ġpra kti
Ġb al
Ġsiste mo
n om
ven is
Ġprof es
po zi
Ġk vin
Ġvi v
s ki
Ġsi m
li a
' s
b ron
Ġap ud
ĠEÅŃro po
g ia
ajn e
Ġh on
Ġk al
Ġri ver
ej oj
gra f
ĠH o
p aj
ĠGerman io
re m
Ġpo ten
c x
s tan
or e
Ġi on
ĠD u
pre zen
Ġmul t
om en
Ġg a
Ġ ...
ĠN a
z as
I n
Ġor i
Ġ Ð
ĠJ u
Ġgru po
ar d
V i
c ern
te lo
ĠT o
Ġkons is
ĠIn tern
S e
Ġrapi de
Ġed z
ur bo
Ġli aj
Ġc xi
ĠP ol
ĠKi el
Ġ1 1
Ġfran ca
Ġi am
Ġs al
Äµ on
ĠH is
Ġvi dis
Ġgran dan
N i
Ġmon d
Ġre tejo
a k
Ġa ki
Ġplur aj
Ġal ta
Ġe r
Ġg as
E S
Ġuni vers
ĠH a
Ā Ā
Ġd or
ĠR a
men aÅŃ
Ġha v
Ġkom er
Ġci vi
Ġregi ono
Ġfar as
per i
Ã ¼
Ġdi r
Ġa spe
e la
Ġdi ri
Ġtem as
Ġgran daj
. "
ĠI s
ĠE tern
Ġtiuj n
tor io
Ġho diaÅŃ
Ġen i
ĠJ en
tan ta
P o
s ek
ĠP ri
Ġvi di
Ġe fi
ĠP e
Ġmili to
ĠV er
ĠT a
Ġgerman a
Ġkons er
Ġsignif as
ĠLa ÅŃ
ton o
Ġk ris
Ġpro vi
ar an
Ġak vo
Ġo kciden
lon g
Ġp un
Ġb ri
Ġra di
ti ÄĿis
v al
Ġpreci pe
Ġsufi Äīe
ĠK ar
e g
Ġe li
Ġkel kajn
Ġre t
j or
Ġkon ata
kon du
Ġin ten
Ġali ajn
Ġvo Äī
Ġokaz as
p lo
u ra
Ġkomun i
Ġli tera
ĠEs tas
ti gas
ĠZamenho f
a don
Ġ19 7
f lan
Ġra por
f e
Ġ on
Ġmi l
Ġm as
de pen
j oj
q u
j ara
par te
re ta
Ġh un
Ġvi de
k ar
Ġe fek
Ġmul tajn
ul ojn
g h
ÅĿ an
van ta
Ġkon cern
da do
Ġinf lu
ĠA m
Ġ19 4
Ġno vaj
Ġ19 3
Ġbezon as
Ġte mp
Ġcer te
kta do
Ġme z
Ġmen ci
Ġse majn
h el
p ra
st ra
Ġi mp
Ġkon gres
Ġpris krib
Ġf la
ks a
tr on
Ġfar iÄĿis
Ġb an
po s
ĠR i
tan o
Ġme di
Ġpre fer
ci en
n ab
s u
ĠEtern ulo
Ġc x
Ġdis tri
A T
1 5
z er
in to
tan toj
Ġno van
z em
Ġter i
Ġintern aci
ĠR es
ĠP re
ul ino
le s
Ġkuti me
an tojn
Ġi ÄĿis
Ġproksi m
Ġ io
Ġal menaÅŃ
Ġre prezen
ÄĿ ojn
ĠÄī am
ĠaÅŃ to
ig a
Ġta goj
Ġvi rin
Ġide o
ĠJo h
b lo
Ġk ru
2 0
b io
Ġves per
igi taj
j oro
Ġmon tri
Ġser Äī
ri lo
Ġde c
Ġf oj
Ġres pe
Ġper e
1 7
Ġf en
k tis
Ġinf anoj
Ġperson oj
Ġmal mul
in on
Ġga ze
ĠÄĿus te
Ġmi aj
Ġe ÅŃro
Ġsimp le
pu la
Ġkomen ci
Ġti al
Ġ Y
tan oj
Ġ ?
i aj
Ġ X
Ġunu e
om a
Ġ19 6
d re
Ġs es
ĠFran cio
Ġfor mo
pro ksi
ĠAn kaÅŃ
Ġan ka
vi du
k lo
/ /
i d
Ġfaci le
Ġf ino
E J
t tp
ku to
P or
Ġb lan
Ġvi za
ĠS ek
g ru
Ġ zor
Ġnom bro
Ġprof un
Ġ2 5
ĠF a
Ġb ru
Ġor don
Ġv as
: //
ĠÄĪ inio
Ġ3 0
Ġtro vis
Ġele kti
Ġmem broj
ĠO r
t ris
t s
Ġili aj
Ġper io
Ġkara k
j on
l us
b lio
t us
Ġsu po
d am
om e
la do
Ġprezi danto
Ġki al
Ġafer oj
ar on
ĠA li
ĠN un
Ġde kla
Ġad minis
i e
r ajn
Ġa re
E R
Ġkon tribu
Ġfin e
ĠSan kta
ti go
Ġ tas
Ġprop ra
Ġdu on
Ġa g
ĠÄīef a
Ġkul tur
ĠaÅŃ skul
Ġha vi
Ġmo vado
Ġmon tras
lan da
Ġman ÄĿ
p un
Ġpopo lo
Ġsta ri
b laj
ĠaÅŃ tor
o v
s oj
Ġdev us
Ġfami lio
ĠS in
dan te
Ġtu tan
Ġm ur
Ġregis taro
Ġde vis
Ġinklu zi
1 1
Ġes tr
Ġn ig
âĢ ĵ
Ġparo las
ar oj
Ġfi r
Ġte k
ĠD an
Ġlon ga
ĠK un
Ã ¶
Ġdi feren
de co
Ġk os
ĠG o
per a
ĠIntern acia
Ġkon ta
Ġaper as
ÅĿ is
Ġba z
da Äµo
Ġvoj a
Ġes ton
ta l
w i
m ita
Ġli an
Ġmor tis
b ri
ĠÄĿ oj
Ġur b
m em
Ġce lo
z ono
le co
Ġa ta
Ġmor to
Ġar me
1 4
ĠÅĿta to
Ġn en
ul on
a to
Ġti to
j u
Ġre ÄĿo
T O
Ġd omo
Ġnom e
ĠS en
kom en
es ta
Ġni an
Ġprogra mo
ĠC en
aci oj
Ġsen depen
ĠÅĿ ia
Ġlon ge
Ġko v
b ra
Ġmal j
Ġdon is
d ra
Ġpro vin
st r
Ġinf an
ÄĿ aj
is ta
Ġdec embro
Ġan ta
Ġki om
Ġb ra
Ġuz ata
or io
Ġf eli
Ġkom pu
Ġ ras
vi a
Ġk nab
or g
po ko
um a
t n
ĠPol lando
i an
ten o
' t
Ġdos ier
Ġti aj
ĠU n
1 6
Ġpli bon
Ġ19 5
Ġsu fer
a g
Ġle gi
v ajn
į ã
Ġa Äīe
os te
ta lo
ĠN or
ĠB ri
c om
Ġli m
Ġunu an
1 3
Ġpro te
ter e
Ġnom on
Ġre gu
ĠB er
Ġ =
Ġmod ern
lo va
Ĩ įã
es t
Ġp ru
s krib
ĠantaÅŃ e
re to
ĠK an
Ġser io
Ġpo pula
ta la
Ġf u
Â Ń
Ĩįã Ĩįã
Ġfa kte
Ġn um
d or
Ġa ser
Ġpre par
e ks
ti a
Ġb ir
Ġ2 4
Ġa u
Ġfin an
pub liko
Ġk lo
m io
v uo
Ġmalgran da
Ġm es
um oj
Ġpo vos
f oj
k re
Ġli gi
te l
Ġvi das
ĠJ e
ĠB on
f ra
2 01
ve lo
ĠÅĿan ÄĿ
ka de
Ġespl or
Ti u
k un
. )
b as
ww w
z ar
is ma
Ġe du
ĠĠ ĠĠ
Ġvi aj
ĠB i
ÅĿ ajne
Ġkon greso
gus to
m or
ĠÅĿ in
ĠÄīi on
ĠG ran
Ġg ener
Ġuz o
kis toj
b an
Ġ1 00
Ġf rem
in d
Ġta g
S ed
am aj
Ġla r
Ġob jek
Ġen e
ig u
Ġfor las
ĠL o
Ġte mo
Ġpre le
Ġmem bro
Ġ is
Ġaparten as
tre pren
is i
Ġ taÅŃ
Ġpre ÄĿ
gra ÅŃ
Ġsam tempe
Ġro man
Ġdezi ras
Ġsukces is
dus tri
ĠAn taÅŃ
il on
Ġvoj o
t un
Ð °
Po st
b las
Ġmals u
Es peranto
k in
ç¤¼åĮħç¤¼åĮħç¤¼åĮħç¤¼åĮħ ç¤¼åĮħç¤¼åĮħç¤¼åĮħç¤¼åĮħ
per mes
- -
Ġh al
D um
ĠD a
Ġdi re
ĠJes uo
Ġ r
ta r
Ġs tre
Ġdis vas
ĠNo v
Ġdi vi
zem ple
ĠÄĪ ar
Å Ĥ
le zio
Ġre a
N e
ĠTi am
em a
Ġevi den
I N
ÅĿ a
Ġe m
di ÄĿis
ven as
Ġfor ges
ĠÄĿener ale
l ern
Ġo kul
K aj
Ġ19 2
v ig
Ġa s
kaz e
Ġpa ÄĿo
Ġmon o
Ġsitu as
Ġver ko
' m
Ġf es
Ġso la
Ġnun a
Ð ¾
Ġs tran
dan toj
Ġres tis
ÄĿ e
Ġre kon
e a
Ġk m
Ġka to
h is
mo kra
f ine
Ġen tu
m u
Ġlo kon
Ġesperan tis
Ġbal daÅŃ
Ġpo la
Ġklo po
ĠS er
d ajn
ĠTi al
. âĢĿ
ka to
um on
ĠB ra
Ġdef en
flan ke
Ġh ttp
li gas
Ġk as
Ġa po
Ġman iero
Ġi a
ta Äµo
Ġdeci dis
Ġspi ri
Ġparo li
Ġmal kov
Ġfami li
um an
anu aro
ĠF o
ĠÄīe es
Ġunu aj
z an
ĠKon greso
Ġob ser
Ġh or
i ko
Ġme to
Ġri f
ĠS ur
Ġkel k
Ġe ga
Ġprin ci
Ġf oje
graf io
Ġgra vaj
Ġci r
Ġk li
Ġhom ojn
ti ÄĿo
aÄµ ojn
Ġver koj
aÄµ on
Ġa gado
Ġdon a
ti gita
Ġenha vas
k tan
Ġc hi
ĠEÅŃro pa
Ġpo zi
de ks
ÄĿ os
tru k
Ġri me
men toj
Ġpartopren is
e z
Ġen trepren
Ġplen um
br ojn
ĠdaÅŃ re
Ġv a
Ġo fer
p h
Ġjar ojn
Ġmal lon
ĠD is
ur n
kto bro
ĠH un
ig n
Ġres tas
Ġfilo zo
Ġt ero
en t
Ġdon as
Ġf aj
b el
ĠTi el
er on
ĠdaÅŃ ri
gan te
Ġkomen c
ĠK risto
la ÅŃ
Ġkomen co
Ġ201 6
Ġde s
Ġre li
tr um
Å ľ
ĠU K
in s
ĠT ra
Ġt ru
umen toj
A N
Ġpo ÅĿ
k tojn
Ġneces as
kri bo
ĠB u
Ġju lio
al on
Ġkom par
ĠEsperan ta
pen s
Ġi ma
Ġa ga
tu ri
ta Äµoj
' d
Ġbe la
Ġ201 7
Ġver a
Ġi ris
g le
KOKO KOKO
u re
Ġkre i
Ġtut mon
Ġvol is
Ġdis ting
Ġoku p
u ri
Ġin vi
st ro
K on
Ġe ro
Ġpens as
ĠÄīef urbo
3 0
Ġprojek to
ÄĪ u
Ġfa vor
i li
Ġar b
Ġre st
ĠLi ber
in toj
A l
Ġven as
Ġdistri kto
Ġorig in
ĠL ia
Ġkul turo
ĠÄĿ u
Ġan on
Ġde pen
ĠIs ra
Ġre ali
Ġesperan ta
Ġre te
ar den
Ġna tur
Ġinfor moj
Äī as
Ġindi vidu
Ġraj tas
Ġtur n
ĠaÅŃ toro
Ġpos ed
) ;
Ġg la
per io
Ġ19 0
tem bro
Ġval or
2 00
EJ O
ran te
Ġm er
Ġso cio
Ġp le
Ġde tru
Äī oj
Ġmar to
Ġan tik
i ris
k cio
Ġ w
ĠS ch
Ġrila te
ĠV in
ĠTi uj
Ġi un
t y
ter oj
c istoj
Ġ201 0
Ġblo go
Ġkon as
lan toj
ki taj
Ġg en
ĠP oste
ĠM os
Ġn acia
ĠF or
per o
eb laj
Â °
ma do
Ġg ajn
Ġo kuloj
tr ojn
Ã ¤
Ġf al
ej on
Ġper sono
Ġc h
Ġen kondu
ĠG ra
Ġneni on
5 0
Ġa mp
ĠB ar
Ġd ol
Ġjun a
la r
Ġgra ve
gar io
Ġaldon u
Ġj anuaro
e te
s titu
ti vo
Ġling va
Ġkon kur
Ġhel pi
Ġlabor is
ĠM an
Ġk van
Ġ #
Ġre ligi
b re
li ber
Ġprogra m
Ġmaj o
ĠA fri
Ġvi von
ĠP li
Ð µ
Ġs or
ĠI a
k res
p ojn
D is
don o
Ġa so
Ġhom a
Ġfon ton
Ġmala l
ĠÄµ us
ar aj
Ä¥ a
blio te
Ġ ran
c isto
Ġmili onoj
P ro
m ig
Ġvila ÄĿo
li bro
Ġvor tojn
Ġproksi me
Ġnom ata
Ġproble mo
ĠÅĿajn as
Ġe ten
z aj
Ġal t
Ġriver o
Ġnov embro
Ġpli long
Ġf lor
ta ta
Ġf ab
Ġokaz os
H el
ier e
rin de
k er
Ġg x
om ento
i ka
ĠN u
Ġami koj
Ġo ktobro
Ġur boj
us o
Ġre volu
j e
ka p
um ento
kom pren
te le
den to
Ġskrib is
eb ru
Ġn aj
Â» .
es toj
Ġdi rek
Ġs truk
Ġ !
Ġ2 2
Ġne pre
g ara
ĠRus io
Ġb ar
Ġ2 1
Ġkla re
Ġnen io
Ġbe le
vi d
f te
Ġdif in
Ġd oni
Ġver ÅĿajne
da ta
Ġa mo
Ġmuzi ko
ci ante
e con
ĠÄĿener ala
lan d
ti ÄĿas
Ġsitu acio
Ġkompren as
di taj
for m
Ġda tum
Â» ,
Ġap rilo
g no
ĠÄī es
ĠN ur
Ġating is
Ġlabor on
Ġapar te
ĠaÅŃ gusto
ĠK u
] [
Ġre kte
Ġma le
t ina
Ġ201 5
Ġvirin oj
Ġka ÅĿ
or do
as o
Ġorig ina
in ter
Ġan i
Ġperio do
Ġpro ce
Ġvol on
d amen
Ġin dustri
Ġler ni
ĠC i
Ġ201 8
. ,
Ġlon g
ĠHis panio
mi lito
Ġj us
Ġpoli tika
Ġs ti
Ġfil mo
Ġre komen
Ġnask iÄĿis
Ġse ks
Ġsep tembro
Ġcen tro
Ġvir ino
Ġkris tan
d ro
j n
i zo
va ta
Ġge pa
Ġrespon dis
Ġt rin
Ġnov ajn
f ab
Å ¡
Ġde ks
ĠM ul
Ġ u
Ġpro fi
kon s
Ġo ka
zi a
Ġating i
e toj
Ġt he
en ce
ĠÄīiu ta
ĠRes publiko
Ġse ku
Ġbon an
Ġtradu ko
k ro
ĠM ia
ĠB el
ĠT EJO
gi p
Ġuz is
de jo
i f
eri ko
ĠS ta
Ġali lingva
ĠO ri
Ġus ona
ÅĿ ta
Ġtradu ku
Ġ5 0
gn os
Ġb el
Ġinfor mojn
Ġal vo
Ġflan ko
Ġma lo
Ġ2 3
Ġekz amen
li gis
Ġdisvol vita
Ġpatr ino
ĠÅĿ ab
ĠH el
Ġlas taj
s k
Ġartiko loj
Ġdeman do
p la
uz eo
ĠR u
Ġf ama
Ġrice vi
ĠH er
Ġtek ni
Ġparo lis
tu lo
k toro
Ġg re
Ġjun io
tr aj
Ġtem pon
Ġan ali
Ġver kis
Ġkre das
ã ģ
Ġkons en
om oj
Ġc el
Ġde mokra
Ġpar ti
ĠloÄĿ anta
Ġplilong igi
Ġe ta
lo gia
Ġal por
ti v
Hel pu
Ġre vuo
Ġprezen tas
Ġlo koj
Ġgru poj
te li
tem pa
a u
Äī jo
Ġkomun a
L I
Ġs pa
â Ī
lan taÅŃ
L aÅŃ
ĠK el
Ġsam tema
Ġtri a
Ġins titu
Â «
b aj
ĠS vis
Ġkap ita
Ġki a
z ojn
men ciante
Ġ ron
ĠV ar
Ġrus a
Ġdivers ajn
Ġen er
Ġkonsis tas
ĠL ing
ĠEsperan t
zi lo
Ġedz ino
Ġpa ÅĿ
Ġpost u
Ġe ge
gan toj
Ġm omento
Ġtran kvi
Ġfor te
di da
ĠE U
ĠI ta
pis ko
tor oj
Ki am
l ino
v es
Ġ4 0
Ġsig n
Ġs om
Ġme ze
Ġa socio
ci aj
Ġmalno va
e ta
Ġfar ita
ig on
fer o
ĠKro me
Ġlo ka
Ġre ven
Ġmala mi
Ġprovin co
Ġkon fi
Ġpro gres
Ġek vi
ĠF in
en d
Ġa ux
ter na
Ġpub li
I V
ĠT ri
Ġh ar
te con
ĠP i
] ,
ra pi
ĠT ur
ebru aro
Ġmin u
Ġsin jor
Dis kuto
Ġri Äī
lu te
Ġproksim ume
E k
ĀĀ ĀĀ
Ġh er
Ġnor ma
ce jo
b in
Ġ2 8
Ġtro vas
Ġplen a
ĠK ol
ĠâĢ Ŀ
Ġkor po
Ġpro mes
ĠB e
Ġp an
ĠÄĿi aj
ĠW i
te mp
Ġgran de
Ġv ali
ti kaj
Ġel sta
mul to
ĠKi u
j ar
Ġkon ten
ÅĿ u
te ks
Ġ200 0
f in
x o
A S
ĠK or
Ġi den
Ġvi vas
ĠAn g
Ġs tri
ko l
a dis
Ġkons ta
Ġper fek
gan to
ã ĥ
ber g
Ġpi e
Ġsol da
Ġlo ÄĿas
f t
Ġin i
Ð ¸
Ġka teg
Ġlitera turo
Ġprop ran
Ġteri torio
ĠF on
Ġeks ci
Ġe poko
Ġli broj
Ġmala per
Ġliber a
O N
ĠloÄĿ antoj
z ita
Ġl isto
Ġ2 6
Äī is
Ġa gnos
es peran
Ġvi ajn
Ġven on
or is
ĠUnivers itato
ĠE st
Ġkon cep
iÄĿ os
f un
3 4
Ġma teri
âĪ ŀ
Ġ2 7
Ġmo di
Ġkompren i
e ti
2 4
ĠIsra elo
ĠG e
k taj
Ġvor t
ci e
Ġbon volu
Ġap en
vi ÄĿis
feren co
van o
Ġsta bi
Ġp ron
Ġma ten
p s
Ġgra ma
ĠE ble
Ġdan ÄĿ
Ġsimp la
tis mo
Ġ200 8
ur aj
Ġkon a
f an
m b
Ġf eder
ĠS te
ĠÄī a
Ġh e
ĠT h
Ġte a
Ġkole kti
Ġver kon
ĠÄĪi uj
ra do
ĠS am
Ġpar la
ĠJ un
ĠG a
Ġamp leks
ĠA s
Ġar g
Ġopini as
ĠTi e
van te
Ã¡ n
Ġk oro
Ġkon vin
Ġle g
Ġi ri
pro du
Ġori en
Ki el
ĠT em
tu re
Ġso cia
Ġmalfaci le
ĠS AT
Ġfor ta
cen toj
Ġhis pana
ĠI m
ÄĿ u
ma ta
Ġartiko lon
O ni
Ġti en
em on
ri la
Ġpar toj
i le
Ġsta to
b en
Ġg ar
ur oj
ĠC o
Ġb ab
m ino
Ġrespon de
ĠÅĿa tas
la ro
Ġan d
ki el
Ġta gon
Ġesperan tisto
Ġdosier oj
Ġim peri
Ġapen aÅŃ
ter ia
uz a
ran o
âĪŀ âĪŀ
Ġiom ete
le gi
Ġ Q
mo vado
Ġkre is
Ġus on
is tem
Ġ201 2
pl en
8 7
o k
di gi
g ri
ĠÄĪi u
Ä ľ
l y
om pan
va li
Ġkompren eble
ĠUn io
Ġsci is
Ġvor ton
ter on
Ġpos e
E N
Ġk lu
Ġj es
Ġti an
2 2
Ġmin is
Ġraj toj
ĠA kade
Ġmal deks
K U
Ġvi ro
Ġce las
ri gar
Ġmal proksi
Ġre ÄĿ
k vo
Ġmal ri
Ġfunkci as
Ġor din
bur go
ĠSin joro
Ġp si
in da
Ġkon cer
Ġsi len
Ġmal graÅŃ
tan to
ĠUnivers ala
al isto
Ġba lo
Ġm aro
Ġbon aj
Ġteks toj
u a
Ġsta r
r ojn
tan taj
ĠMar ia
ĠS ud
Ġpar ton
tis ta
via di
Ġa ra
ĠÅĿ ton
r y
v el
Ġnun tempe
ĠJ am
b lan
Ġi r
n am
Ġn es
Ġero tika
ed io
Ġare o
Ġsen di
Ġma lantaÅŃ
gra fi
2 5
Ġmalj un
z u
ĠB al
Ġmalf ru
Ġinkluzi ve
Ġm u
Ġkan dida
Ġfa kto
Ġre la
ĠS al
Ġpartopren i
i ro
ĠEk zemple
ĠJa panio
Ġh oro
Ä į
Ġevolu o
Ġpub lika
Ġmal var
st in
Ġar ki
ĠÃ Ĺ
Ġpopo loj
Ġfir ma
U nu
Ġsek ve
b is
Ġdeman dis
Ġmal permes
Ġfor m
Ġak tu
Ġadminis tra
ig os
Ġs ab
Ġofici ala
ta b
ĠÄĿ en
Ġpens is
Ġg eo
Ġini cia
Ġmes a
Ġ y
ĠIta lio
Ġb ran
ĠÅĿta toj
Ġpa co
Ġmona toj
pun kto
ta roj
lon ge
Ġ201 1
Ġpar tio
un do
Ġkon tin
Ġta b
Ġstu den
c el
Ġkom pon
Ġbata lo
ch e
ĠI z
M al
Ġmalfaci la
Ġde diÄī
Ġh ere
d omo
vi do
iÄĿ on
Ġpren is
Ġbe daÅŃ
Ġplen e
2 3
) :
lan daj
Ġh i
Ġro lon
Ġunu o
Ġmen so
Ġfor ma
Ġ200 9
j are
Ġcen t
Ġpoli tiko
Ġkompu ti
ali e
Ġtran si
Ġmon on
I S
Ð ½
pozi cio
Ġl um
Ġmo va
D e
Ġri pe
aci on
Ġni velo
Ġmal hel
4 0
ĠG u
K om
ĠL on
ĠBri tio
ran s
Ġe t
Ġf ebruaro
ĠSo ve
Ġle ÄĿo
Ġver si
po st
ĠC ar
Ġku ÅĿ
gan ta
ti ke
Ġv ek
Ġs x
Ġregis tri
f is
Ġ {
iÄĿ intaj
Ġvizi tis
Ġap ro
Ġarme o
Ġor gan
J en
am oj
kti ta
en toj
Ġmon tris
ĠÄīi un
ĠÄµ urn
Ġfru e
ĠS ub
l ono
Ġkomen ce
Ġna turo
on on
an do
k le
Ġkro me
Ġuz ado
ara to
Ġs un
don i
Ġver kisto
vi de
Ġnum ero
Ġskrib i
en oj
Ġdok umen
v ino
Ġ200 7
Ġo per
ĠÅĿab lon
uz o
di ÄĿas
Ġsen dis
Ġ201 4
Ġfi zi
ĠKon si
Ġspeci oj
Ġde se
b al
Ġre mem
' ve
A R
ĠN eni
ĠKi al
Ġesper as
te k
Es tas
Ġparo l
Ġman kas
Ġras trum
ĠA X
mo s
Ġpre ter
ĠS pi
Ġ18 9
Ġna tura
E l
Ġteri tor
Ġbil do
ĠAfri ko
Ñ Ģ
ĠN eder
Ã ½
Ġta ks
Ġprezen tis
Ñ Ĥ
Ġma ÅĿ
2 7
ven on
ÄĿ an
ĠÄľ is
ĠR om
Ġrastrum eroj
t uloj
ula ro
s ka
isi ono
Ġstra to
ĠEk de
Ġka po
en on
st rio
ku lo
Ġrice vas
Ġkarak teri
Ġ200 6
Ġne kon
er io
Ġa ver
Ġfin fine
Ġm omen
ĠH e
Ġ- -
Ġproble moj
Ġcen tra
5 6
ĠE gip
re co
Ġ z
ĠK vankam
Ġak ompan
Ġhel po
bar oj
ĠloÄĿanta ro
il ojn
di ka
Ġl is
Ġmin a
Ġsan kta
mi taj
ig x
Ġdan k
o u
vi Äī
Ġlabor as
p lan
Ġinteres a
Ġling vojn
Ġele kto
Ġentu te
Ġmal for
tr ino
ĠL in
ĠÅĿ ul
d ar
Ġre venis
Ġfo li
Ġsam an
i ri
m ia
ĠÄĿi an
Ġgra vas
Ġ201 3
ĠÄľ ener
Ġv an
ĠGran da
p ita
Ġb lu
s ti
ĠB en
pa gan
lan dan
tur oj
Ġrigar dis
t ul
Ġin sta
Ġdu o
Ġg ri
es peranto
for ma
Ġh oroj
ĠM in
Ġp ala
el l
Ġmalgran daj
Ġlern ejo
Ġe ÅŃ
Ġsu da
Ġami ko
Ġkur so
Ġfi ÅĿ
Ġba zi
Ġsub skrib
ĠN ord
ub a
Ñ ģ
c z
ve co
ĠaÅŃ dis
Ġestr aro
u p
Ġokaz e
Ġtrans por
ĠE ks
Ġkor ek
Ġbi bliote
ling vaj
ĠPar izo
ĠT omo
Ġide oj
Ġa tes
fi ci
ĠJoh ano
Ġre ci
ĠU r
Ġrezul to
ĠM em
o gle
Ġpropon as
Ġdos iero
en co
L E
Ġvi roj
8 0
da Äµoj
m er
Ġf am
ling vo
ĠJ os
2 1
f es
zi danto
Ġpub liko
c ajn
Ġenha vo
tur on
T C
ter aj
y s
li go
t t
ã Ĥ
h u
Ġb io
Ġ 000
ĠI KU
Ġre vi
ĠantaÅŃ a
tem po
ĠF ine
Ġimp res
ĠU N
Ġvor taro
ĠP as
Ġrila toj
Ġpar te
ÄĪ e
Ġaki ri
ĠEsperan tistoj
ĠÄīef aj
par to
M ar
ĠÅĿajn e
Ġinfor m
Ġs kla
Ġsub ite
Ġins ulo
Ġpa ÄĿoj
Ġ200 5
Ġman o
Ġsu pre
di re
Ġmalmul te
Ġi ras
ÅĿ to
Ġra dio
ĠHun gario
Ġsek reta
Ä¥ o
or on
ÄĿ us
ur on
Ġkompren is
p io
Ġili an
Ġparo la
Ġeven tu
ci ojn
Ġhis pan
g ajn
Ġpartopren antoj
2 6
y a
Ġlan d
ĠPe tro
ĠA leks
ku ra
z ajn
Ġman oj
ĠE Äī
Ġaldon i
Ġs cen
Ġnom oj
Ġsimi la
ĠloÄĿ antojn
Ĩ Ĵ
Ġve tur
eb l
Ġa ro
Ġb en
vi ce
Ġdisku to
Ġlern is
Ġkon klu
Ġkom pa
Ġrespe kti
pren eble
Ġ2 9
Ġsub stan
zis tas
z ento
Ġd ra
Ġmodern a
Ġv un
Ġapar ta
Ġeldon o
Ġtem oj
Ġinternaci aj
Ġspeci ala
ĠK ris
tu ga
lan te
Ġrenkonti ÄĿo
Ġsur pri
Ġpi ed
voj o
Ġes cep
Ġanka u
ter io
ĠI M
Ġur bon
i re
ĠP ra
te bla
ĠV a
Ġ %
Ġnor da
ĠIz ra
Ġfun damen
A socio
Ġvi vis
k tu
Ġle gis
Ġper for
vi ÄĿo
ĠA socio
Ġinter pre
Ġfra to
Ġpun kto
ven a
Ġokciden ta
Ġfor to
ĠC e
ĠW il
ĨįãĨįã ĨįãĨįã
ĠT er
Ġkri ti
6 5
ĠP lej
se ks
Ġmor t
Ġret po
e ca
mi d
I I
ĠÄĿ arden
ta ron
ar ki
pren is
Ġ3 1
kciden ta
Ġka zo
Ġekzis tis
ĠÄĪe Ä¥
ĠVar so
Ġmals amaj
lova kio
Ġpo em
Ġnaci aj
ĠA d
Ġmon don
Ġeks tre
ĠÄī ina
Ġplur ajn
Ġkun si
lo k
Ġpro men
h on
M on
Ġa gra
Ġlan don
Äī on
ko lor
van ge
cen t
Ġad res
iÄĿ inta
Ġhom aro
Ġ ris
Ġc eloj
ke co
ch a
f en
Ġhistor ia
Ġd un
Ġse ksa
Ġmals an
s an
cia lan
ĠK io
Ġvoj on
Ġo k
ĠV en
m pi
es pon
Ġkam po
Ġefek tive
Ġbil doj
g er
ĠV al
me o
Ġli bron
Ġunivers ita
Ġdu ono
ta ri
R e
h er
ĠAkade mio
ĠEs tis
st re
an i
Ġme ti
ing o
ĠIKU E
c or
i de
Ġnom as
for mo
Ġlo kaj
H o
ti ÄĿi
Ġmon to
Ġi tala
Ġkul tura
Ġelek tis
Ġ &
ĠÂ ·
In ter
Ġk v
ĠpreÄĿ ejo
ĠM or
al ismo
ĠK ata
Ġpo e
z itan
Ġregi onoj
Ġdi pl
Ġpoten co
Ġinter kon
Ġal b
kom uni
dan ta
ti ga
ĠF re
Ġnor do
ç¤¼åĮħç¤¼åĮħç¤¼åĮħç¤¼åĮħç¤¼åĮħç¤¼åĮħç¤¼åĮħç¤¼åĮħ ç¤¼åĮħç¤¼åĮħç¤¼åĮħç¤¼åĮħç¤¼åĮħç¤¼åĮħç¤¼åĮħç¤¼åĮħ
Ġinf ano
Ġhej m
Ġpar a
Ġk r
Ġb estoj
An taÅŃ
Ġb ur
Ġlo k
Ġsu pren
Ġinter alie
Ġsci i
ÅŃ tra
Ġrif uz
Ġsta tu
Ġajn a
Ġfab ri
p loj
lan ta
Ġtro v
ĠH ar
Ġs te
ĠBra zilo
ci po
en s
vo le
ĠT he
Ġma teria
Ġta tu
ig oj
Ġpre mi
Ġkomenci ÄĿis
Ġb as
Ġel sen
Ġâ ĨĴ
Ä ľi
Ġmor tin
Ġliber e
3 8
va d
Ġ *
de lo
Ġsupo z
6 0
Ġreli gio
Ġs p
Ġinstru is
Ġmalbon a
l oro
Ġno kto
li taj
Ġha vos
ĠĠĠĠ ĠĠĠĠ
ĠC er
ĠN acia
2 8
Ġal venis
Ġtra vi
Ġami k
Ġunivers itato
a te
Ġsta ris
f ita
Ġsen co
gx o
lo go
al u
Ġpostu las
Ġsin joro
Ġkan to
Ġg xi
Ġpe tas
Ġli ver
Ġmond milito
Ġf ig
Ġki aj
Ġekzem plo
2 9
Ġkon cen
ĠH en
Ġide on
ĠKel kaj
kon stru
ĠJ er
Ġsta ras
Ġkapab las
ve bla
Ġpas tro
Ġtito lo
Ġt or
ĠâĢ ĺ
D o
Ġg h
ES TO
ek z
ĠPo la
Ġvar i
Ġko pi
ar i
Ġsek vis
a lan
Ġs h
P ri
Ġa fi
ĠÄ ¥
Ġt raj
Ġmi ks
Ġfoj on
f io
Ġpe tis
Äī aj
Ġki l
Ġfi ks
Ġplan e
Ġkon ataj
Ġ( "
iste mo
Ġter min
por no
ĠMul taj
Ġdis tan
ĠS E
Ġori enta
Ġgepa troj
Ġl umo
f aj
istem oj
alaj n
Ġsim bo
Ġgra van
Ġmar bor
Ġplej parte
ĠA ra
du lo
Ġsen du
Ġre to
don e
Ġp on
Ġpro tes
Ġinter v
ĠJ an
lo ÄĿ
Ġsigni fo
Ġni ajn
Ġ om
Ġa dap
Ġmallon ga
Ġhel p
us te
Ġa tribu
Ġnom ita
Ġte amo
ĠI S
Ġmi ajn
Ġha zar
3 3
Ġkvan to
k al
Ġaten das
bur g
Ġs us
l um
Ġa viadi
Ġkres k
Ġdeci do
Ġan im
Ġri de
Ġba zo
Ġflu g
Ġfon to
Ġsen tas
Ġkateg ori
Ġp aci
kipe dia
b ata
Ġhom aj
Ġekonom ia
Ġso le
Ġser vo
Ġeni ris
men ta
Ġfor moj
ĠK am
Ġkil ome
ĠT re
ĸ ĳ
Ġs uno
lo ke
ula ra
ku ti
Ġmal liber
Ġeks plo
Ġge ed
Ġstabi la
ber t
ĠvoÄī don
Ġbir doj
o o
Ġis la
Ġsimi laj
ĠGo ogle
Ġd io
Ġvi du
N un
Ġ +
ĠL an
Ġnom is
Ġek lezio
Ġspeci ale
Ġs por
kur so
Ġcer ta
Ð¾ Ð
ĠOr gani
ĠP IV
ĠO n
Ġmal rapi
Ġeviden te
ĠS cien
Ġnom iÄĿas
A r
do vi
Ġar to
Ġesperan t
Ġrila tas
Ġkal ku
Ġpro vis
ĠÄīam bro
ĠB ur
ĠF ESTO
ÄĿ en
ig ar
ĠÅĿan ÄĿi
Ġte ori
Ġakcep tis
Ġple z
le to
pl ena
ĠNo va
Ġek le
li gita
Ġprodu ktoj
Ġs tilo
k va
Ġreci pro
Ġdef ini
Ġkonfi r
Ġnig ra
! !
ĠÄīi elo
ĠV il
lon e
Ġkons ci
la v
ĠI r
ĠSo ci
ta ra
n et
Ġproksi ma
Ġsu p
ĠÄ ¤
Ġman ko
Ġkonf es
ĠP rin
Ġer ar
V A
D E
Ġlabor i
Ġe pisko
Ã³ n
in aj
ĠF un
kul turo
ka lo
Ġteks ton
Ġvoj aÄĿ
Ġme tis
Ġsu do
Ġfar os
Ġkun veno
ĠA zio
b un
Ġmili t
ĠS ve
tan a
ten as
ĠN ia
ĠD on
Ġt rajn
Ġpron on
gi taj
st ron
ĠÅĿablon oj
p to
tigi taj
po la
Ġsen tis
g al
ĠKan ado
Ġviza ÄĿo
Äī am
Ġpli multo
Ġpoliti kaj
ĠantaÅŃ en
Ġhistor i
Ġaso cioj
Ġfo to
i la
ĠG re
ĠV la
pa ÄĿo
Ġdeman doj
f ran
Ġinter na
7 0
Ġor do
ĠÄ ´
Ġscien co
Ġen ke
Ġ6 0
3 5
Ġre ta
Ġsen pa
an iere
lo ko
ĠB ul
Ġrimar kis
Ã ¨
ĠDu a
KOKOKOKO KOKOKOKO
Ġvi c
ba ze
Ġab so
ĠM aro
Ġa do
ĠC om
ĠâĢ ¦
fi ko
ĠEk lezio
Ġde venas
Ġmona Ä¥
Ġpen si
Ġka pon
Ġlo gi
Ġsal u
ba ble
Ġi el
Ġri po
Ġblan ka
Ġkons titu
Ġa fri
Ġantik va
19 9
es e
ge t
f ono
ĠP lone
ĠÄľ ia
ĠVi r
Ġplibon igi
Ġminu toj
Ġali e
Ġsemajn o
ĠV o
Ġakti va
Ġorgani zo
Ġfon dita
N o
w ski
Ġuz antoj
ĠCen tra
ĠP aÅŃ
Ġlo ÄĿis
Ġmedi c
Ġsek va
ĠMe ksi
Ġdu dek
E L
ta don
Ġgaze to
Ġmalmul taj
Ġen me
Ġf esto
Ġuz ataj
Ġ200 4
Ġakti v
Ġpro pagan
Ġvi vi
Ġpri zor
Ġso ve
Ġprezen ti
X X
R O
ĠL as
Ġpri va
ĠÄīi e
Ġman ier
Ġlin io
_ _
e ton
ĠNeder lando
" )
ĠV or
em aj
Ġspa co
ĠÄī as
Ġtro vos
m iÄĿis
s ur
Ġmo vi
Ġpa ÄĿon
ĠT e
ĠT u
Ġvo Äīo
Ġtele fon
Ġling v
ĠU kra
0 4
Ġap li
ig h
Ġju doj
Ġf re
N U
ĠAÅŃ stra
di ÄĿo
Ġpor do
Ġjar on
f il
Ġn aÅŃ
s ub
Ġpreci ze
Ġma tema
Ġre kla
Ġinter ÅĿan
ĠFran cis
c ado
Ġti m
k ante
Ġdi ale
Ġre feren
logi aj
ko lo
ĠD om
Ġdese gn
Ġjar de
Ġafer ojn
ĠIM G
j un
ĠKro m
or din
T io
Ġk ler
ran ta
Ġfil ino
Ġrela tive
qu e
Ġsoci aj
g lo
Ġevi ti
d s
Ġg aran
Ġjar centoj
Ġpropon is
ĠK ul
Ġs k
ro m
n ask
Ġpermes as
Ġfaci la
g or
Ġsignif on
Ġm eri
es tas
A li
Ġanka ux
Ġkre ita
ÄĿ aro
ĠC on
Ġfar u
ĠR en
van taj
Ġa ÄĿo
in de
Ġtrans for
on ojn
Ġm edio
Ġelekti ta
ÅĿ e
po lo
Åľ an
tra Äµo
Ġtas ko
Ġforlas is
Ġtrans don
Ġa go
Ġhel pas
t le
ĠÅĿ o
ĠÅĿ ar
Ġrigar d
Ġar m
a ten
n er
Ġal te
Ĩ ĳ
tra do
Ġta gojn
? ?
Ġde vos
Ġprofes oro
es tis
ko do
Ġa vanta
Ġcx e
Ġvi zitan
Ġkom ita
Ġkonsider as
Ġf ren
Ġespri mo
ĠSvis lando
b ol
er ojn
ta g
Ġprodu ktado
ksi m
Ġskrib as
ĠS tu
k aro
Ġcxi uj
vi taj
p res
Ġler no
P er
ĠÄµ e
Ġe mo
Ġprefer e
Ġorganiz aÄµo
gru po
ĠC or
Ġrevolu cio
ĠK e
Ġroman o
Ġab un
kul p
ti voj
Ġstra te
Ġmeto do
Ġvi g
ĠKi on
Ġvid punkto
n aci
Ġprodu kti
Ġd in
Ġspe cio
ĠF ili
Å Ļ
ig ni
Ġmon da
19 4
Ġme ta
Ġp il
men t
Ġper dis
st on
p lu
Ġsubten as
ĠP la
ĠKon gres
Ġinfor mo
Ġn as
no va
Ġa ero
d ori
Ġhistor ion
Ġekzem pl
ĠF er
ĠeÅŃro pa
Ġoka zo
ĠU z
Ġraj ton
Ġt r
zi as
Ġorigin ala
Ġne der
Ġrila to
T amen
d r
Ġso li
Ġang lan
Ġprop raj
p ara
3 1
U TC
ti ri
Ġh umi
iÄĿ u
us e
Ġ3 5
Ġp ek
Ġili ajn
Ġsek vas
Ġfeder acia
h an
un u
Ġser voj
ĠFa kte
Ġhun gar
Ġla tin
Ġrigar di
Ġek kon
Ġaki ris
Ġdu an
Ġspe co
ĠEsperant ujo
I A
M o
li ÄĿis
Ġmin im
Ġjun aj
ÄĿ anta
Ġartiko lojn
Ġsu pra
Ġes tab
po li
Ġkva li
Ġproble mojn
ti vaj
lin e
Ġten den
Ġdekla ris
Ġsimi le
ra ko
â Ĩĳ
Ġkomen cas
Ġar bo
Ġgrand ajn
Ġm uni
Ġpo eto
ĠF eder
l l
s em
ĠLi to
Ġal taj
E T
ĠG ad
Ġfon dis
Ġafer on
w e
ĠeÅŃro paj
Ġhun gara
ĠLiber a
ĠAÅŃ strio
Ġekz er
ĠLu dovi
Ġs tul
Äī u
Ġro mp
ord ina
ar io
ĠKom preneble
ĠÄĿus ta
ar to
ĠÅĿ tu
ĠP an
ĠV ia
Ġti ajn
len daj
Ġaparten is
Ġven os
Ġkomuni kado
Ġ200 1
s te
Ġh ero
Å Ħ
Ġser vis
ĠGe or
s ed
Ġo por
Ġli brojn
Ġrenkon tis
kon stan
i uj
Ġb ul
ĠE o
Ġkon dam
E K
ta to
Ġmem sta
Ġmona to
Ġpatro lita
aj a
Ġsimi las
Ġdi a
ĠD ek
Ġpar don
Ġin ven
ter ojn
Ġja pana
ri a
ĠI J
Ġre vu
ĠUnu iÄĿintaj
3 6
Ġn er
Ġkonstru ita
Ġli to
Ġe ko
ĠU son
Ġci fer
Åľan ÄĿoj
] ;
ĠT ero
Ġg run
Ġdatum oj
p el
k iloj
Ġmateria lo
Ġdis tribu
Ġdepen das
ga ta
kos mo
ĠE r
tra Äµoj
Ġrakon to
Ġ taj
J es
Ġindi kas
Ġkontro lendaj
ci klo
va lo
gi on
tion al
b il
Ġk lin
Ġling vis
d y
Ġpopula ra
n lando
ĠK os
Ġli gita
Ġani mo
Ġmi rin
Ġg hi
ul is
Ġpro ces
Ġakcep ti
Ġfaj ro
Ġin str
tiva lo
Ġtra kta
Ġnom i
Ġeven toj
O R
ĠÅĿan ÄĿoj
ĠA mi
ĠH on
Ġkol oni
me to
b ara
ti c
Ġeb ligas
Ġtre jn
Ġsolda toj
Ġsek re
L e
Ġne ÅŃtra
is maj
ig ante
Ġkre as
Ġkor espon
Ġnask iÄĿ
k us
Ġe tern
Ġja pan
t uno
Ġneni el
ĠKonsi lio
! "
ĠT om
ĠA t
or di
Ġap u
Ġscien ca
h ar
Ġre du
Ġkun ven
Ġkompar e
ki u
Ġsan go
ti kan
Ġf ron
es a
ĠK ore
ĠUnu a
ka Äµo
Es peran
Ġb lin
Ġm us
Ġre ÄĿi
Ġklas o
Ġde zer
ero tika
Ġop inio
le g
u e
em e
Ġur ba
Ġjun uloj
ĠVarso vio
ĠAli aj
ĠG i
ĠÅĿajn is
Ġespri mi
ĠN acioj
Ġter mino
Ġman if
Ġk vi
Ġeks peri
ĠPar tio
la p
bu lo
Ġstuden toj
es o
ĠT ut
ki me
Ġuz ita
ĠÅĿi po
Ġfi de
Ġneni un
Ġpublik igis
aj o
ĠGad get
ur an
Ġposed as
3 2
ch o
Ġokul ojn
ĠE d
il kosmo
Ġhel pis
Ġfra zo
Ġde l
Ġre f
em ble
Ġtradi cia
Ġedu kado
ĠAleks and
ï »
Ġad mi
Ġakti ve
Ġal lo
na bo
Ġtutmon da
ĠÅĿi p
Ġreg uloj
ka pab
l d
Ġse ver
Ġlu dis
? âĢĿ
en te
Ġlu di
ĠÄľener ala
Ġrespon d
Ġk antoj
ski j
b raj
Ġpre zento
Ġkre do
Ġman on
Ġarg umen
Ġre gado
Ġve turi
Ġs ve
ï» ¿
Ġb rus
Ġinter paro
Ġklas i
dam ento
Ġre ala
ĠGerman a
S o
Ġkomun umoj
ko la
Ġofici ale
Ġtradu ki
tur aj
ĠMar tin
Ġvizi ti
ĠK as
Ġpro bable
ĠAn dre
lan doj
Ġeven to
n io
Ġg us
Ġfar iÄĿas
tin oj
Ġkons ek
Ġtatu aj
man ÄĿo
d uloj
Ġvoja ÄĿo
Ã ¢
ģ £
ĠIn f
Ġkontro li
b ru
Ġla tina
teg orio
Ġal terna
ka don
3 7
ej a
ĠIm perio
Äī an
ĠKu bo
Ġc he
Ġta blo
Ġkol on
zi taj
Ġinstru ado
Ġeston teco
v aro
Ġla si
Ġver o
s to
Ġkon ven
ga don
Ġrez er
ra di
K un
ve la
Ġlabor istoj
Ġsur baze
s ojn
ĠDa vid
Ġkato li
z y
Ġle gas
g y
li on
Ġspiri to
Ġce le
Ġf alis
b ono
Ġten d
Ġmals am
Ġb rita
Ġre produ
ĠF ra
Ġkonstru i
Ġhon or
ĠM as
Ġpa f
Ġlern ejoj
Ġ7 0
Ġtrovi ÄĿis
Ġvesper o
Ġni v
Ġfa k
Ġ8 0
te to
Ġcivi tanoj
Ġmalaper is
ï ¼
ĠJoh n
ĠPa tro
an tan
Ġinstru isto
Ġsek cio
Ġkunlabor o
Ġ )
7 8
lan o
tra ÅŃ
Ġfor mon
Ġ199 0
a ÄĿo
Ġed zo
ĠaÅŃtor ita
le y
Ġkam pan
fa co
kipe di
Ġka dre
a tan
Ġcir konstan
Ġ18 8
Ġi an
Ġin tele
Ġekonom io
is mon
Ġli mo
ÅĿ as
ĠÄīiuta ge
Ġmal long
Ġkonser vi
Ġlu do
Ġrigar das
for moj
es troj
b ojn
Å ľi
Ġa er
ling van
Ġsu ges
ĠLudovi ko
h or
den o
Ġpo l
Ġkun me
Ġdi rante
ĠMos kvo
gra mo
ĠÅĿ at
ale st
Ġ200 2
Ġtek no
Ġkelk foje
3 9
Ġpri tra
Ġsi d
Ġpa le
ĠSpi ri
Ġmalno vaj
ĠV ol
o p
Ġins pi
Ġentu zias
ĀĀĀĀ ĀĀĀĀ
Ġekz isto
K a
Ġaran ÄĿo
ĠE le
ci pe
4 8
per ni
u to
Ġb ro
Ġso va
Ġa t
k en
ĠkaÅŃ zis
ta taj
Ã º
Ð º
Ġvi kti
Ġpren i
Ġf ing
Ġpa gi
Ġmo delo
van to
ku la
Ġkre di
Ġâ ģ£
Ġsam aj
Ġpropon o
Ġanta ux
dis kuto
Ġkam par
' ,
Ġfru a
ĠS lovakio
Ġgre ka
i k
Ġmemor as
li z
B on
Ġdan ke
Ġrimar k
Ġmor ti
om on
Ġkonstru ado
Ġko ordina
s ch
Ġf os
Ġnu ra
Ġperson a
do l
Ġuti la
Ġtem pera
us ale
Ġele mentoj
Ġsukces o
Ġprogra mon
0 8
S C
ĠBon volu
Ġrime doj
ĠCi vi
Ġpsi ko
s es
ĉ Ċ
ter an
Ġle vi
Ġlu das
tr oni
no v
Ġinterkon sen
Ġkonstru aÄµo
Ġdi man
ĠÅĿta ta
Ġe pi
Ġli teroj
Ġeb l
n es
ka Äµoj
Ġser Äīi
Ġce teraj
ĠNeni u
ĠE ÅŃ
P a
Ġkon vers
Ġsper to
ĠK al
si mi
Ġcx ar
Ġvas ta
i z
Ġser vi
ĠIn s
Ġper sek
ĠTi on
Ġefek tiv
g erman
Ġkon gru
t m
Ġli ajn
K o
T T
ĠP u
pren i
Ġordon is
un d
gan o
Ġ5 00
ar ko
ĠO s
Ġh um
Ġf ina
Ġak von
Ġa to
Ġdom on
Ġnaj bar
Ġprojek toj
Ġsi dis
il l
proksi m
Ġf as
ĠLa bor
ĠAm eriko
* *
kom un
Ġhej mo
b l
ÄĿ ejo
Ġprop oni
Ġsupo zas
R a
Ġfer voj
Ġplen umi
tran kvi
an on
ĠIn stitu
Ġe vange
fi cejo
ier aÅŃ
Ġkres kis
um is
Ġgvi dis
d el
ĠKom itato
ÅĿ ton
Ġkom pli
Ġaser tas
ig anta
Ġprogra moj
uj on
Ġling vaj
per e
ling ve
Ġfor toj
zi oj
to so
âĢľ .
Ġsiste mon
Ġfor igi
ð Ł
ar do
Ġmal kon
Ġgaran ti
ta Äµojn
Ġdirek toro
ri taj
ĠR omo
Ġta l
M a
Ġlern ado
ber a
Ĥ ¬
Ġd ama
pu ti
Ġm uzeo
lan to
j et
st u
ig ado
Ġdif ini
Ġprefer as
ma to
Â ²
Ġkato lika
Ġarb aro
ĠAÅŃstra lio
ĠSove tun
Ġp al
Ġgajn is
ka ta
mi lo
Ġprezi dento
Ġpris kribo
Ġk ra
Ġval oro
i da
Ġte o
Ġbon ven
minis tro
Ġmalal ta
Ġpopo l
Ġk nabo
ĠÅĿi aj
Ġinfor mon
Ġvar ia
f f
ĠTem as
Ä ´
ÅĤ a
s cien
Ġes tro
ĠP l
Ġres ti
ri ch
Ġsubten i
ĠJer usale
c u
or as
ĠUnu e
al ojn
7 5
Ġman ojn
Ġrakon tis
ajn as
n oj
Ġkons ul
n y
Ġkla ra
? "
ÄĿ ita
Ġvizi to
tag me
f os
Ġb om
dis toj
ĠUkra inio
or ita
as pe
Ġkva lito
graf ia
ĠG NU
ĠS pe
Ġlern antoj
Ġtradu k
Ġ200 3
Ġ Î
Ġal fab
ĠK re
ĠEsperan tista
kci oj
ĠMon d
ĠPaÅŃ lo
Ã Ĥ
Ġo be
Ġro lo
E F
Ġfar itaj
h am
il is
Ġpov u
ĠSek ve
Ġneces a
Ġblo g
Ġem fa
6 8
teks to
Ġes en
Ġvar me
Ġrakon tas
4 9
Ð »
Ġproble mon
Ġmuzi k
Ġeventu ale
0 5
ur is
Ġdi ru
, "
Ã ¸
Ġsoci alis
Ġse kso
te dra
Ġide ojn
. :
Ġto m
Ġda tre
Ġb ordo
zi on
pos to
Ġgerman aj
or gani
Ġbil don
Ġkura ÄĿ
4 5
re jo
Ġdeman don
t z
klu zi
Ġs alaj
ĠF i
don a
Ġel spe
Ġobjek to
Ġme tro
6 6
Ġa res
ci an
da taj
Ġnaci oj
e v
Ġbe laj
ĠS il
ĠSu da
ta dis
es tr
ĠT aj
Ġklari gi
s aj
Ġmalf eli
Ġkas telo
k loj
Ġe toso
Ġla go
Ġkap ti
0 9
kime dia
li kto
.. ..
ĠPar la
ĠT rans
Ġar te
j an
Ġs ki
Ġ www
Ġpen so
ĠaÄīe ti
Â ®
Ġof en
Ġkon ek
ĠNor da
Ġsub jek
ĠH an
Ġte orio
Ġfor pas
Ġaspe kto
Ġdif ino
Ġstran ga
d umo
e go
Ġkur soj
Ġfil moj
tri o
n un
gran da
Ġnu kle
Ġgrande ga
emo kra
ÄĿ inta
ĠB an
Ġdeman d
f ron
Ġf an
um ado
ke jo
Ġestr ar
Ġsub e
ĠRa dio
zon oj
spe kti
ĠaÅŃ d
ĠLing vo
l un
Ġi zo
ri ko
di gis
Ġven to
Ġaldon is
Ġs cio
0 6
N u
Ġpro kla
F ran
man iere
Ġeli ris
g el
al d
Ġflu gi
ber to
ĠaÅŃto ma
Ġver da
Ġkonsider i
Ġre kta
LI D
Ġch ar
porno grafio
Ġag ri
Ġan arki
Ġpu ri
Ġpri labor
Ġtradi cio
Ġtra pas
Ġfra toj
Ġkonsen tas
k el
ĠSovetun io
Ġg o
pa do
Ġpartopren o
Ã §
Äµ e
ĠFo lio
Ġgerman oj
li oj
Ġkompu tilo
ta go
er s
Ġmal trankvi
f gan
f as
Ġc on
Ġstruk turo
Ġde parte
Ġsemajn oj
Ġrapor to
ĠBel gio
, âĢĿ
ĠV oj
ĠÅĿi an
uz e
Ġpe to
Ġkonsider ata
Ġprofun de
Ġlon gaj
Ġor to
Ġme za
Ġkoncern a
ĠB lan
ĠaÅŃskul ti
in tan
Ġfun kcio
ĠJ or
Ġ co
Ġinter reto
tas tro
ti g
ĠMon da
Ġun un
g lute
dis to
Äī ismo
v Ã¡
Ġka zoj
Ġor nam
Ġi ÄĿas
Ġlern as
Ġlas is
ĠD ia
Ġfin is
ĠÅĿan ÄĿo
Ġme troj
daÅŃ rinde
ĠR os
ĠKom isiono
Ġfil oj
Ġprodu kta
Ġinflu o
ĠPo li
emble o
k tor
Ġindustri o
Ġplen kres
ke to
Ġle ÄĿ
Ġkomer co
P re
Ġle tero
k las
ĠAn ton
Ġunua foje
Ġsen t
Ġkol or
b li
vor te
ĠE S
ĠS em
man iero
minis tra
R A
Ġpas is
ĠCh ar
Ġinternaci an
Ġde ba
ig ra
Ġsol vo
le o
Ġstu dis
} }
ĠserÄī as
VA LID
ĠB ona
ĠC as
Ġmals ano
âĢľ ,
ang le
âĪŀâĪŀ âĪŀâĪŀ
Ġa ma
pe ten
mi li
Ġla u
ĠT ro
Ġdezi ris
Ġkon kre
Ġliber eco
cen tro
Ġkondu kis
I li
ĠB arato
S ur
re gis
Ġre e
m ame
Ġs kan
Ġener gio
ĠH am
Ġeks kur
Ġn acio
k cep
Ġsta tis
vin eo
Ġpro vo
ub ile
Ġkon k
Ġsi l
Ġpublik igita
temp aj
Ġek i
Ġdok umentoj
Ġpu ra
Ġv ul
ĠM ad
i to
Ġsufi Äīas
Ġle gantoj
ir kaÅŃ
ko le
Ġorganiz ado
ĠCen tro
Ġfilozo fio
ĠÄīa pi
ĠCe tere
ÅĿ oj
Ġkres kas
ÃŃ n
Ġtemp oj
d es
Ġko ti
Ġspe cialan
Ġal tan
din to
Ġpli a
Ġmalbon e
m uzi
Äī uro
Ġvo lo
An kaÅŃ
Ġreda ktoro
Ġi ama
n aÅŃ
Ġs istemoj
Ġri Äīa
e f
Ġrespon do
ĠEk zistas
Äīi Äīo
Ġrif u
ve blas
ti kon
Ġeb la
Ġkom itato
ami koj
Ġsekreta rio
Ġkres ko
ĠBer lino
ĠFin nlando
Äī er
Ġpar tn
Ġuson aj
Ġa ven
Ġproce zo
Ġal ven
Ġfirma o
! âĢĿ
T E
Ġvide o
ĠC a
Ġaten dis
Ġdom oj
ĠKar lo
ĠÅĿ los
le con
Ġaten ton
Ġl ud
Ġekster a
Ġman ÄĿi
eb lan
Ġsol vi
Ġt on
Ġsu de
Ġfra ÅŃ
Ġsek vaj
Ġrespon di
Ġminis tro
Ġg lor
kul tura
Ġraj tojn
Ġpri vata
Ġpa po
Ġmi ra
Ġ198 0
Ġfamili oj
ta kto
Ġsendu be
Ġdire kto
Ek de
I M
ĠpoÅĿ t
Ġb or
ĠD os
L A
ti van
ĠH in
Ġkonta kto
Ġpa per
Ġba za
Ġi e
ĠK ri
a kti
Ġtradu kis
s al
man te
gx is
Ġsin sek
b us
Ġ4 5
Ġti po
dan o
Ġbon ajn
Ġhej men
ĠLon dono
h al
ĠP alest
ĠKa to
ĠÄīiuj are
Ġfo toj
on g
pre zidanto
i ch
Ġokaz on
din da
flu ti
Ġf ri
ten i
Ġpe ti
ĠJ ar
ke o
Ġklu bo
k ras
la u
Ġhel pon
Ġvas te
pe to
i ojn
ta ge
f aci
Ġuz ante
Ġplan toj
Ġpar ko
Ġsus pe
Ġbra zi
Ġa kade
el ojn
Ġb ud
Ġm uro
Ġrapi da
Ġfor iris
ti gon
pe lo
tn as
Ġkon ver
Ġtiam a
Ġmalsu pren
perni ty
4 4
ĠâĢ ķ
Ġfon toj
Ġpoli co
tra du
ĠVin ilkosmo
ĠÄĿis da
Ġakcep tas
IN VALID
Ġko do
ĠOri enta
Ġsub pre
Ġkomer ca
ĠMe di
Ġpo laj
ajn o
men ton
landan oj
5 9
al istoj
Ġpli for
ĠU S
ĠSve dio
Ġter or
Ġkoncep to
Ġdis pu
Ġbaz ita
Ġb us
T A
Ġnom bron
tin da
ĠB ab
Ġeldon ita
Ġregu le
g ro
Ġpar en
ĠIr lando
Ġprinci po
Ġki aloj
Ġi ta
Ġka tal
in k
ĠÄĪ io
Ġsek van
Ġfin iÄĿis
Ġmer ka
Ġre gas
Ġ9 0
s ko
Ġuz on
Ġreli gia
ÅĿ uti
Ġbibliote ko
Ġfor tika
us ta
ĠB ro
Ġpli aj
ver o
Ġ- --
Ġkre d
U N
Ġan oj
ĠAr gen
le toj
Ġsen to
Ġtradu koj
Ġmal l
Ġar boj
Ġparti oj
P L
ĠCer te
em i
Ġfor t
Ġating as
elon ge
Ġdiferen co
ÄĪ ar
Ġreg no
M ia
g aÅŃ
Ġk ron
na lo
an taÅŃ
pen si
s istemo
Ġde ter
Ġa stron
ÄĿ eni
b ir
va Äµoj
4 6
ĠE du
po l
Ġimperi estro
Ġs to
te o
ĠantaÅŃ aj
Ġinteres o
Ġkom panio
Ġal u
um as
Ġkom bin
Ġver kita
gi ono
Ġha vu
ĠIzra el
Ġkonf lik
Ġserio ze
Ġmalo fte
ve tur
ti m
Ġmi loj
19 8
n is
Ġdis de
Ġoka zi
ĠT ia
Ġpar tojn
J e
7 9
ig no
Ġbazi ÄĿas
Ġsta ci
g re
Ġla ux
ti an
Ġmarbor do
Ġsig no
Ġvenon ta
s ter
Ġb r
n omo
Ġli gno
ĠEsperan tis
kciden to
Ġde ven
in ojn
ĠT ele
ro mp
Ġsubten o
S a
er aj
pi cx
N M
Ġi ru
5 5
Ġar baroj
Ġce tere
ĠaÅŃtor oj
ĠLito vio
Ġen spe
Ġnor de
Ġmalrapi de
Ġorgani zi
Ġs tan
ÄĪi uj
Ġbir do
Ġtrans lok
Ġkoncern e
Ġkons tante
ĠB ir
ĠF ri
Ġka tastro
zo lu
ĠdaÅŃ ris
s per
ci do
Ġperson e
Ġh aÅŃ
Ġpo sta
Ġjarde koj
Ġali ÄĿis
s et
Ġru ÄĿa
S u
Ġpor de
Ġdi alo
Ġrest or
Ġmal he
i ra
Ġsufi Äī
i do
Å ¾
din te
Ġiuj n
Ġven kis
Li bera
ĠEsperan tisto
pan oj
J a
Ġado p
i ma
nask iÄĿis
c y
Ġne o
ĠG er
mi r
Ġfen estro
Ġli go
zi aj
Ġamas komuni
om eno
Ġpa c
0 7
Ġpro vas
f al
an ton
Ġp ej
b ran
aci aj
Ġsukces e
Ġparla mento
Ġhi po
g ulo
b ab
Ġsendepen de
Ġre en
ĠP res
Ġokaz inta
m po
Ġtradu kado
Ġmalsu kces
... ]
Ġdifin ita
M ul
ĠIJ K
Ġter a
b elo
Ġpre zo
Ġlon gan
ling vis
Ġin teli
Ġprofun da
b ano
Äī ero
Ġâ Ĥ¬
Ġhe zi
ka u
Ġparo lantoj
Ġmaten e
Ġp et
T a
Ġkon ferenco
ks oj
c s
i ras
far ita
men tojn
Ġkon is
Ġkuti ma
r um
Ġla st
ĠÄīe val
Ġju da
Ġopini on
kis mo
Ġb re
Ġs vis
ĠaÅŃ ton
Ġapar taj
Ġkura cisto
ti l
ĠC ol
Ġkonsek ven
la roj
ti e
Ġkonstru is
Ġim perio
ĠBu da
ti me
ĠNe w
Ġekster e
ĠM ala
Ġflor oj
Ġak uz
Ġdeks tra
Ġkvar talo
Ġkultur oj
æ ľ
va Äµo
Ġma ksim
Ġaspe ktas
Ġ197 0
Ġplane do
ek zemple
5 2
Ġorgani zoj
s in
Ġse min
Ġma les
L O
Ġkoncern as
Ġpie doj
kti taj
ÄĪi u
A M
la ra
Ġfor mas
Ġhom on
bu o
ĠAng lio
Ġa te
ðŁ ĺ
tor a
ĠÅĿta t
ĠT or
Ġdon ita
9 0
ĠG rek
a ux
Ġinstitu cioj
l ismo
am eriko
P li
Ġe min
i ki
Ġe mas
Ġg aj
Ġdisvol vi
ĠL en
Ġlim igita
Ġki alo
Ġregi on
Ġbata l
Ġp aÅŃ
Ġre tro
ĠM er
ĠI I
Ġlas tan
Ġre cen
Ġvi dos
Ġper s
Ġpre tas
Ġven ko
b ita
Ġp ul
Ġpil gri
in stru
Ġkole kto
ĠO kcidenta
Ġfrem daj
li broj
ĠB re
Ġren ov
p in
Ġali flanke
Ġali ÄĿ
A m
Ġaper o
ĠÅĿat us
an ojn
7 2
Ġdok umento
ĠbedaÅŃ rinde
Ġa goj
ĠA u
Ġs xi
Ġin teg
ĠÄĪ ina
Ġpo vo
vi den
Ġreprezen tas
Ġmal ÅĿ
ĠKa tegorio
ha t
ser vo
ĠV ene
Ġf ut
ĠV e
Ġdan kas
ĠM uzeo
Ġven i
mal pli
bo ok
Ġs kulp
Ġkon tras
Ġg ub
Ġgra vajn
vaj o
Ġflan ke
Ġteks tojn
Ġlis ton
b aro
Ġper cep
ĠTa go
Ġopor tun
G ran
ĠO l
i u
z aÄµoj
ier on
for me
Ġmalj una
Mon tri
Ġrila tojn
Ġdisting i
h ttp
Ġviza ÄĿ
Ġaten di
Ġgx in
ĠÄīees tis
D an
por to
h r
Ġmi d
ĠD emokra
kor aÅŃ
Ġprin co
ĠaÄīe tis
Ġin aÅŃ
bi cio
Ġvolon te
INVALID INVALID
Ġkonf uz
Ġme zo
Ġrice vos
ĠÅĿan ÄĿis
Ġklas ika
Ġkonf likto
ã Ģ
Ġkam poj
Ġkristan a
fi ka
Ġkonstru aÄµoj
vi l
ĠF eli
Ġhel pos
ligi taj
g na
Ġp run
ÅĿ on
Ġdemokra tio
Ġpre di
ej ojn
Ġs lova
ig aj
Ġmal ka
Ġsci po
Ġkan tis
K vankam
Ġ3 00
ab lono
Ġa bon
Ġti mo
Ġkom peten
Ġdi fek
Ġrapi d
Ġeni ri
Ġinterv ju
ĠS ame
ci ta
Ġb es
kons ento
Ġseku reco
Ø §
ce le
ĠO ficejo
ĠMeksi ko
Ġk ver
Ġesper o
d t
Ġkom an
Ġter ura
f u
p lej
Ġrenkonti ÄĿoj
Ġkv ara
Ġuz u
ĠAn jo
Ġinfan ojn
ĠLi aj
Ġdeman dojn
Ġmalkov ris
A ÅŃ
f ino
Ġver kojn
Ġk anta
Ġrezul toj
7 6
Ġkol er
por t
ĠÄīe Ä¥a
a z
Ġen tenas
ĠL ern
ki lo
... )
Ġinteres aj
ĠÅĿ er
ĠG ar
Ġuz anto
Ġaga don
pe di
5 4
pa bla
Ġsitu acion
G la
I O
Ġdeci di
Ġmem oro
Ġper spekti
Ġspe kta
Ġed zi
Ġprakti ko
Ã ±
ĠkaÅŃ zo
Ġpersek u
âĢ¦ ]
Ġhej me
Ġklari gas
T rans
Ġorien te
Ġtele vi
Ġalb umo
un g
Ġkre dis
kan to
Ġan ti
ĠH u
Ä Ľ
da go
ĠL A
Ġpli gran
ĠÃ ª
ĠF ilo
Ġam uz
paro lantoj
Ġhazar de
Ġradi koj
Ġv on
d al
Ġle ÄĿoj
ĠV an
ĠI rano
Ġreprezen tantoj
di go
Ġel mon
Ġd er
Ġbezon is
h om
Ġkva dra
Ġpermes is
Ġl un
Ġto ler
Ġinteli gen
Ġso pi
Ġstu di
ĠJoh an
Ġmalfru e
n on
Â ´
Ġti mas
de o
Ġentrepren oj
Ġle gen
Ġrespon das
Ġsim bol
I R
Ġsi dejo
man o
Ġdistan co
z ino
Ġel di
lan de
Ġelek tro
fer oj
voj e
ĠtaÅŃ ga
Ġte g
c al
l isto
Ġeldon is
Ġ zono
Ġdon os
Ġpor tas
T M
Ġpar ame
ĠS h
ĠaÅŃ di
Ġc elon
Ġpre ta
Ġdis kon
Ġorigina lo
ĠE uro
ĠKi e
Ġrespekti ve
Ġvesper e
tedra lo
am on
Ġre gn
Ġvar ma
pro ble
Ġru ÄĿ
Ġdeman di
Ġmalgran dan
ĠA le
Ġpubli ke
ĠÄµ ur
po le
Ġprop rajn
k lin
ĠA b
ĠÄīi a
Ġkap tis
Ġve ge
Ä ĩ
ĠÄīiuta ga
c in
Ġdispon ebla
ĠHo diaÅŃ
mon da
Ġland li
t ujo
Ġalpor tis
Ġg ej
E E
li am
ĠW al
rojek to
Ġd ro
ĠP ara
alu ton
Ġpej za
g in
Ġstu do
Ġknab ino
5 8
Ġdi ab
ĠF ar
Ġflan koj
ton a
Ġmul to
Ġgvi danto
Ġsimbo lo
Ġmal ÄĿoj
Ġkomun an
Ġpra v
ĠKol om
j ojn
Ġden as
Ġres tos
ĠkaÅŃ zas
Ġkondu kas
uza iko
Ġc m
Ġgeed zi
Ġser vas
Ġstari gis
it y
Ġmuzi kon
Ġinvi tas
Ġsom ero
emon io
Ġnom ojn
Ġpriskrib as
Ġj ena
A fri
Ġsek v
Ġprodu kto
Ġteritor ioj
gan taj
Ġsendepen da
igx is
c lap
Ġpre fi
ĠKon takto
ĠMe z
Ġprofes ia
Ġmenci ita
ta ga
pa co
Ġvoj oj
y le
Ġsa vi
Ġscien cistoj
4 2
ĨįãĨįãĨįãĨįã ĨįãĨįãĨįãĨįã
Ġopini is
Ġf ro
Ġbe lan
Ġinkluzi vas
Ġanon cis
de ble
ĠH om
ĠMi lito
Ġfra zoj
0 3
Ġf amaj
ĠR uman
ĠTi un
Ġekster landaj
ĠBuda pe
Ġmalfer mis
ti aj
Ġmi z
Ġli gn
9 9
Ġforges is
ĠÅĿ par
Ġkor e
Ġnorma la
Ġsam ide
Ġnun tempa
b ado
Ġne e
Ġpas inta
5 7
Ġb esto
Ġkom for
Ġsan kt
4 7
ÅĿ t
Ġdezi ro
ĠÄĪeÄ¥ io
Ġdi kta
ĠW e
f r
kri bu
Ġinstru i
Ġprovi zor
Ġzor g
ĠSpiri to
Ġorganiz is
Ġpor tuga
Ġdeman das
Ġenha von
u i
u li
ig ata
Ġsa ÄĿ
Ġkonsen tis
de ko
Ġokciden te
Ġkoncer to
Ġversi on
Ġ3 6
ĠMe dia
Ġe po
Ġne go
5 3
ĠÂ ©
ĠF u
Ġvali das
Ġcirkonstan coj
Ġf e
Ġel ÅĿu
ĠB j
Ġmor gaÅŃ
Ġneces e
! )
Ġstra toj
Ġligi taj
Ġentrepren o
Ġsinjor ino
âĢ ŀ
aÄĿ e
ern a
Ġsukces a
ena to
Ġinklu das
Ġd eri
es ti
4 1
ĠMar i
Ġmalproksi me
S ek
Ġskrib ita
Ġelek troni
ĠJe an
end aro
lo ven
Ġplan o
Ġi lus
Ġeble con
Ġhistor iaj
le t
di lo
ĠMal graÅŃ
Ġprakti ke
Ġaktu ala
B a
Ġde longe
ĠHel po
s kribo
ur ojn
Ġel tro
Ġins uloj
vor to
Ġkoncen tri
Ġkons on
Ġpl us
Ġek kri
Ġreligi aj
ç¤¼åĮħç¤¼åĮħç¤¼åĮħç¤¼åĮħç¤¼åĮħç¤¼åĮħç¤¼åĮħç¤¼åĮħç¤¼åĮħç¤¼åĮħç¤¼åĮħç¤¼åĮħç¤¼åĮħç¤¼åĮħç¤¼åĮħç¤¼åĮħ ç¤¼åĮħç¤¼åĮħç¤¼åĮħç¤¼åĮħç¤¼åĮħç¤¼åĮħç¤¼åĮħç¤¼åĮħç¤¼åĮħç¤¼åĮħç¤¼åĮħç¤¼åĮħç¤¼åĮħç¤¼åĮħç¤¼åĮħç¤¼åĮħ
la va
ĠE str
iÄĿ anta
Ġkonta kti
Ġversi oj
Ġde mon
ce book
h ol
Ġprele go
p r
Ġki en
hi bicio
ĠdaÅŃ ras
Ġto mb
Ġi lo
Ġta vo
Ġsek vi
k anta
ver so
ä ¸
ĠL is
Ġins tan
Ġklari gis
ĠÄĿarden o
Ġraj to
Ġ19 20
Ã ¹
Ġdeta le
Ġvila ÄĿ
y n
ÄĿ ado
ĠG al
ori zon
Ġta len
ĠB or
Ġgvi dantoj
k ru
Ġre ale
pen ha
Ġe ch
Ġre zolu
Ġver bo
lern ejo
Ġak ci
ĠSan kt
Ġpri pens
ĠMar ta
ĠA lia
Ġekster aj
logi on
f re
paro lo
Ġ196 0
ĠDan io
Ġ( =
Ġobjek toj
Ġd rin
Ġkri zo
ins ulo
ĠS tan
Ġfinan ca
d ri
as tio
Ġmer kato
Äī ita
Ġfru kto
Ġ199 2
z umo
Ġi ros
ÅĤa w
Ġv alo
Ġmem brojn
Ġmili ta
Ġtradi ciaj
ĠParla mento
me ti
Ġgen ro
Ġ3 2
Ġsim pa
Ġsen Äī
Ġekzem ploj
ĠB il
it h
p us
Ġviza ÄĿon
ĠArgen tino
to logio
ĠD SC
ĠI uj
Ġurb eto
Ġmeto doj
Ġoper aci
Ġpoem oj
Ġplen an
Ġinstru istoj
4 3
ling voj
d om
ch er
Ġge amikoj
Ġres publiko
Ġpartopren as
ĠantaÅŃ vi
Ġ199 9
ĠA ma
Ġoku pis
Ġremem or
e ge
Ġe tn
Ġeks plu
Ġabso lu
es ko
Ġgra v
Ġter on
Ġpost ulis
0 2
man oj
Ġel labor
Ġsimp laj
Ġf anta
Ġkre ado
g umi
Ġh eb
ĠInstitu to
K K
iÄĿ oj
ten on
Ġkomple ta
Ġmodern aj
Ġpor no
dek naÅŃ
Ġanali zo
Ġper fi
Ġvol us
ĠVir g
d amo
j uo
s ol
Ġro bo
Ġvalor on
Ġcer tigi
ĠAm eri
ĠRe ÄĿ
Ġaper os
Gla Äīero
Ġdeter min
Ġ4 8
Ġregistri ta
Ġs ano
Ġpor tis
Ġrete jon
ÄĿ ante
Ġme tas
ĠÄīes is
Ġa mon
Ġver ki
Ġpopo la
Ġhav us
Ġnen ia
Ġpubli kaj
â ĸĳ
lan taj
ĠVi eno
S en
W iki
Ġrez ign
12 34
es ulino
Ġret pa
ĠR aj
Ġperson ojn
Ġne ga
Ġh id
ĠM is
Ġradi ko
Ġfen omeno
de zi
lan oj
J am
S aluton
Ġintern e
Ġprin c
Ġc om
Ġpas troj
g eno
ke toj
ĠÅĿi r
ĠkaÅŃ z
Ġal ko
ĠL igo
Ġseku re
P e
Ġn ere
dan ÄĿ
ĠKon go
Ġbil dojn
Ġkris tanoj
Ġgaze toj
1234 56
Ä ģ
ha veno
Ġespri mas
Ä¥ i
Ġe jo
Ġjar e
Ġgra do
Ġ199 5
Ġfru aj
k ino
ĠW a
Ġkol oro
87 65
deknaÅŃ i
. âĢľ
Ġfrem d
ĠF lor
Ġinteres iÄĿas
Ġara ba
p ru
ta loj
Ġkonkur so
p il
ks io
ĠÅĿ ata
ĠÄīe Ä¥
Ġlu kto
ĠPor tuga
Ġkarak tero
da to
Ġle teron
ba lo
Ġkla r
d oro
f ia
dan taj
vor toj
ĠDan kon
ĠMad ri
Ġdan kon
Ġblan kaj
Ġmon tr
Ġfar iÄĿi
Ġefi ko
va don
Ġak v
tre jo
ĠKon stitu
Ġkapab lo
Ġkunsi do
Ġ ×
Ġp into
Ġkon ker
Ġtas kon
Ġdatre veno
Ġsor to
E U
ĠF il
Ġparla men
Ġ199 1
p aci
de bla
K el
Ġu kra
ĠÄĿoj o
Ġ199 8
Ġespri mis
n as
n aÄµo
Ġa gi
te loj
ig an
Ġpl um
ĠW or
Ġrekon stru
ks aj
Ġrete joj
7 4
Ġmili ton
Ġadminis tran
in an
c ri
S i
Ġpor na
Ġmor tigi
Ġre for
Ġman ÄĿas
ĠB ud
" ).
a kte
ĠS im
Ġj ubile
Ġcer taj
P ER
Ġe taj
Ġofi cejo
ĠJa ko
ĠNor ve
ĠB rita
Ġpas i
ĠKro a
ul t
Ġtra fi
Ġindi ki
st ri
Ġinten cas
Ġkom b
ĠV jet
Ġrice v
Ġrigar do
ĠMos eo
Ġelsta ra
Ã ª
Ġg im
em oj
Ġ[ ...]
kur is
ĠAm baÅŃ
Ġfilozo fi
Ġmateri aloj
tor i
Ġtra fis
Ġli cen
Ġokaz oj
ĠV es
ki e
ĠLi bro
Ġekster ordin
Ġpren as
Ġcer t
Ġprojek ton
Ġdeparte mento
mon s
ĠAn ti
Ġvar m
m oni
ĠÄīef ministro
6 3
Ġsper tis
ĠtaÅŃ gas
Ġrifuz is
ĠP ala
Ġgran deco
ĠFran ca
Ġeks pozicio
ga lo
T ra
ĠEst on
tagme ze
ti to
da don
Ġle ganto
L ing
ĠS tra
Ġrakon toj
Ġprinci poj
ĠWil liam
ĠPalest ino
Ġe gal
le jo
Ġs ul
Ġre ÄĿis
Ġb ono
Ġeble co
os o
Ġsen con
Ð ²
ĠR igar
Ġman kis
fun kci
Ġvizitan toj
Ġare oj
er ni
Ġf ul
man a
Ġnova Äµoj
Ġsukces as
s pi
ci taj
ĠÅ ł
an ÄĿ
ĠS t
ĠÅľ ablono
o kaze
te lon
Ġkom pan
Ġ3 3
Ġmuzi ka
Ġ199 3
6 1
ĠK en
Ġmili ar
Ġpre ten
J o
ĠPo pola
Ġrime dojn
Ġkultur aj
li p
Ġpro pri
Ġse t
6 7
D i
Ġ3 8
Ġplur foje
Ġkondu to
Ġfavor e
li bron
Ġar bar
Ġrespon don
s or
w n
B I
Ġli moj
k ia
k anoj
Ġad reso
Ġespri m
Ġreda kti
wi kipedia
Ġin ÄĿeni
Ġpar ale
Ġlu doj
Ġorganiz aÄµoj
ta raj
Ġle v
Ġlitera tura
Ġordin ara
fran ce
ĠG ol
tin te
ĠDis tribu
v ing
Ġchi uj
ĠKata lun
ĠKomun ejo
Ġju ro
ĠÄĪe Ä¥a
K ore
Ñ ĥ
ĠM aj
ĠdaÅŃri gis
Ġkomenc antoj
ĠJun ulara
alisto ko
ĠaÅŃtoma te
a tas
Ġal ti
Ġekvi dis
Ġmaldeks tra
ĠeÅŃ roj
Ġdipl oma
ĠRuman io
Ġrez is
Ġ x
Ġo s
Ġinter re
Ġsufer is
ĠBi blio
Ġen ga
ĠFrancis ko
ĠT on
Ġka f
Ġ15 0
ĠAleksand ro
di gita
si on
Ġinstru as
LE I
Ġlo kojn
ĠPe ter
Ġspeci fa
Ġanta u
Ġten is
ĠZ am
Ġpozi cio
in teco
Ġpo vi
Ġmon toj
Ġmor tigis
Ġesperantis ta
Ġaga doj
Ġtea tro
Ġali ÄĿi
Ġâ ĸĳ
Ġâĸĳ âĸĳ
Ġkon ci
Ġek ha
Ġrimar kin
en c
sta ta
Ġsin teno
Ġkor on
Ġmalfer mita
Ġaran ÄĿoj
Ġli b
Ġmal pu
ĠkuÅĿ as
Ġkomple te
ĠH al
me tis
Ġenkondu ko
an co
di gas
ĠT eks
ĠD E
ĠR ej
ĠÂ» .
Ġkomenci ÄĿas
tri kto
i tajn
Ġmal lar
Ġbra k
te joj
Ġha vebla
Ġvo kis
Ġturn is
g li
Ġt eni
Ġte mon
g vi
Ġdezi r
nom braj
ks on
, [
Ġri kol
ĠLi tera
Ġeks pozi
f ina
ĠP A
ĠPar to
ĠT ar
Ġfra tino
se kso
tri ta
ve blaj
men io
Ġsta tus
ten oj
ĠG ru
ĠO li
ĠT an
7 1
Ġs ing
Ġvi vanta
Ġnom ataj
ang la
Ġsper toj
Ġna ture
st roj
ĠFran k
- )
or ado
Ġajn an
ÅĿta toj
ĠRu ÄĿa
ĠĠĠĠĠĠĠĠ ĠĠĠĠĠĠĠĠ
Ä Ļ
ti la
es te
Ġtempera turo
Ġ194 5
Ġata ko
ĠBe daÅŃrinde
D O
Ġek estis
Ġtri dek
Ġimp li
lin io
ĠÄĿoj as
Ġlar ÄĿa
Ġmesa ÄĿo
em an
ten is
ĠB os
Ġhor ojn
Ġfeli Äīa
h en
Ġfor ton
lu bo
ĠKan tono
Ġima gi
Ġvi va
Ġmi ri
Äīe co
ĠhodiaÅŃ a
Äīam bro
ĠÄīe esto
Ġman ÄĿo
Ġang ulo
Ġkonstru o
Ġfoj o
h tm
tin ta
Ġprele goj
Ġne aten
bliote ko
Ġuni ka
Ġmen cio
is e
Ġsta ÄĿo
Ġfer vor
Ġreven i
ĠGrek io
R o
k ara
Ġli tero
ĠkontraÅŃ sta
ĠDos iero
Ġvi co
pre mi
Ġad jek
Ġg u
ch en
Ġfran caj
Ġneder landa
es ton
Ġdi ros
Ġapar tan
Ġtele vido
Ġokciden to
t una
Ġri pro
pro gra
gran d
Ġho telo
ĠR on
Ġtradu kon
ĠMin is
ĠB r
Ġgru p
Ġprakti ka
h ard
Ġreali gi
os pita
Ġantik vaj
ig e
ing a
Ġorganiz ita
Ġnask iÄĿo
ĠvoÄī oj
ĠD es
Ġbon far
Ġtro mp
ĠVer da
KOKOKOKOKOKOKOKO KOKOKOKOKOKOKOKO
C O
N ia
Ġneni an
Ġsoci alismo
esperan ta
Ñ ı
li g
Ġaldon as
M e
f fi
Ġinfor mi
Ġprogram aro
m m
Ġtemp lo
ĠG ri
ĠVor taro
or aj
Ġar tistoj
Ġepisko po
ĠMond milito
ÅĿi po
Ġvide blas
ĠL and
ĠG ro
Ġver an
ĠT TT
Ġdis sen
Ġesperan taj
Ġbone ga
x oj
d ina
p t
ci k
Ġg lu
Ġkons tanta
Ġap ara
Ġkor pon
Ġkateg orio
V er
ble co
Ġvila ÄĿoj
Ġnatur aj
Ġver kistoj
ĠdaÅŃ r
Ġdisvol viÄĿo
ĠPre zidanto
Ġpens oj
Ġfu rio
Ġmuni cipo
ĠSin jor
Ġpon to
te la
Ġin ves
ĠFon dumo
Ġpro v
ĠW ar
Ġpala co
Ġfa ko
Äľ is
lo v
Ġins ek
Ġplan as
Ġmalami koj
Ġkilome trojn
ĠE li
ĠKroa tio
ĠS om
ĠPa po
5 1
U S
ni ko
for maj
ĠTur kio
Ġesti ÄĿis
Ġ199 4
Ġfor tan
Ġma po
Ġm ask
Ġpro to
kon o
ĠÅĿan ÄĿojn
Ġeb en
Ġfran can
Ġperfek ta
kluzi ve
ĠMedia Wiki
ern io
Ġkompren o
L o
Ġdi oj
Ġplu e
Ġfren e
Ġor a
Ġofici alaj
ÄĿ antaj
ĠB ern
Ġle vis
ĠBa h
ĠG PL
Ġpoe zio
Ġsuper a
Ġprezi dan
Ġtutmon de
ko sta
um ojn
uj a
ĠÂ Ĺ
Ġkur son
Ġefi ka
Ġega le
Ġcel is
un da
Ġka vali
ch i
ĠÄĿu i
Ġblu a
ĠC x
ĠHis pana
Ġpriskrib i
Ġser Äīo
ka ux
ton oj
Ġpas igis
Ġvide bla
Ġener gi
Ġkov ri
Ġgener alo
s am
ĠK ru
ĠK aro
ĠlaÅŃ le
Ġjus teco
ĠPra go
tan tan
ĠB as
ĠD ion
ce ano
Ġsve da
Ġb la
Ġ3 4
Ġ3 9
grafi aj
Ġde veno
ul ing
os a
pu ro
Ġampleks a
kolor a
Ð ´
ĠM ol
Ġkomen toj
le gis
ĠA ten
Ġnom broj
Ġ193 0
6 4
Ġ 00
di oj
ĠP ek
tu ÅĿ
Ġno kte
la ta
Ġres pub
Ġprodu ktas
Ġkos mo
ÅĿ te
Ġrekomen das
Ġsimi lan
z ado
Ġregis taroj
ĠreÄĿi mo
Ġe cx
Ġde lika
Ġpoten con
Ġsenpa ge
u el
ĠP lu
Ġser v
ĠPri vata
wi ki
Ġkilome troj
Ġjun ulo
Ġ199 7
teri oj
ÃŃ a
Ġcivi tan
Ġtri bun
Ġmili toj
c ar
t umo
Ġmala kcep
Ġinf ana
Ġki r
ĠM un
Ġindividu oj
Ġgrama tiko
Ġpar t
Ġval oroj
Ġtrans form
Ġperfor to
ĠFun damento
Ġh as
Ġkongres oj
ĠWi kimedia
B e
Ġver s
fi ki
Ġri t
li gen
van toj
ĠAr meo
ĠInter na
ĠÄīam br
ĠÄµe tis
Ġver on
ĠÄĿu is
Ġpromes is
ĠUz anto
ĠG vineo
Ġor o
permes ilo
Ġmomen t
Ġi loj
Ġper di
il le
Ġeb li
ĠPa kis
t risto
i p
p rin
â Ĺ
os e
Ġekz ek
b lis
ĠK vin
Ġver k
Ġle ci
ĠAn na
Ġfunkci is
dus o
Ġmes aÄĿ
v igo
Ġp in
Ġpe za
Ġunivers ala
m ono
Ġ ul
ta Äµon
re z
el d
Ġkul p
Ġs ono
ĠKon stan
Ġprezen tita
ĠKo penha
Ġarm iloj
7 7
Ġhel pan
ĠUson a
Ġunu foje
Ġsub ven
Ġstari gi
de mokra
Ġ19 10
ĠC hi
Ġinfor ma
Ġagra bla
Ġmal mo
Ġreg ulo
Ġfir me
Ġgener acioj
Ġstaci domo
6 9
Ġm ek
Ġperson aj
ĠPa ul
Ġ198 9
Ġpa con
Ġscien c
Ġme trojn
Ġkam ara
ĠFili p
tur n
Ġfa ktoj
Ġnig raj
ce li
ĠH ol
b ser
Ġa diaÅŃ
Ġt un
Ġinteres oj
ĠM en
Ġpa ÅĿo
par oj
ĠNi kola
Ki al
Ġtraj toj
N A
Ġk uba
is o
ĠEgip tio
Ġmirin da
Ġbil d
Ġelek tas
Ġrezul tojn
Ġklopo dis
Ġaviadi lo
u k
Ġof ta
Ġpas intaj
Ġkontribu is
b lajn
Ġpo emo
Ġmal kres
ĠÄ Į
kri min
pro vi
Ġstu doj
vad ministra
Ġ <
Ġh orizon
Ġmenci as
vad oro
p ajn
Ġma t
6 2
Ġal teco
Ġdis ko
Ġenha vadministra
ag ren
Ã¡ r
li e
ko t
Ġkal kul
Ġrime do
7 3
ti ÄĿon
f ur
Ġpre mo
Ġsta cio
ĠRe volu
Ġspeci alaj
ĠÃ ¦
Ġsubten on
Ġno kt
Ġtu ÅĿ
p p
ton on
ĠC ha
ĠÅĿa tis
Ġunun ura
N a
ma la
ej mo
ĠKom ence
Ġmili onojn
Ġgru pon
Ġgrun do
Ġ199 6
Ġrila ton
h oj
Ġhal tis
ĠdaÅŃri gi
Ġtrajn o
Ġtom bo
Ġk ub
Ġdis Äīi
Ġtradu kita
ti gu
Ġi gn
ĠP en
tu te
Ġprepar i
men ko
Ġkonsis tigas
ĠAs embleo
Ġkoordina toj
m il
Ġi ÄĿi
Ġmalfer mi
k y
gan oj
gru poj
fi lo
Ġmalami ko
gra de
Ġtito lon
ĠS to
Ġste loj
ĠA fgan
da dis
Ġkan a
Ġg ita
ĠDistribu ata
F ine
Ġes ence
Ġinfor mis
ĠInter reto
g vajo
Ġpoliti kan
Ġreg ulojn
Ġgener acio
ĠPortuga lio
g lu
am as
ĠJo ze
Ġfeli Äī
b ia
è ¡
Ġdo laroj
Ġer aro
I C
ĠM uzaiko
tu la
pro te
Ġamas o
Ġprote kti
Ġh ieraÅŃ
ĠK ur
Ġ5 5
Ã© s
Ġpropon on
Ġori ento
Ġunuo paj
Ġvid pun
Ġfran c
ĠEsperan taj
nom a
K io
kov ri
Ġsal ono
Ġmalvar ma
i doj
ĠO fte
Ġbele ga
l s
aÅŃ ri
Ġnorma le
ĠVi ki
ĠZ e
ĠNun tempe
T V
h n
Ġde zajn
ĠÅĿanÄĿ iÄĿis
Ġen mig
tra ta
Ġfla go
Ġposed anto
Ġv io
Ġre tiri
de joj
B N
âĢ ²
Ġmon taro
Ġfo tojn
Ġve tero
rek ven
ĠIMG P
Ġmanif esta
per is
Ġpro por
Ġkom is
ĠD ar
Ġfor mi
Ġaten te
ĠI LEI
Ġdisku ti
Ġblan k
Ġsufer as
Ġgx is
ĠRe vuo
Ġdire kti
Ġkonsta tis
Ġmova don
R E
Ġno ve
ĠÅĿan con
Ġeston ta
T re
Ġj ur
Ġsin cer
Ġabso lute
ĠRen kon
Ġniv eloj
ĠSam tempe
ĠKore io
te blaj
ĠKatalun io
w s
tin on
paro lis
Ġarki tek
Ġtal k
t ren
ti von
Ġeks pli
Ġbe zono
gu a
' .
u is
Ġpro kras
Ġtem is
ĠVla di
Ġdefen di
or ia
ĠL isto
Ġlabor oj
ĠS on
ĠKato lika
ĠKolom bio
Ġpo loj
Ġfen omen
Ġ195 0
C en
Ġin vers
Ġn ub
Ġin das
Ġparo lado
f la
li c
Ġpor don
ĠN iÄĿ
Ġlan da
Ġeb lis
Ġkontro lo
Ġrapor ton
Ġkontin ento
ĠÄĪeÄ¥ os
Ġsen s
Ġki an
ĠK ara
Ġtiu tempe
Ġpas inteco
ĠÂ» ,
a ÄĿa
Ġmal ÄĿus
Ġmalfer ma
s s
Ġsen ti
Ġmul ton
Ġbu ÅĿo
Ġeten diÄĿas
A J
Ġmi zer
Ġelek ton
en io
Ġfor taj
Ġg ras
um ita
Ġeb lon
ĠMon do
Ġgas toj
Ġserio za
ĠC am
ĠRo bert
Ġsupoz eble
ĠÅĿ u
Ġmesa ÄĿon
en taj
Ġv el
Ġal veno
daj xo
Ġnek re
Ã¼ n
Ġrapor tis
ul d
em oni
Ġsign oj
ĠE DE
Ġtri an
h em
p lik
Ġmal ven
po ka
Ġkom isiono
Ġri d
ĠlaÅŃ longe
ch t
ĠCom mons
ing en
ĠF ern
Ġorig ine
eb o
ĠSi rio
Ġbezon oj
ti mo
ĠCivi to
Ġa gen
ĠÄī er
Ġinter rila
Ġdok tor
Ġekonom iaj
__ __
Ġ3 7
Ġ| |
ĠinaÅŃ gu
Ġh in
Ġh uman
Ġma ga
Ġflu go
Ġplenum as
w in
or us
Ġj ud
Ġer aroj
Ġg ren
co s
Ġkontra ux
m iloj
kciden te
ĠNov jor
Ġapli ki
Ġa Äī
te d
don is
Ġar t
Ġspi rita
ko loj
cien co
o t
Ã¼ r
pla y
S ub
Ġdum e
Ġfrem da
ĠT ek
lan don
Ġsu k
Ġpe dago
A L
Ġa gas
Ġes tante
Ġi gis
Ġriver oj
Ġkomuni ki
Ġtas koj
" ),
ĠI u
Ġfi do
rea tive
ĠDo k
Ġli ter
ĠLe gu
Ġdok toro
tr ajn
Ġspe coj
N ov
ti loj
ĠP on
us kri
fi r
Ġsu dori
Ġfoli oj
P ar
j i
Ġpor d
ve turi
ĠloÄĿ ejo
Ġaser tis
Ġs ku
Ġsi das
Ġfor igo
Ġkon i
Ġpli mul
Ġfren ez
Ġakade mi
ul inoj
G ra
Ġpoliti kistoj
ĠMo dulo
Äī ar
ĠK r
Ġinter konsento
Ġ6 00
AN TO
te toj
Ġg lo
ĠI rako
Ġkos tas
Ġlern ej
Ġsol en
Ġel pens
Ġtre zor
ĠÄīi el
Ġscien caj
Ġcx u
Ġkontribu i
ÅĿ ajn
ĠUn esko
Ġ{ \
Ġkalku li
an der
Ġs telo
Ġme lo
Ġdefen do
F or
Ġs ke
ĠserÄī is
is taj
pa lo
wi cz
ktan to
Ġb ier
ĠS z
du ro
ĠCh ris
Ġkampan jo
Ġp ur
me z
Ġver aj
Ġtu ro
ĠaÅŃto mo
Ġmalo f
ĠSoci eto
9 8
Ġn elonge
voj a
Ġpra vas
Ġescep te
O r
mi le
ĠH or
ab a
Ġcxi u
I L
Ġkri m
Ġmur oj
Ã³ w
Ġkandida toj
ĠGa za
Ġorgan o
ri gi
ĠE K
Ġher b
Ġaktiv uloj
n or
w er
Ġs pon
di te
Ġsam seks
Ġprovi zi
Ġtran Äī
Ġjun ulara
bal l
ĠBudape ÅĿto
Ġnu tra
æľ Ī
Ġs kribo
ĠP aro
Ġproksi maj
Ġakcep tita
Ġjen aj
Ġf em
vi ÄĿas
Ġtie le
ĠNo bel
Ġopini oj
Ġstre Äī
Ġ4 2
vetur is
g uloj
Ġsur faco
Ġkov ras
te go
Ġdefini tion
T he
Ġsu ver
Ġ ~
Ġtro veblas
Ġeksci is
k l
Mul taj
âĢ ī
ĠU sti
Ġespl ori
ĠTut monda
k tantoj
gu la
Ã ł
man n
Ã¶ r
ks em
Ġamaskomuni kiloj
Ġmar ks
Ġsan kte
ĠKopenha go
fer on
Ġnun aj
Ġcer emonio
Ġpere is
Ġforlas i
an kaÅŃ
er no
ĠÄĿi ajn
Ġklas oj
z aÄµo
Ġn ulo
Ġefi ke
ĠFre e
Ġs umo
Ġmi r
ĠSa int
Ġsubskrib is
ĠL or
aci an
lin a
c anoj
Ġe terna
pa ta
kta to
ec aj
Ġnekon ata
u g
ĠSu per
Ġi doj
Ġma poj
Ġlin ioj
s ign
Ġres tari
plen aj
and ar
Ġuti las
f to
âĢ İ
ga taj
Ġmo der
da v
ĠH it
ven oj
Ġsam kiel
pu d
Ġaspe kton
Ġkultur on
Ġbab i
man ta
Ġ4 9
ec an
en tojn
Ġan o
de kso
Ġkel ke
Ġbaz aj
Ġklopo das
Ġrifu ÄĿ
H a
Ġflan k
Ġdon u
Ġhun do
b y
Ġnig r
Ġhttp s
Ġgh in
ĠVjet nam
Ġpla co
ĠJes u
8 9
ĠÅĿ to
Ġle gado
Ã £
Ġrigar don
ĠMadri do
Î ±
ĠS ol
vi r
us z
don io
Ġins ul
Ġpoten ca
Ġpale stin
is moj
Ġg ig
Ġta Äī
Ġesperan tan
Ġ4 00
Ġinfor mas
Ġkapita lismo
ĠFeder acio
Ġi gas
Ġforges u
U R
Ġm uze
Ġal fron
Ġju ÄĿis
Ġimpres on
D u
Ģ è
Ġa vi
ĠK D
Ġka dro
Ġter ur
Ç Ķ
ra ta
ĠK ia
Ġda to
Ġpi oni
Ġkur s
Ġmontri ÄĿis
Ġaper i
Ġpun ktoj
ĠE konom
Ġg li
Ġesperan te
Ti uj
Ġdek li
Ġekonom i
lo goj
Ġliber aj
Ġuti li
Ġminim ume
Ġdor mo
ĠFa cebook
Ġ 01
Ġdisku toj
Ġdezer to
M O
Ġele mento
Ä¥ io
K ro
rin te
Ġsubten is
Ġpli ajn
ĠKi r
pisko po
ĠPakis tano
Ġte Ä¥
Ġeks a
Ġfoj ojn
p ia
ĠAn t
Ġstran ge
ĠV ere
Ġnor dori
Ġorganiz as
Ġse le
Ġel ÅĿuti
Ġfor umo
Ġreligi oj
Ġm am
Ġfil on
ĠmaÅĿ ino
Ho diaÅŃ
ĠÄī agren
Ġg ol
eri ka
Ġref le
Ġmon tran
Ġves toj
Ġgas ti
Ġne ÄĿo
Ġko lo
ĠÄīef o
Ġvari as
ĠK ana
ĠM es
Ġdivers eco
gn e
Ġami kojn
Ġrakon t
Ġaran ÄĿi
E ble
G erman
ĠB rus
ĠG ab
Ġbezon ata
ĠUr bo
Ġap lika
Ġtekno logio
Kore io
a toj
pi on
Ġlabor ista
Ġtri o
P oste
Ġa fab
Ġmona tojn
Ġpoliti kisto
ĠM ale
ĠB us
Ġku ir
Ġpopo lon
Ġradi ka
ĠÄīam bron
m s
ran taj
Ġlasta tempe
Ġtru poj
Ġkonstitu cio
om as
Ġlan daj
ĠNe ces
Ġter eno
Ġsitu anta
vide bla
Ġhel pe
Ġaso ci
Ġbrus to
x is
Ġfes tivalo
li ma
Ġkun teksto
Ġfi er
Ġespl oro
ĠTra du
Ð ¼
Ġkun por
ĠN om
ĠÅĿ il
Ki u
Ġokup iÄĿas
g ma
gra fo
Ġesplor ado
ĠBul gario
Ġmal le
ĠMar k
Ġespl oroj
Ġmenci is
ĠNorve gio
Ġre ÄĿa
ĠA IS
kor e
fek tive
Ġkonsider is
Ġk in
ĠKon ferenco
ĠRe gis
Ġvikti moj
ÄĿ intaj
Ġoku pas
re da
Ġkvan ton
ĠEstr aro
n ur
Ġmi kro
Ġmemsta re
ĠR am
Ġorgani za
Ġmallon ge
Ġvetur is
. -
C e
Ġf leks
lau de
Ġsi la
Ġsin dika
Ġkunlabor i
Ġplenum is
v oro
di ono
Ġenke toj
U ni
ĠaÅŃ das
ĠKon traÅŃ
ĠZ a
tion s
Ġadap ti
Ġplez uro
Ġku ÅĿis
kci a
Ġekzis t
ĠanstataÅŃ e
Ġprovi zas
Ġy ou
is tojn
ĠFran c
Ġkol oroj
Ġgerman an
Ġevolu on
p lon
ĠpaÅĿ oj
dis ku
son a
f lor
di on
tri a
Ġvo k
Ġbran Äīo
ĺ ĩ
ar t
ĠJ ES
Ġcivi li
arden o
Ġmateri alon
un doj
Ġkam p
ĠAli flanke
Ġarg umentoj
a di
ĠE x
Ġar ta
Ġbata li
i me
ti kajn
ĠT uj
ĠG or
Ġkri tiko
an tajn
Äµ a
tu o
Ġdisvas tigi
Ġinterv juo
8 8
Ġde legi
Ġre kom
ĀĀĀĀĀĀĀĀ ĀĀĀĀĀĀĀĀ
Ġportuga la
O S
f eli
Ñ Į
ru p
la vo
ti po
Ġf run
Ġtra kti
Ġevolu is
Ġlitera tur
Ġkatoli kaj
Ġan ÄĿ
Ġta ksi
Ġdeci das
c t
Ġv ino
Ġm os
Ġre tum
Ġjen e
Ġfilozo fo
A P
zi l
Ã¡ s
Ġis ra
Ġpen e
ĠÄľ uste
Ġde stin
Ġzor gas
ĠIS BN
è¡ Ģè
ĠSe p
Ġba zon
Ġorganiz antoj
Ġesperantis tojn
Ġmodi fi
Ġ{ {
ĺĩ æľĪ
è¡Ģè ĺĩæľĪ
ĠF al
Ġkan tas
ðŁĺ ¨
E M
v aloj
pren as
Ġplej parto
ĠO kaz
d f
Ġ4 4
V en
k iÄĿis
kon greso
Ġfin na
rigar dis
. ).
tran s
ĠÄīapi tro
Ġinteres e
Ġregu la
f ru
ber io
Ġprofes iaj
Ġmenci itaj
Ġo li
Ġsen das
ĠAndre o
ĠUsti menko
ar y
Ġh im
Ġpla t
Ġkli mato
Ġva por
ðŁĺ¨ ðŁĺ¨
Ġmal gaj
Ġmalri Äī
fici ala
Ġdeci doj
Ġinflu on
Ġinicia to
set ti
va dis
Ġru b
v igi
Ġinteres on
pe talo
Ġunu ajn
Ġven dre
Ġeb ligis
ÅĿta to
Ġat mos
ĠJor dan
Ġekkri is
Ġ ]
Ġk is
Ġpro greso
Ġru in
Ġmalsam ajn
ti koj
Ġsim il
Ġkatal una
b ul
di vi
Ġg lute
Ġpl or
Ġneces o
t to
st yle
Ġf ono
fer m
rin da
ÄĿa dis
Ġprin tempo
Ġorigina lan
Ġti mis
Ġdu foje
Ġpos taj
ciklo pe
ĠB la
so ci
bon a
Ġinten cis
Ġch u
ĠÄµurn alisto
Ġalfab eto
c tor
Ġde fi
Ġg ene
ĠaÅŃ tuno
Ġfi as
Ġpropon oj
j aro
Ñ ĭ
ĠsenÄī ese
y o
Ġp se
Ġang le
- ,
Å Ľ
Ġf eti
Ġfor i
ĠKi om
Ġmals anoj
fa lo
Ġdeci don
Ġrespe kto
Ġelekti taj
201 5
S h
b ris
Ġ tan
Ġfor igita
Ġfon dinto
ĠJu lio
Ġmeri tas
x on
ĠM u
Ġpli an
Ġ198 7
g ebla
k vali
Ġden un
c us
tiko lo
Ġrakon ti
Ġval ora
Ġordon o
Ġuniversita toj
lan taro
m un
t te
Ġinter tra
be la
Ġ ï»¿
ur as
ĠK ali
ĠS loven
ĠP aci
lan ko
Ġdis krimin
Ġra b
ĠSi mp
Ġgla ci
v ara
Ġsen toj
Ġle viÄĿis
Ġnu da
Ġprodu ktis
j oroj
ti ma
ĠJ on
Ġinfor mado
ĠaÅŃto mata
l n
Ġsu d
las ta
ĠIzra eli
Ġkri is
Ġi t
Ġi ÄĿos
Ġpro centoj
las o
Ġsoci eto
Ġmalbon aj
Ġkons il
Ġprofes i
ĠVene zu
ĠS ar
Ġkor p
Ġdan a
Ġekzamen o
do si
l ori
m us
Ġpre mis
Ġri belo
ĠÂ °
ĠI om
Ġkons cio
ĠIn done
Ġfra g
Ġkal endaro
ĠHun gara
Ġre veno
Ġven u
ĠAn koraÅŃ
Ġtur ni
Ġron do
ĠN igra
Ġna i
Ġkan tojn
Ġbrazi la
s paco
Ġli g
raj ta
Ġinteres ajn
f em
Ġman uskri
Ġmas trum
ĠL es
ĠC reative
Ġfa kuloj
Ġ4 7
n ia
Ã Ł
Ġinf ek
Ġ ÅŃ
ĠÄī inaj
Ġb iero
ĠÅľ an
ĠB ea
ĠÄīar to
Ġmodi f
Ġdin astio
ĠMi cha
ÅĦ ski
ra dis
ci as
ĠE ri
Ġpost eno
Ġreprezen tanto
Ġretpo ÅĿton
b ek
Ġ[ âĢ¦]
ba ch
Ġpla Äīas
Ġdor so
Ġkongres on
K ion
e u
i toj
Ġman ÄĿis
Ġkuti mo
Ġmis kompren
Ġmall umo
k var
Ġdis er
me tas
Ġpa pero
Ġvin tro
Ġmortin ta
8 4
ĠK la
raj to
Ġvor taroj
ho u
la mo
Ġtrankvi le
Ġmanier oj
pi Äīo
ĠEk z
Ġpatr on
ĠHen riko
Ġorto do
ĠAnton io
è¡ĢèĺĩæľĪ è¡ĢèĺĩæľĪ
Ġam bas
ĠÄµ et
Ġligi loj
Ġdipl om
ĠAnti cipo
Ġen to
Ġmem br
Ġkos to
B o
Ġg al
Ġsub en
fra toj
Ġrestor acio
f ona
Ġle gu
à ¤
Ġperfek te
K ar
Ġkon feren
Ġinteres as
Ġstu d
Ġgim na
for o
Ġad vo
Ġkuti m
Ġaspe ktoj
Ġe tos
alis ma
Ġprepar is
Ġdepen de
ĠdanÄĿ ero
D F
ĠD en
Ġro mia
Ġplu vo
Ġpren u
ĠWi ki
Ġen skrib
K omen
Ġpen tristo
ĠBal daÅŃ
c ere
w it
dis play
Ġha veno
tor ioj
Ġten as
Ġkli entoj
rila te
f ami
Ti el
cer do
g ni
Ġf eri
Ġtekni ko
ĠOn do
or k
Ġfor mojn
Ġkarak teron
Ġcel ojn
J un
Ġre alo
Ġri gi
Ġpen is
Ġvoja ÄĿis
viden te
ĠÅĿ tono
Ġri par
Ġfar iÄĿos
Ġindividu aj
ĠdediÄī ita
ĠP ub
man toj
Ġgaze taro
9 2
Ġpro le
em p
Ġpa ÄĿojn
Ġkongres anoj
Ġtrejn ado
Ġepi zo
5 00
ĠN E
Ġkonser vas
su pra
u da
ĠIn stru
eder acio
Ġfeli Äīo
ĠneÅŃtra la
Ġ _
Ġb ol
pi Äīoj
Ġdeci d
Ġm ame
da Äµon
Ġ19 19
nu daÄµo
umen ta
Ġsvis a
Ġa f
ĠB ata
iÄĿ ante
ni ve
Ġeldon ejo
Vi du
Ġkapita lo
Ġevange lio
n um
ĠM il
Ġa van
Ġka dav
Ġeks ta
ti goj
don u
Ġfo ton
Ġves t
Ġorig ino
kor do
Ġfir m
Kon greso
display style
Ġme t
Ġro l
Ġsil ento
ten e
Ġpozi cion
Ġmova doj
Ġfig uro
d res
ĠB ela
ĠAn stataÅŃ
Ġofi cistoj
a ton
ĠP rus
ĠkontraÅŃ di
Ġjus ta
S an
Ġt um
Ġvi kipedi
Ġcer bo
ĠGerman ujo
Ġdom in
Å ĳ
ci p
ĠG eo
Ġkre o
ba to
Ġkvin dek
ci i
kom er
ĠRi ch
Ġa ku
Ġfor tojn
Ġeks pedi
Ġkan ton
a doj
kla ku
Ġofi cialan
Ġregi ona
Ġpoliti kon
Ġmalno van
Ġdor m
Ġkonser va
ĠÅĿab lono
Ġe gip
tur ojn
Ġkomun aj
ĠLe on
h ej
Ġ Ø
la Äµoj
Ġ4 3
Ġsper ton
Ġdire kte
ĠKris tnas
ĠVla Äījo
Ġh ospita
ĠMon go
Ġregu laj
da tum
Ġkun ordi
Ġka pabla
Ġkongres a
ĠGeor ge
Ġpri vi
Ġaten to
Ġnor d
Ġligi lon
Ġ190 5
Ġstrate gi
l istoj
Ġg ro
Ġpa go
Ġdona co
Ġkresk anta
S in
ta toj
Ġak tor
Ġfil mon
Ġdifin as
Ġinstitu cio
Ġa posto
Ġfami lia
logi e
Ġdol or
Ġe ka
Ġpro sper
Ġsen mo
Ġcer tas
Ġsukces os
Ġim pon
Ġedz in
ĠVjetnam io
B C
v y
la Äµo
Ġla ci
Äī ojn
Ġmon tro
Ġling van
Ġtre j
Ġknab inoj
ar th
ga ze
ĠBi blioteko
Ġran do
Ġmodi fita
Ġp el
ĠO S
Ġpas int
Ġnajbar aj
ĠKon s
ÅŃro pa
Ġtiam aniere
Ġaspe ktis
g la
Ġkons um
Ġcen toj
zer baj
p oni
for to
Ġfa kul
Ġkomun um
Ġega las
c ki
ĠkaÅŃ zoj
flu o
Ġgej un
K rom
er an
Ġmor ton
Ġren vers
Â Ķ
Ġdun gi
Ġkom isi
Ġgvi d
Ġpor naÄµo
Ġ( ...)
Ġerotika Äµo
en tis
Ġko st
tem aj
N eni
g s
om io
Ġpor tre
ĠdanÄĿ era
Ġan stata
Ġke mi
tern acia
Ġspeci fe
Ġfunkci oj
Ġkru c
Ġata koj
Ġrevi zi
Ġkv ina
ĠEston io
A lia
Ġh an
ĠaÅŃ stra
Ġar ÄĿ
Ġaldon e
Ġfi din
Ġsukces on
Ġins is
ĠAt lan
Ġagri kulturo
ĠâĢ İ
ni velo
Ġa ri
he im
Ġelsen do
H is
Ġf rekven
Ġse zono
lu lo
ĠÄĪ irkaÅŃ
ksi taj
uti me
Ġrekom pen
k lon
ke tojn
Ġkontra u
ĠVenezu elo
Ġtra ktas
Ġkontribu oj
Ġjar a
Ġkomer caj
Ġrecipro ke
XX X
z berg
ig us
ĠEs pero
i ce
an aj
Ġfun eb
Ġelek tra
ĠRo ter
Ġs lo
Ġ4 6
fe ti
Ġkristan aj
ĠV as
Ġpas as
nu da
Ġprovin coj
Ġgrave co
Ġde vi
Ġpo lu
ĠA bra
Ġap arato
Ġson as
t ve
te mo
rin a
Ġmalkov ri
Ġkre into
Ġpermes i
Ġprop r
Ġlas as
ĠTo go
Ġpas tr
Ġhid ro
Î ¿
man e
ĠSpe ci
ĠHin dio
ĠAfgan io
p toj
ma ÅĿ
ch el
ĠPo z
Kel kaj
ĠÅĿi poj
gx on
Ġata kis
ĠScien ca
Ġta ge
Ġbon gus
Ġalko ho
E G
Ġpor ti
den ta
Ġokaz aÄµoj
Ġeni rejo
mi ks
Ġkomputi loj
Ġmalfor ta
h as
al t
ĠF ab
Ġdeta lojn
oj o
Ġsa teli
ĠaÅŃskul tis
Ek zistas
Ġsur fa
Ġser vojn
Ġ4 1
Ġflug haveno
in tajn
po ten
gra do
kta ta
ĠTo ki
Ġhere daÄµo
b jek
Ġfor mor
iÄĿ inte
Ti am
Ġgajn i
Ġsup r
Ġpropagan do
Ä ħ
ĠI N
Ġim pos
Ġarki te
R I
Ġsen sen
Ġkor to
Ġofi ce
ĠLu ksem
Ġinvi tis
Ġmal pe
Ġsi di
ĠLa t
Ġkan ti
Ġpriskrib is
Ġpru vi
Ġmalal taj
Ġmeze poko
Ġkonsta ti
Ġf ur
Ġmal laÅŃ
Ġver kas
Ġju ÄĿ
Ġson or
gos la
-- --
d ul
f ano
ko ti
kur soj
ĠNa pole
Ġmenci i
ĠPrin co
Ġvege ta
Ġdi men
Ġter tre
am ori
Ġtatuaj es
m oro
Ġne p
pu go
bel ulino
ĠTra ktato
Ġsub stre
ron on
ĠdaÅŃ ro
Ġkur sojn
Ġdona coj
Ġman i
Ġfer vojo
Ġ194 0
AT O
Ġdiferen ci
Ġfin on
ĠRaj toj
Ã ¦
ĠA p
Ġ19 17
ĠNe palo
Ġpublik igas
ĠvoÄī on
k r
k um
gra m
Ġbi en
Ġpu re
w o
Ġ1 000
ĠU l
Ġpa g
Ġefi kon
ĠriÄī aj
v na
ci co
po va
Ġr ing
Ġkapita lis
ĠFun damen
Ġrigar du
Ġvenon taj
E D
Z e
Ġs kato
de man
Ġmals ama
Ġaten d
Ġpreci z
tal ino
Ġpara di
ĠVirg ulino
f onoj
Ġjun ularo
Ġofer tas
c ata
m amo
Ġnova Äµo
Ġkapab loj
Ġ194 8
Ġhar moni
ĠAng la
k tulo
w ard
Ġal proksim
ĠA dam
Ġma teno
ĠÄľ ene
Ġdiferen coj
dor f
ĠT eo
ĠB is
Ġplej multo
Ġkor id
Ġare on
ĠNovjor ko
h x
Ġg i
Ġper do
Ġle teroj
Ġnaj bara
k antoj
Ġka tedralo
si der
Ġdeks tre
Ġrevu on
j aran
ur s
Ġne kuti
Ġsub a
var io
Ġinflu is
ĠreÄĿ ino
Ġkompon isto
a tajn
b ras
y d
ĠK ra
Ġfil m
T I
m amoj
Ġa ÄĿa
le ton
Ġmal bono
Ġfor pe
Ġligi lo
Ġfeti Äīismo
s is
Ñ ĩ
ĠM us
Ġ19 18
Ġkol om
ĠÅľ ia
ka co
Ġb un
Ġscien coj
Ġparola ta
pe ci
Ġ8 00
Ġab omen
Ġmalfru a
8 5
ci coj
ĠTo kio
Ġmas tro
Ġden sa
Ġgen u
ĠQ u
ĠJos Ã©
L as
c ero
Ġes ta
ĠNi ko
Ġnaci an
Ġkli ma
glute oj
pu goj
vin te
ori ento
eks hibicio
glute o
mame go
mame goj
ci vi
pi taj
Ġdisku t
Ġinternaci ajn
9 5
Ġ å
g ener
Ġru bri
Ġrecipro ka
Ġbud h
ĠÄµur nalo
ero tismo
Ġkomun e
Ġba p
Ġintern aj
) )
ko kri
Ġek rano
je viÄī
ĠJos e
zerbaj ÄĿ
Ġe tike
de to
ĠRevolu cio
Ġtradu kisto
Ġpe ko
Ġjun ulino
ĠBj alistoko
htm l
Ġfunkci on
Ġprovi z
ĠBon e
ĠG ener
pon o
tor ia
Ġsubjek to
Ġgvi das
logi an
Ġsam ajn
zen o
Ġpas aÄĿ
Ġpopula raj
Ġdisvas ti
Ġproces o
Ġnee vi
ĠPek ino
feti Äīismo
d aro
ti u
Ġf um
lo koj
cel ist
mid zi
ĠInf anoj
Ġa ci
Ġsen ton
Ġespri moj
Ġmalfer m
ĠIzraeli doj
el li
Ġ193 9
ta buo
ĠB ran
Äīi esulino
ĠWor ld
O J
lan gumi
Ġpli e
den toj
Ġeb laj
âĢĻ ,
qu es
seks umi
mid zo
mid zumo
ses deknaÅŃi
Ġlern u
Ġbata loj
ĠInterna tional
8 3
s ia
Ġi lu
Ġden toj
S S
os to
Ġtem ojn
ze co
Ġkul ti
Ġuz adon
k ano
ĠD omo
Ġof taj
Ġoku lo
Ġpoten c
ÅĤ o
Ġkristan ismo
Ġkom pi
Ġpublik igi
Ġtradi cie
Ġmale b
zi to
ĠI van
ĠF es
ĠMa g
th ink
teg ori
dis mo
Ġstruk turoj
L u
Ġplu a
Ġaran ÄĿis
Ġrezul ton
Ġefek ti
Ġbran Äīoj
Ġkatastro fo
] )
ĠS oma
Ġpi ra
Ġkonsis tis
Ġkongres ejo
Ġres an
ĠIli a
Ġkole ktis
ci is
ĠÄĿ em
on t
Ġs kalo
Ġlan Äīis
Ġgepa tra
ciklope dio
d ino
z aro
Ġmal uti
ĠF la
Ġsta ton
Ġsol von
Ġher ed
Ġali ron
Ġar tisto
Ġaldon o
Ġeb lo
Ġsa cerdo
Ġrigar dante
Ġenha vis
Ġkomuni k
reta rio
ĠmanÄĿ aÄµo
ter s
Ġun uso
si ko
Ġtermin ojn
Ġniv elon
Es tis
Ġerar ojn
u te
ti ro
k es
ti tan
Ġindi ÄĿ
Ġ $
Ġes e
lo gis
Ġne gle
ĠD ec
Ġmon umento
Ġfa kton
Ġro mi
Ġindi ko
Ġami keco
Ġripo z
ĠIn di
Ġele ktoj
ami k
Kom un
ĠTu te
vil le
Ġfon diÄĿis
ĠPre zi
Ġpremi on
Ġredu kti
Ġpri celist
Ġim per
Ġinstan coj
ĠIndone zio
Ġvi vantaj
tu ala
Ġpa ÄĿaro
Ġkri mo
Ġklari go
ĠÄĿu as
Ġplenkres kuloj
A E
eb a
Ġesperan ton
ĠCh u
200 5
Ġener gion
Ġpse ÅŃ
Ġunu eco
Ġest ing
Ġjun ula
Ġde puti
Ġri bel
Ġokciden taj
Afri ko
ra ÅŃ
kun si
j am
Ġmili tis
Ġfra t
Ġekzem plon
Ġpreci za
omen te
Ġliber an
Ġkap titaj
Ġ196 8
Ġtransfor mi
Ġde vo
lo g
tan tojn
Ġc ar
ĠC O
ĠÄīirkaÅŃ aÄµo
Ġfru ktoj
Ġlerno libro
tan tajn
pro fun
ĠKar l
ĠSer bio
ĠS or
Ġfaj r
Ġenkondu kis
re y
Ġes ka
ĠH um
Ġm ara
pon on
Ġtaks as
Ġf ek
Ġli br
Ġkomen ca
Ġdan c
gh t
li m
ar ado
Ġfil me
ĠÄĿus t
Ġhipo te
Ġf anto
ĠI II
Ġtatuaj e
is m
Ġpre zoj
vin co
Ġrila taj
tura do
Ġdialo go
TM L
ĠRoter damo
c tion
m y
Ġde st
Ġli goj
Ġves to
E I
k eno
ĠE ven
Ġsen dita
Ġkva za
dar eco
ven i
Ġmala gra
Ġmalproksi ma
Ġrevu oj
ki uj
Ġvi din
ĠEsperan tan
Ġmuni ci
Ġinteg ri
Ġankor au
Ġkvar dek
Ġkapab lis
op ini
Ġsocialis ma
Ġin ci
ĠE vange
âĢ ¢
Ġmo v
Ġkan t
Ġvas tan
k tante
Ġci gar
ĠHer zberg
om i
ĠC X
ĠmonaÄ¥ ejo
Ġkondam n
P ol
ti fi
ran a
Ġali re
ĠÅĿta taj
201 4
Ġmatema tiko
Ġi mi
ĠA N
ce zo
Ġinteres an
Ġadministra do
Ġtransdon is
Ġa vo
do k
Ġesplor is
Ġkli ento
Ġtend aro
ĠM ora
iÄĿ us
Ġali loke
Ã£ o
N ur
P as
kon gres
ĠB run
lu do
Ġmek an
P lej
Ġs la
ran toj
Ġpartopren os
Ġami ke
Ġdivi do
c ke
Ġekzis ti
Ġstu dento
in tojn
ol k
Ġres tado
ĠHis torio
Ġmallon gaj
Ġkoloni oj
ĠRigar du
. ),
ĠÄĿener alan
Ġgrave con
ĠlaÅŃ te
Ġklari gojn
ĠIs lando
Ġur be
Ġgra fi
ut h
Ġ193 2
Ġindustri a
Ġin cen
Ġar bi
Ġpa gas
Ġ: )
Ġkar aj
Ġmiliar doj
on e
Ġpo le
Ġar on
Ġak cen
Ġnor mo
igita n
Ġtermin oj
Ġp ano
Ġpen tris
fa vor
Ġneces aj
Ġb run
Ġsub me
Ġ198 8
le go
ĠE tio
Ġ7 5
komun umo
li ÄĿas
ve jo
kan a
Ġpie di
ti gos
M an
Ġklopo doj
ĠNikola o
Ġb uti
Ġver daj
Ġokaz aÄµo
Ġkomple tigi
Ð¾Ð ²
Ġhungar oj
m ara
Î ¹
Ġnom iÄĿis
kar to
Ġelsta raj
Ġkompli ka
Ġsen es
Ġkons ento
Ġma li
Ġtrankvi la
Ġforma to
ĠS eb
Ġdi ka
ĠG lo
Ġprezen tado
labor o
Ġvoja ÄĿi
Ġfin iÄĿas
Ġkan alo
Ġrenkon tas
Ġdiri te
Ġfizi ka
m ur
p oro
Ġli terojn
Ġinter kompren
Ġmas tr
ĠTh omas
Ġestrar anoj
Ġgejun uloj
i za
Ġen loÄĿ
Ġdu bas
for t
sta cio
Ġce ter
Ġregis taron
Ġab sur
Ġvizi tas
ĠRom ia
Ġduo bla
il van
ĠG ub
pen o
ĠKomun umo
Ġ5 4
eb lajn
ĠHis pan
Ġlar ÄĿ
Ġvig la
Ġetern e
men a
perio do
?? ??
h l
te in
ĠA us
Ġgra fo
Ġpens ojn
Ġkapab lon
Ġfra zon
? )
Ġg or
Ġmal di
Ġkomun ismo
Ġam is
ĠDom ini
P S
Ġin o
da ÅŃro
kon to
mi la
Ġtur istoj
Ġsoci an
Ġinflu as
9 4
e do
l ero
Ġ5 2
Ġakcep t
Ġgrand parte
Ġprote kto
lova ka
Ġpreter pas
Ġkonsci as
picx o
ĠMicha el
s cen
Ġ >
en da
Ġg es
Ġkom ento
Ġtre ege
pu ÅĿ
Ġparo lo
gx as
Ġk us
ci ajn
Ġtu to
Ġmals anu
Ġdistri ktoj
ĠSek ure
Ġro m
Ġgvi do
Ġurb estro
Ġhor lo
ĠLing va
P A
Ġf loro
ĠP al
Ġlan dojn
Ġsin de
nu dajxo
ĠJa c
Ġega leco
Ġmaldeks tre
Ġestrar ano
picx oj
ge to
ĠGru po
f ro
Ġa de
ĠK rako
Ġ198 6
Ġekzamen on
Ġsimbol oj
ti gojn
ĠZ ag
Ġfen estroj
Ġfirma oj
Ce tere
Ã ´
Ġal in
Ġ5 8
Ġakti vaj
Ġkonta ktoj
ĠAfri ka
li an
Ġo pera
Ġ25 0
Ġnes u
Ġi gi
uj oj
me di
ĠÄĪi lio
ĠBar cel
h ara
Ġzor ge
ĠM alaj
Ġali ro
Ġhom an
Ġdispon as
ĠaÅŃtomo b
Ġk ern
Ġes taÄµo
ĠAl ban
Ġofi c
ĠmesaÄĿ ojn
Ġla kto
in daj
Ġmon trata
ga dis
Ġpublik igo
nom e
Ġokup iÄĿis
h un
Ġti pa
Ġel ti
pu ta
Ġfa koj
Ġplan to
Ġmemor igas
Ġligi lojn
lern is
Ġtekni ka
Ġento mb
Ġtro pi
Ġlas u
Ġh aroj
par toj
Ġbata lis
ĠM uzi
tor on
Ġeks por
Ġokaz igis
ener ale
Ġlas tajn
Ġmaj stro
k tajn
ĠL ud
ĠF lu
mon d
Ġsin oni
Ġlabor a
PER ANTO
z oro
Ġdifini taj
ĠSloven io
s el
ri Äī
ĠS talino
Ġsendepen deco
Unu e
ste in
I T
de jon
Ġdezi ron
Ġcivi liz
Ġban ko
pl or
Ġas pi
Ġmanier on
Ġefek tiva
a ch
or itato
vi vo
Ġuti ligi
Ġorgan oj
ĠCor setti
Ġme j
Ġplan oj
ĠPer uo
Ġdona cis
Ġe roj
ma o
Ġfer mita
ÅĿ ing
Ġpri pensi
Ġbon kor
ĠhaÅŃ to
Ġsamide anoj
Ġsek cioj
Ġkur is
ĠDemokra tia
C H
Ġpost uloj
Ġrus aj
ĠGran d
ĠJerusale m
ĠKonstitu cio
Ġpartopren on
Ġedz inon
d ero
n aj
ĠK ing
Ġpost ulo
Ġimp or
Ġscen ejo
Ġs oj
li gon
ĠS inga
Ġak or
li tera
ĠLe gi
Ġtenden co
in di
ĠA zerbajÄĿ
us a
ni vela
ha v
Ġ5 1
Ġ193 3
vi lo
Ġven di
Ġvor taron
kul tur
ne y
Ġre venas
ĠE arth
Ġli gas
mi ro
Ġekzis tantaj
ĠÄīam broj
Ġpriva taj
Ġe joj
Ġfa lo
Ġespri mon
Ġreven os
Ġmortin toj
K A
K ara
de vena
Ġel Äīer
Ġpost enon
Ġak re
Ġon doj
Ġsab lo
Ġs kribu
Ġpo von
Ġfla va
ig ataj
ĠAl done
Ġrenkonti ÄĿis
Ġrimar kas
Ġlingva Äµo
Ġkomita tanoj
C er
ĠJ us
Ġle gan
Ġeksci i
b lu
el sen
ĠG on
ĠG as
sta to
Ġfon do
Ġvalor as
Ġgeo grafia
om an
Ġven ki
pro fi
ĠRe ÄĿo
logi oj
ĠFin fine
ĠJam es
Ġmon t
Ġekvi val
Ġmalhel pas
s son
u c
Ġs tel
Ġmal kla
Ġfar a
Ġkandida to
Ġl umon
Ġmon ar
Ġindi feren
in ten
ra lo
Ġpost ula
si mp
Ġtrovi ta
ĠHa vano
Ġdiale ktoj
L U
Î ½
ĠE m
Ġg loro
Ġc an
Ġsek vanta
Ġkuti maj
Ġag or
Ġvan e
ĠE blas
Ġak toro
Ġfa zo
Ġfin i
Ġem bar
I D
Ġ Ï
Ġp es
li lo
vi va
Ġsin cere
cep te
Ġkla ku
bi li
ĠAr menio
amenho f
Ġden se
Ġnum eron
Ġbr ul
Kro me
Ġp om
Ġf r
Ġf ros
ĠS un
ĠM el
em uloj
Ġfi an
Ġflu as
Ġuni verso
Ġdatum ojn
Ġfre ÅĿ
Ġstrate gio
Cen tro
ti gante
ĠBo li
ĠJerusale mo
Ø§ Ù
Ġtravi vis
mon io
ĠTi aj
Ġekzis tanta
Ġje to
Ġfa den
Ġeb ligi
Ġrenkon t
Ġpru vas
kun veno
Ġd uling
ĠC ez
ĠkondiÄī ojn
ĠL eo
Ġle terojn
Ġbone ge
ĠmaÅĿ in
U sono
ĠA la
de la
de con
ĠMa c
blo g
Ġtas kojn
Ġride to
Ġtelefon vo
pe co
Ġdi ligen
ĠAl ÄĿ
Ġdev iga
Ġfaci l
Ġindividu o
Ġporde go
Ġro k
Ġtradu kas
Ġakcep to
Ġran go
ĠHit ler
ta ks
Ġj c
Ġek iris
Ġtur men
Ġenkondu ki
Ġkonsta tas
Ġgub erni
Ġli t
ig ojn
ĠC laude
Ġskrib a
Ġad or
Ġmult foje
ĠHan s
ĠB oris
ĠV is
ĠLi bano
Ġfun damento
d roj
k esto
Ġh eli
ĠkondiÄī o
pozi cioj
Ġgrande gan
ĠT esta
Ġpre ÄĿo
Ġpe zo
Ġindi ÄĿen
Ġ198 5
ĠTa is
ĠÄľener ale
ĠBlan ka
Ġen igi
Ġi do
Ġl uno
Ġa gon
Ġmal simi
Ġkol ero
Ġ194 4
Ġsenpa ga
D R
lej oj
Ġsan a
ĠreÄĿ lando
ĠSoma lio
i c
ĠlaÅŃ eble
Ġsimi lajn
ĠX ian
ĠantaÅŃ an
cen ta
Ġmar ÅĿ
Ġnova Äµojn
Ġ196 7
Ġurb aj
Ġdivi di
Ġom bro
Ġetos on
Ġmal ver
zon on
Ġge fratoj
ĠKul turo
T o
Ġrea go
Ġteritor ion
G e
y er
Ġs ving
Ġper das
Ġinter romp
âĪŀâĪŀâĪŀâĪŀ âĪŀâĪŀâĪŀâĪŀ
ĠE ta
et tes
ĠAÅŃ gusto
ĠMaro ko
is man
ĠR io
Ġfa ka
Ġsitu acioj
nom bra
ĠÄīees tas
Ġprogram eroj
ĠFilip inoj
ĠJ aro
Ġkro maj
Ġkura c
Ġban do
Ġordin araj
Ġmalgran dajn
Ġdivi dita
Ġeviden ta
ĠChar les
muzi ko
F on
l eri
le v
Ġmi g
Ġesperant lingva
ĠIns uloj
ĠÄľene vo
ĠB et
ĠVi vo
ĠAn dr
Ġinstru o
Ġgvi di
Ġopini ojn
Ġinten co
b eloj
ĠJ ud
ĠÅľ tato
T em
ĠT rin
Ġinter a
Ġunu flanke
ĠJ as
Dan kon
Ġler te
Ġates tas
ĠP om
ĠN AS
Ġmor ala
Ġ5 9
kan taj
ĠSer vo
ĠÄĪeÄ¥os lovakio
Ġsendepen daj
lingvan oj
es pri
Ġnu an
Ã¶ n
Ġsilen t
8 6
p ta
Ġan alo
ĠKom er
kta don
Ġju ra
Ġeni ras
F in
ti lon
ĠK at
Ġle cion
ĠRus ia
Ġkunven oj
So ci
Sh are
Ġtrans prenis
ĠMal fer
Ġ197 7
ĠOri ento
li ÄĿo
Ġsoci al
Ġstruk turon
Ġani mon
" ;
H un
w il
in K
ĠH omoj
ĠÅľ ajnas
Ġkondu ki
Ġeli ri
Ġnum eroj
tar ojn
Ġrest u
ĠVal en
da Äµojn
Ġgerman e
Ġkonk reta
L S
z am
Ġar keo
Ġeks kurso
ĠZ uri
Ġkonvin k
Ġbro ÅĿ
Ra dio
f ojn
Ġtradu kojn
ĠPar ko
Ġab stra
ĠSa ksio
Ġfide la
de ÅĿo
Ġel paro
sa y
Ġuniversita ta
ĠP rojekto
Ġkom pro
im ar
Ġanim aloj
ti vajn
ĠA uld
ku ro
ĠÂ ĸ
Ġdona con
ĠpoÅĿt kodo
! ...
d um
ra d
Ġb est
Ġpo d
mes a
Ġsimp lan
Ġvic prezidanto
Ġscipo vas
ra Äµo
Ġel mig
ĠC an
Ġpropon ita
ĠAn tar
Ġvar oj
ft varo
Äį ek
Ġliber econ
Ġpla Äīis
ĠVil hel
L igo
p ur
Ġsam noma
ĠPo ÅĿt
ĠÅĿan ÄĿas
Ġrapide co
Ġekzamen oj
Ġal venas
gi lo
Ġri be
rek toro
gh is
ĠSal om
cor de
Ġdefini tive
ĠFili po
Ġe coj
Ġa pe
ĠLa tin
ĠRe gno
Ġenga ÄĿ
kovri laj
1 00
R AT
Ġin oj
Ġ19 14
ana o
ĠNa tur
Ġdiab lo
Ġre go
Ġ5 3
ĠMo vado
Ġkunlabor antoj
Ġpose dis
Ġne kompren
pre zi
Ġs ter
ar ojn
vo la
tu rilo
Ġeb ri
logi ajn
Ġknab oj
Ġas tero
Ġw ith
Ġ# ?
danÄĿ er
Ġprivi legi
Ġinter tempe
vin ta
ĠMe ze
sk y
ile jo
Ġlandli mo
Ġek zi
ha us
ĠMal nova
Ġfamili on
Ġtransi ris
Ġisla ma
ĠTaj vano
Ġperspekti vo
P res
Ð ¹
re t
Ġven k
Ġhon oro
Ġkov rita
9 1
la ri
Ġsia vice
Ġekonom ian
Ġminu tojn
Ġt ras
Ġko in
Ġplan on
Ġto ta
ĠdediÄī is
Ġkategori oj
L ia
e laj
Ġk erno
Ġre ÄĿoj
Ġpro voj
ĠT ea
Ġsin te
ha va
Ġmalhel pi
Ġapro bis
d un
Ġpor t
Ġku ire
eno ve
Ġneces ajn
ĠSo cia
Ġfunkci ado
Ġvoja ÄĿoj
lern ejoj
Ġuson anoj
ĠHen ri
Ġkompan ioj
ĠZag re
Ġf eb
ĠF oje
Ġfor mis
Ġku ri
Ġ5 7
ĠAl berto
Ġindividu a
Ze lando
O ri
ĠfiÅĿ kap
Ali ke
c ro
d ern
Ġal taro
Ġeks klu
Ġkomputi la
Ġsemin ario
Share Alike
C E
la o
ig iloj
plan o
Ġfam an
Ġmalliber ejo
k lino
te ble
men o
klu bo
ĠOrgani zaÄµoj
ĠDok umentoj
i i
ti co
ĠG am
Ġskla voj
k amen
Ġti poj
Ġ5 6
umen a
Ġde Äµ
Ġpro cen
Ġdi rus
Ġsen labor
ol ingo
ĠMar ko
ĠPa co
ĠaÅŃtorita toj
Ġkonflik toj
Ġme ksi
Ġfra z
ĠJa pan
Ġrezul tas
Ġsper tojn
Ġ197 9
Ġtranslok iÄĿis
Ġde venis
ier re
Ġbru o
Kom preneble
ĠAzerbajÄĿ ano
9 7
Ġen re
ĠF aj
Ġkonvers acio
Ġforpas is
Ġmalhe la
f iloj
Ġper d
ĠH i
Ġsuper as
Ġkar to
in ario
ti te
Ġre vo
ĠA k
Ġbon dezi
Ġaper inta
Ġdekla ras
Ġtomb ejo
y e
ĠA pri
Ġgra tu
ĠFor umo
Ġregion aj
ä º
ran to
Ġkonser vis
esperan tistoj
Ġhistori isto
Ġb ron
Ġle ksi
Ġbri la
ĠAnt ver
c ino
â Ķ
Ġdis don
Ġta m
Ġcer b
Ġkompren ebla
Ġtele vid
Ġvolon tuloj
ĠBos nio
Ġt hat
Ġ: -)
Ġpra ve
teg ia
Ġmalfer mo
Ġtrin k
j es
Ġen ig
ol on
Ġkri tika
Ġrakon ton
far ado
Ġmult nombraj
Ġallo ga
ĠPl uraj
le kto
ĠM c
Ġmal gra
ĠOrgani zo
m aro
Ġde von
Ġm m
Ġesper on
Ġbri l
Ġtranspor to
Ġstatu to
Ġj o
Ġser von
Ġba ga
ĠdaÅŃ ra
ÄĿ antoj
Ġres to
mar ko
Ġr um
kapab lo
ĠBrus elo
Ġa fa
ĠPro fes
ĠVer ÅĿajne
Ġkatoli koj
m uloj
Å ¼
Ġvi zita
Ġor an
Ġbe leco
ĠÄµ a
Ġkonvin ki
e ga
f esto
t ulojn
ĠK lubo
va t
ĠF ettes
pa Äµo
Ġka ver
men taj
Ġam uzi
Ġplane doj
w ar
em ajn
ĠU ru
Ġgra f
Ġvian do
Ġkura ci
Ġdol oro
ĠSinga puro
Ä «
Ġd ras
Ġven dis
Ġrenkonti ÄĿon
Ġeksplo dis
Ġmedic ino
kipedi on
ti kisto
Ġkor up
Ġstu dado
Ġpli al
Ġakti veco
ĠDis kuto
A B
mi th
Ġak ra
Ġku rio
ĠMon t
Ġpozi tiva
Ġreali go
dol f
ĠStan is
Ġn esto
Ġh ier
Ġmalsu pre
Ġdisvas tiÄĿis
Ġiden teco
V D
t ter
Ġp ilo
Ġen or
Ġkomun istoj
Ġfeli Äīe
Ġagnos kas
Ġgus to
ĠPres kaÅŃ
Ġabsolu ta
ĠTogo lando
ĠR ed
Ġtradi cioj
Ġinternaci e
Ġalpor tas
ĠÅĿata ta
Ġs onoj
ĠL ar
ĠE fektive
âĢ ĳ
Ġpa pa
cen tra
Ġpens ado
Ġkru co
Ġse ka
ma lo
Ġro z
jar iÄĿo
Ġapu da
german a
K araj
Ġp las
es tron
ĠMi aj
Ġkam paro
Ġ190 8
Ġdiale kto
O M
n an
Ġun d
Ġtra ktado
Ġfa las
ĠJu an
Ġalvo ko
ko lon
ce go
Ġno cio
Ġvar mo
Ġpopula cio
i el
w are
Ġa gis
Äī en
Ġf ero
ĠÄīe valoj
Ġrus oj
ĠMedi teran
s x
Ġli poj
pi lo
ba zo
Ġpriskrib ita
ĠaÅŃtor itato
Ġdetru is
ĠK le
ĠÄľ in
Ġsor Äī
ĠEks ter
ĠVa ÅĿing
Ġd ron
st ina
Ġparo Ä¥
Ġuzi taj
' '
vi v
de kaj
ĠW in
Ġ6 5
Ġaser to
9 6
Ġs hi
ci r
ig his
ĠT ol
ĠR ek
Ġver kado
Ġmalri Äīaj
Ġdokumen ton
Ġdokumen tojn
Ñģ ÑĤ
ni k
Ġtra fiko
Ġtri um
Ġnask ita
ĠÅĿton oj
Ġ @
ĠM aÅŃri
da d
Ġroman oj
Ġkonkur en
UN K
Ġne ÄĿ
Ġele mentojn
Ã© r
ĠJa pana
Ġ197 6
e p
Ġ ulo
te blas
Ġb ord
ĠP r
Ġnom itaj
Ġpen traÄµoj
pro fita
ĠSvis io
!! !
ĠreÄĿis oro
Ġg his
em or
pa trino
res pon
par ta
ĠEk zem
ĠÃ ł
Ġblo gon
Ġ198 2
Ġrapor toj
Ġekstre ma
Ġatribu i
ĠG il
Ġgran dio
Ġfra zojn
Ġrifuz as
Ġkategori on
Ġlogi ko
ĠP ie
Ġba lan
Ġ12 0
Ġkona tiÄĿis
e tojn
Ġ qu
Ġen landa
ĠK var
os ta
Ġpa gis
his torio
g ono
s h
tin e
Ġeb los
Ġspeci faj
Ġregi onon
Ġspi te
ĠKar tve
Ġarb us
ĠÄµurn alistoj
Ġkon forme
ĠT eri
ĠLa go
Ġtu ÅĿas
Ġorigina le
ĠKongres oj
a da
Ġp r
ÄĿ eto
pi ro
Ġak uza
Ġfin ita
ĠbedaÅŃ ras
ĠÄĪ am
kom ple
Ġmala mo
Ġen vi
Ġf le
Ġre formo
Ġser pen
flu as
la te
ka taj
Ġvi voj
Ġka ÅĿi
ĠkontraÅŃ a
Ġof t
j aroj
ko to
pan e
ĠÄīef an
paro l
Ġ197 8
ĠKul tura
Ġarte farita
Pe ter
Ġe o
Ġde ko
ĠM ajo
ĠVi an
Ġdev igis
Ġordin are
Ġkvali ton
k vankam
Ġa Äµoj
ÄĿ inte
Ġno kton
Ġnova Äµ
Ġkar no
Ġpriskrib a
ĠBel orus
el don
Ġb v
Ġelek tu
ĠLitera tura
Ġe tan
te ca
Ġtelefonvo koj
Ġte sta
Ġfor a
Ġfunkci i
ĠHa i
Ġunua vice
l la
ĠA R
Ġpermes iloj
Ġtradu kitaj
ĠMon tri
ĠMalaj zio
j araj
z es
Ġre zon
ĠP rojek
por ta
ĠW ol
Ġplen igis
Ġprogra mojn
tek ni
ri ÄĿis
ĠaÅŃ ten
ĠKi m
eble co
pres s
F akte
Ġfa kaj
Ġinteres iÄĿis
Ġ198 3
ĠÅĿanÄĿ iÄĿas
Ġli mojn
vi la
Ġfor iri
pro gramo
mal s
Ġ198 4
ĠHa zar
Ġstre bas
Ġrevolu cia
b eto
Ġvi ra
Ġvi kipedio
ĠD or
Ġka pi
Ġmin er
Ġtrin ki
Ġalvo kon
Ġsing ar
am aso
Ġo vo
ĠN ek
oni ko
pi e
Ġekzis ton
Ġorigin alaj
ĠTur k
Ġkr ono
ton io
pren o
Ġam bi
f ig
u an
Ġe x
Ġes troj
Ġre ktan
ĠÅĿ te
ve j
Ġpermes o
Ġeta ÄĿo
Ġregistri taj
ç¤¼åĮħç¤¼åĮħç¤¼åĮħç¤¼åĮħç¤¼åĮħç¤¼åĮħç¤¼åĮħç¤¼åĮħç¤¼åĮħç¤¼åĮħç¤¼åĮħç¤¼åĮħç¤¼åĮħç¤¼åĮħç¤¼åĮħç¤¼åĮħç¤¼åĮħç¤¼åĮħç¤¼åĮħç¤¼åĮħç¤¼åĮħç¤¼åĮħç¤¼åĮħç¤¼åĮħç¤¼åĮħç¤¼åĮħç¤¼åĮħç¤¼åĮħç¤¼åĮħç¤¼åĮħç¤¼åĮħç¤¼åĮħ ç¤¼åĮħç¤¼åĮħç¤¼åĮħç¤¼åĮħç¤¼åĮħç¤¼åĮħç¤¼åĮħç¤¼åĮħç¤¼åĮħç¤¼åĮħç¤¼åĮħç¤¼åĮħç¤¼åĮħç¤¼åĮħç¤¼åĮħç¤¼åĮħç¤¼åĮħç¤¼åĮħç¤¼åĮħç¤¼åĮħç¤¼åĮħç¤¼åĮħç¤¼åĮħç¤¼åĮħç¤¼åĮħç¤¼åĮħç¤¼åĮħç¤¼åĮħç¤¼åĮħç¤¼åĮħç¤¼åĮħç¤¼åĮħ
u ta
u ton
z in
Ġal tran
ĠS ier
for d
Ġ18 87
ĠÅľ a
Ġfinan caj
Ġkonten ta
Ġpejza ÄĿo
ĠJoze fo
a das
al l
Ġgvi dan
ĠLat vio
Ġek va
Ġpre m
ĠF R
Ġrespon deco
ĠfiÅĿ oj
Ġkonker is
ĠNapole ono
li ga
Ġt run
Ġke mia
ĠMi ka
Ġkor ea
Ã© n
Ġkuti mas
Ġoper acio
ĠFranc ujo
li aj
Ġen ter
pe ton
ĠR enato
ĠkontraÅŃ as
ĠRe ÄĿa
bur ga
Ġ197 5
Ġkarakteri za
Ġsova ÄĿ
h ere
Ġes enco
Ġre toj
um aj
stru k
ĠMon to
Ġtag manÄĿo
ĠpoÅĿ tele
Ġ# #
Ï Ĥ
Ġsa vo
Ġmembro ÅĿtatoj
E ni
ĠK aÅŃ
ren kon
Ġrespon doj
Ġesperantis taj
ĠRich ard
is ton
ĠD el
ĠH TML
Ġzor gi
Ġpie do
Ġeksplu ata
Ġapara toj
Ġdezajn o
ĠKali for
P IV
j ono
ta gon
ĠP h
ĠP lan
Ġka b
zan io
Ġnaj baroj
ilvan io
k ris
Å ¬
Ġ que
Ġk ino
Ġpost las
Ġkam arado
Ġkoordina tojn
ĠBarcel ono
âĢ ķ
de z
ĠI l
ÅŃro paj
ĠZ im
In ternacia
ĠDis trikto
kolor aj
ĠFeder acia
ĠK va
ĠP DF
Ġeble coj
Ġ193 8
Ġpan on
9 3
ĠkontraÅŃ le
Ġcer emoni
Ġankor aux
Ġpoliti ke
Ġd ig
Ġpa ÄĿ
pan o
Ġins tigis
Ġkonstru itaj
Ġpropon ojn
ĠRus a
Ġmaljun ulo
No va
Ġin vado
ĠS ab
Ġsu fo
Ġkons iloj
Ġtrans doni
Ġdetru i
ĠReÄĿ lando
Ġfon di
Ġsa ÄĿa
Ġ195 6
Ġ192 2
Ġobser vi
** **
ĠS ia
Ġcivi la
Ġmontri ÄĿas
Ġfundamen ta
Ġstatu o
tin taj
Ġtur ismo
Ġjapan aj
Ġkanta do
Ġt ren
Ġkomen can
Ġter ure
ĠMar kso
Ġru ÄĿaj
Ġva gon
Ġris ko
Ġesen ca
Ġ( âĢľ
ĠA g
po z
ver bo
Ġmo le
tin to
Ġangla lingva
Ġradi kojn
ĠAma zon
is a
Ġo leo
ĠEs per
Ġlern ejon
Ġkontribu o
Ġdiferen cas
komen ce
Ġretpo ÅĿta
Ġtrakta to
Ġdeba to
8 2
g edio
Ġsen ÅĿan
ĠÄīef ur
Ġnor moj
Ġprofun dan
Ġkontribu as
f ing
Ġka pelo
Ġmals ato
ĠMa x
Ġsukces aj
Ġobser vis
ĠNeces as
s uba
tan io
Ġinter reta
ol do
voj oj
Ġbe lajn
Ġcxi am
Ġ197 4
U r
te a
Ġel vo
Ġkoncern aj
Ġ193 1
Ġtito loj
Ġanali zi
igx as
ĠKrako vo
il lo
ĠG la
Ġmo vo
Ġmals ek
g oro
Ġsi e
ĠLi broj
ĠkaÅŃ zi
Ġkunlabor on
Ġduon on
Ġrezolu cio
Â ·
Ġpri pen
). [
Ġduon insulo
Ġmontran te
or gio
Ġt ono
es tra
kam po
Ġating ebla
Ġ194 9
Ġmalj us
Ġekstre me
" -
ĠS krib
ks e
ĠH eb
Ġpa troj
ub e
Ġkre itaj
Ġliber igi
Ġsol ena
Ġkonsider ataj
Ġrus an
Ġaran ÄĿ
Ġtea tra
Ġinter lingvis
Ġeks i
Ġnor ve
Ġtur ka
Ġkar es
ĠDu olingo
Ġmedi oj
Ġescep to
Ġheb rea
d ron
t ulon
Ġs istem
en ton
Ġli kvi
ĠAl poj
Ã³ r
Ġprakti ki
Ġresponde c
ĠFes tivalo
0 8765
P l
u f
Ġre ganto
Ġpo lus
ke do
Ġ198 1
Ġfavor a
Ġspa con
ĠEgip tujo
Ġafri kaj
Ġnas kis
Ġunuso la
x ojn
ra don
Ġneni uj
ĠÅĿta ton
Ġmuzi kistoj
Ġkomer c
kal ku
Ġmedic ina
p pe
t he
ka Äµojn
ĠS ri
Ġmo toro
Ġlern anto
Ġsignif is
Ġkura cistoj
Ġakti vis
cx o
ĠPe tr
Ġ193 6
ĠOn line
Ġambas ad
Ġs kol
Ġvi do
ÅĿ ar
Ġsur voje
Ġle ter
en ojn
da lo
Ġap laÅŃ
ĠO ra
Ġsci vole
anta ro
Ġfra kas
ĠaÅŃskul t
ĠSta lin
Ġnukle a
Ġprefi jo
Ġs ala
um eno
Ġpro mo
ĠP UNK
Ġha vante
Ġlan Äīita
Ġlon go
ĠSi an
ĠmanÄĿ aÄµoj
ĠGra m
Ġpaf mor
Ġarkitek turo
Ġmin orita
Ġsci igis
Ġdekla ro
ĠBar bara
ĠGeor go
O L
Ġb y
ĠJu gosla
Ġtrankvi l
Ġkampar anoj
Ġbonven aj
ĠAntver peno
Ġal men
Ġre ak
ĠRom an
Ġfiks ita
Ġrezign is
Ġne mal
ĠL os
vi to
Ġun uj
man ier
Ġapu de
g lis
li kon
us pe
ga le
Ġmo tivoj
Ġmor tas
ori enta
Ġmalfacila Äµoj
Ġtavo lo
E ks
la don
Ġdan co
Ġating o
Ġmalfer mitaj
Ġega la
RAT IA
ĠI am
Ġha vanta
ĠkontraÅŃ e
Ġmalri Äīa
ĠDom ino
Ġ oma
Ġa cido
di ko
pi oj
Ġpa ca
Ġor n
Ġnun an
Ġima g
Ġgrama tika
ĠinterÅĿan ÄĿo
c say
z ul
te stro
Ġpo etoj
kondiÄī oj
ĠIn formoj
Ġhistor ie
gx oj
Ġkr uroj
Ġkongru a
l om
Ġmal plen
Ġmal plena
vers aj
Ġkole goj
Ġmedi kamen
Ġvirin ojn
Ġideo logio
Ġdisvas tigo
ĠGa ze
Ġfing roj
IR RATIA
ĨįãĨįãĨįãĨįãĨįãĨįãĨįãĨįã ĨįãĨįãĨįãĨįãĨįãĨįãĨįãĨįã
ĠPUNK IRRATIA
g vo
k ron
Ġa kri
Ġb aro
Ġh eg
po loj
Ġpost ul
ĠÄĿus tan
Ġhej ma
Ġprele gis
ĠMongo lio
D A
à ´
Ġsu pro
ano v
ĠTaj lando
datum oj
Ġin stin
var m
Ġlu dantoj
Ġflu o
Ġbi blio
jara ÄĿa
Ġ193 4
ĠKartve lio
Ä ±
ci lio
Ġle ÄĿon
Ġpen traÄµo
cx e
v us
Ġc a
Ġdor s
Ġon do
Ġpru vis
201 8
Ġchi u
/ ,
p rojek
× Ļ
Ġf lus
ĠI do
Ġdu b
Ġating os
Ġprofun d
Ġarkite kto
la pu
zi la
Ġku i
Ġmili ono
eri kaj
Ġrez igni
o vo
Ã ¥
is tino
ĠA S
Ġse pa
ĠT E
ĠaÅŃ g
Ġver karo
Ġap re
din toj
Ġtele fono
Ġalvo koj
ÄĪe fa
Uni vers
k vin
li mo
Ġma gi
ling vajn
ĠÃ ģ
Ġfer m
Ġret paÄĿo
ĠÅĿ tel
Ġpa trio
Ġkomen ton
pen na
Ġstu das
Ġ194 7
Ġsemajn ojn
Ġforma le
Ġkongru as
Ð ³
ĠB lu
men oj
ĠMez oriento
s ci
Ġmi to
Ġba k
ener ala
Ġsufi Äīa
Ġarme on
Ġdivi das
Ġpostu li
Ġinsta li
Ġm un
Ġv osto
Ġak um
ĠIn c
Ġkomple tan
Ġsubstan tivo
ti mis
Ġvi van
Ġpl is
ÄĿi taj
Ġjun an
Ġfran coj
Ġkamara doj
Ġne a
ĠIn vers
Ġho dia
ĠVoj o
Ġheb re
Ġadministran to
ĠK er
Ġekle zioj
Ġin klin
ĠK alo
pa ÄĿon
Ġkontra kto
Ġplan is
Ġkov ris
Ġpronon co
pa tr
Ġbu ÅĿ
Ġinten ce
Ġkon o
du a
Ġap liko
Ġle gadon
Ġele kt
Ġba ze
Ġet no
Ġekskur soj
V oj
Ġa mata
ĠP len
ĠT j
Ġmul tan
ĠO ceano
Ġokaz igi
Ġekster lande
iste mon
Ġfunkci ojn
cer to
Ġkompar i
ĠdanÄĿ er
Ġklu boj
ĠHen ry
in f
ce o
Ġpre taj
Ġ19 12
Ġtrovi taj
Ġkap t
un ua
ĠS kot
Ġpri orita
ĠC la
Ġna vig
ĠAÅŃ tuno
Ġgas to
Ġmeze poka
Ġfre ÅĿa
Ġcifer oj
Ġdistribu i
ĠaÅŃ da
kto s
gra moj
Ġeb loj
Ġdirek tis
ĠNeni am
ÑĢ Ð°
Ġhispan aj
Ġhero o
ĠEtio pio
Ġs una
ti oj
le tojn
Ġprezen titaj
Ġjen ajn
ĠÄĪe f
Ġple jo
grafi on
Ġtr ar
ĠEsperantis tojn
Ġteg mento
s istemoj
ci te
Ġre puta
ĠSe ulo
Ġstra t
Ġon line
Ġfizi ko
Ġsubstan co
Ġafri ka
ï¼ ģ
Ġporno grafio
ĠAlban io
b ala
pa tro
Ġparo los
Ġce tera
ĠÄĪi am
Ġvizi t
Ġprofi to
Ġtribun alo
feli Äī
ĠS ho
ĠJ una
Ġkan tisto
Ġkunlabor is
ĠY ou
Ġras o
Ġforges i
Ġ192 8
Ġkoti zo
h um
Ġen danÄĿer
Ġsen a
Ġraj t
Ġdistri kta
Ġ196 9
Ġsuges tas
ĠFri ed
B ra
T ri
en z
Ġor el
Ġkor tu
Ġ192 1
ĠBoli vio
R i
iÄĿ antaj
ĠW ord
Ġmalvar me
Ġfig uroj
Ġkonfir mis
Ġfortika Äµo
ĠB angla
Ġsci u
Ġplu aj
Ġarg umento
Ġe uro
Ġpre mio
mp is
Ġ197 3
Ġeviden tiÄĿis
Ġarte far
INVALIDINVALID INVALIDINVALID
as a
el s
ĠA gen
dustri o
ĠVilhel mo
v eloj
in ia
ĠS p
il d
man ieron
ĠJ i
ĠLi cen
ĠKa za
Ġuti laj
Ġstran g
Ġkatal un
âĢ ³
ĠAr ki
Ġzor gis
Ġsove tia
ĠTan zanio
h aro
Ġ aj
Ġa bo
ĠS ha
ĠD ra
Ġlo kan
Ġma turi
ĠTi es
Ġsci on
ĠKon diÄī
Ġtur isma
Ġkondu k
teks toj
ĠeÅŃ rojn
S er
Ġb uro
Ġte s
Ġpermes on
Ġkuti moj
Ġinfan on
Ġadres on
ĠJako b
re giono
Ġre gantoj
ĠI st
Ġfor igis
ĠÄīar ma
Ġmar on
Ġplibon igo
Ġ190 7
Ġamik ino
Ġtraj tojn
Ġinstr umen
liz ab
k estro
ĠK utime
Ġo dor
ĠMi an
Ġad mon
lo t
Ġti pe
ks ig
Ġver tika
den t
kor p
Ġmalpu ra
v igis
la t
Ġin te
ĠD er
ĠI pernity
ce la
Ġmon teto
Ġdu e
Ġami ka
Ġkos toj
Ġtito lita
Ġmeto don
Ġpritra ktas
Ġflugi loj
g ho
p om
Ġvi tro
ĠS V
ĠG ron
Ġam uza
Ġsigni fa
Ġdisku tis
pos ed
ĠAlÄĿ erio
Ġele f
bri ÄĿi
Ġstri oj
ĠFon duso
oo d
Ġekkon i
german e
ĠToki ponon
h Ã¡
w ell
Ġpri mi
ĠMi li
Ġso laj
Ġpla Äī
Ġ192 9
Ġsolda to
Ġenme ti
Ġlicen citaj
Komun ejo
Ġkon to
ĠÄīe valo
th er
Ġson on
ĠFre der
Ġsove ta
Ġfak toroj
Ġal proksi
Ġh aj
di men
ĠS ene
ĠM eto
Ġfar us
Ġtu ÅĿis
Ġbon ÅĿan
Ġeks kluzive
fo lio
Ġsper tas
Ġmas o
Ġhun doj
Ġdosier uja
Ġseku ra
Ġresponde cas
Ġpoe zi
ĠPa ÄĿo
Ġneces is
Ġbaz an
Ġ190 6
Ġu to
Ġmaksim ume
d reso
ĠO kcidento
res pe
ĠÅľ tata
Ġjen an
Ġurb ojn
Ġmalkon ten
x as
Ġmi rinde
ĠB andar
Ġka fo
ĠNi co
Ġaten ti
Ġsan ktaj
Ġvol umo
Ġpu go
Ġparame tron
v Ã¡n
Ġser ion
Ġprezen t
ĠZamenho fa
Ġkonsis tanta
ĠRes pon
Ġstari gas
cego vino
ĠÄīi aj
ĠG va
Ġsal ut
Ġarme a
Ġgri za
ĠIns ulo
ĠK is
po se
me a
ed ro
rin ta
ĠOli mpi
er t
or an
Ġre cep
ni kov
Ġmem ori
ĠÄīees ti
cz y
tic le
ĠdisÄīi ploj
s igni
Ġli mas
Ġj uraj
Ġpro s
il do
Ġfal s
Ġbel ulino
Ġgub ernio
k ler
Ã «
Ġa gres
Ġkon vena
ĠS tel
ĠÄīi ela
Ġfa ÅĿ
Ġsa vis
Ġmur dis
Ġ195 9
ĠBer no
kro m
e w
er to
ĠI vano
Ġalpor ti
Ġakompan is
Ġtum ul
Z amenhof
ten a
Ġaten t
Ġprojek tojn
nom on
I P
Ġkon so
os eo
ĠEsperan tilo
Ġfil mojn
Ġofi cisto
ler ni
Ġmalbon an
igh as
ĠNAS A
o pera
te jon
ĠT en
ĠÅĿ ve
eb lo
Ġeks tra
Ġro ko
Ġhon ora
Ġkoncep toj
Ġmalpermes is
ĠNord ameriko
Ġ## #
Ġo ce
Ġ1 01
ĠN ask
Ġali uloj
ĠSvis a
Ġal tru
Ġper dita
Ġka pri
bu la
ho o
Ġmals ana
Ġkri tik
Ġedzi ÄĿis
8 1
a go
y l
ĠÄī eloj
Ġkon for
ĠÅĿ al
Ġsufi kso
Ġliver as
Ġe timo
ĠS uno
Ġle ÄĿojn
igi tajn
Ġhel pu
ant ino
Ġbezon on
Ġsom era
" :
Ġde koj
Ġal mo
Ġplen aj
Ġdon aci
Ġsuper re
Ġsa v
Ġdeci dojn
Ġvide blaj
ĠÅľan h
? ...
E st
in das
po vo
ĠLi bio
Ġnun tempaj
Ġparo lu
Ġskrib itaj
Ġreda kcio
Ġvoja ÄĿon
ÅĿu tita
ĠBul ler
ĠNiÄĿ erio
Î µ
Ġv ag
Ġre al
Ġan oni
Ġpublik igitaj
flan ka
Ġpied ojn
Ï ģ
Ġi dio
Ġli mon
ze lo
Ġkultur an
ĠAntaÅŃ a
Ġfes ti
Ġvek is
Ġpoem ojn
a per
ta blo
Ġde ka
ĠN as
Ġven do
ĠDo c
Ġvirin on
Ġeston taj
ekz amen
Ð Ķ
Ġ za
Ġre pa
ĠLa penna
ten ojn
Ġsen d
Ġgru pojn
Ġeston te
ĠIm peri
Ġekzempl eroj
Ġakci dento
Ġeksterordin ara
ĠRenkon tiÄĿo
z el
Ġes taÄµoj
Ġel pa
ĠI T
Ġpublik an
Ġses a
ĠSte fan
Ġkopi i
Ġafi ÅĿo
ĠTeks toj
Ġko don
Ġplan ita
Ġobjek tojn
Ġmalkov ro
Ġ190 9
Ġbibliote koj
Ġsever a
Ġteror ismo
Komen ce
Ġnesu fi
' re
Â Ŀ
Ñ ľ
Ġde pon
Ġin va
Ġuz ebla
Ġregis tris
ĠKa zi
un uo
ĠM ON
ĠMon a
ĠSek va
Ġbaz ajn
ĠPrus io
ĠZuri ko
k lojn
va Äµojn
Ġekz akte
tin daj
Ġrila tajn
Ġkura cis
Ġsper ta
Ġaspe kt
ĠPli e
Ġsign ojn
ĠvoÄīdon ado
ĠDek lara
ĠLuksem burgo
ĠE vidente
po t
Ġha lo
Ġcer tan
Ġprinci pojn
Ġmina co
Ġsever e
ĠL am
aÅŃ l
Ġka ze
Ġtran o
Ġintern an
Ġinstitu to
Ġfan far
Ġsemin ar
Ġp ing
ĠNi aj
Ġrez isto
Ġperson on
Ti al
Ġrus ia
Ġesperantis taro
Ġdefen das
Ġokup ita
Ġinstr umentoj
Ġtertre mo
ĠA ni
Ġkun venis
ĠD ol
fi zi
ĠEn gel
Ġfru ktojn
Ġmalfaci laj
Ġfamili anoj
ĠpoÅĿ to
ĠkaÅĿ as
Ġdemokra tia
Ġbalo toj
gua ge
Ġs kolo
Ġb rem
ĠVi kipedia
Ġtri boj
Ġapo gis
Ġmallon gan
Ġdol Äī
Ġeten dis
Ġbab ilejo
ĠBur undo
D on
i lu
ti vojn
ĠA mo
fa con
Ġ194 1
ĠÄīees tantoj
Ġmiz ero
M A
k tanta
Ð ·
st ria
Ġ19 00
Ġme tita
ĠPre paroj
ĠEst u
ĠLas ta
ĠS mith
Ġunu iÄĿo
fer a
Ġme tio
Ġbri taj
p Ã©
Ġ Ù
Ġver boj
Ġdetru ita
kapab lon
ç ļ
nom oj
Ġprinci pe
Ġmomen ton
ĠTon kin
Ġpro vos
Ġmul ti
Ġbi eno
Ġpoliti kajn
Ġresponde con
Ġli gon
Ġeldon aÄµoj
Ġvila ÄĿon
Ġesper is
Ġkoncep ton
Ġleci ono
Ġfar ante
mon do
Ġkonf uzi
ta t
ro c
Ġo vojn
ale co
ĠÄĿener alaj
Esperan ta
Ġb uso
Ġg las
Ġgra doj
ĠloÄĿ ata
ĠEk vadoro
Ġaki ras
talo go
201 6
Ġa gojn
Ġro mpi
Ġlern eja
b s
Ø ±
ĠS el
tu alaj
Ġso cioj
por toj
ĠHun gar
Ġgla vo
Ġdirek ton
ĠMem or
J u
ĠS ara
kon tro
Ġra cia
Ġsia tempe
Ġhistor ian
âĢĻ .
Ġmalno vajn
Ġreligi on
Ġlingvis tiko
ĠOs mo
d omoj
Ġ zo
Ġe ra
ĠÄī o
ĠS hi
ĠI tala
ĠG ali
Ġtro a
Ġkre don
Ġtri bo
ĠserÄī ado
raj toj
ĠMa t
Ġdor mi
Ġrapor tas
Ġ194 2
Ġopor tuna
ĠUru gvajo
Ġa dek
Ġsek toro
Ġspeci alajn
Ġflan kon
ĠPer mes
Ġgas t
Ġplibon e
Ġ192 3
ĠÄĿen ti
Ġneaten dite
Ġde mis
ĠâĢ Ļ
ĠB ron
Ġhav igi
Ġvirin a
Ġstari go
ĠSer Äīi
O n
ĠKi pro
Ã¡ h
ĠMa y
Ġrimar ki
Ġstri kte
Ġremem oris
Ġkonklu do
Ġres ta
Ġtransfor mas
Ġdiman Äīo
Ġsalaj ro
Ġpartn ero
ä »
aci ojn
ĠH ej
me jo
Ġle ga
Ġeb lus
Ġpe co
Ġklari goj
In stitu
Ġsab ato
Ã¨ re
ĠKalo csay
H A
d ge
Ġbezon os
Ġsoci ala
Ġmod eloj
Ġtekni kaj
ĠBan ko
k foje
Ġkri terioj
Ġinten c
Ġbaz itan
Ġima go
Ġdisting as
je v
ĠEvange lio
P R
b anoj
Ġs pri
en aj
Ġh ela
ĠG anao
pro pri
ir ka
Ġju daj
Ġprof ilon
Ġpru vo
Ġrekon is
Ġspiri ton
ĠSil fer
bab vo
ĠMun keno
k il
ti tajn
Ġen ka
Ġku ketojn
Ġkomuni kadon
Ġlong ajn
KOKOKOKOKOKOKOKOKOKOKOKOKOKOKOKO KOKOKOKOKOKOKOKOKOKOKOKOKOKOKOKO
ar ch
lo si
di tan
ber go
Ġmili tistoj
Ġins tigi
ĠSu dano
ĠPl ena
Ġkoin ci
Ġsen li
Ġsan ktan
ĠLe vi
ĠLo uis
Ġb ara
ĠantaÅŃ di
Ġsankt uloj
da ux
Ġling vajn
Ġmo tor
Ġkre iÄĿis
Ġfra pis
bi taj
Ġpres ti
Ġvizi toj
Ġ194 6
ĠpreÄĿ ejoj
ĠTri a
âĹ ĭ
Ġpole mi
Ġin v
Ġneni om
Ġves tojn
Bon volu
R ila
in fo
as e
ĠM anu
Ġdis e
Ġ6 4
Ġas embleo
Ġekle zia
Ġbes tojn
Jun ularo
ĠJose ph
ti toj
Ġmal hon
mi lita
Ġdu ko
lin ioj
Ġcivi tano
ph p
Mal graÅŃ
ĠPala co
ma po
Ġ19 11
kta taj
Ġsup raj
di kto
Ġg ala
ge co
Ġbe ko
Ġsignif e
ĠSen depen
Ġ195 8
Ġkoncen trejo
Ġaviadi loj
Ġhezi tu
a o
ĠA pud
pe k
Ġpa pi
Ġven das
min i
Ġprodu ktita
Ġdok trino
Ġmontri ta
Ġmomen toj
S ta
Ġb oj
ĠÄīi an
ĠV era
aÅŃ de
ĠEn tute
Ġkomun ista
Ġpe tro
ĠÅĿan ÄĿon
ĠX i
ĠÅĿtu paro
ĠAu gus
ĠMinis terio
aÅŃ a
ma teri
fi do
Ġma gis
ĠZ o
Ġlu danto
ĠKaro lo
le kso
da gas
Ġesper eble
ĠPre cipe
fin an
Ġtab elo
Pol lando
Ġk ran
Ġde voj
Ġsen kom
Ġno t
Ġno be
Ġsupo zis
Ġstran gaj
Ġkoncer toj
Ġestab lis
Ġparen coj
Ġo le
mp ro
rin oj
Ġsek vo
Ġna fto
Ġfran ce
Ġkole kton
ĠHazar da
ĠKondiÄī oj
ĠJu doj
Ġban koj
digi taj
ĠKen jo
kam pan
Ġkar bon
Ġab oni
Ġkapita no
Ġspekta klo
Ġstatus o
Soci eto
Ġal tajn
ka Äµon
Ġre ganta
tr in
Ġkomen tojn
uo kaze
Ġbra ko
Nun tempe
ET V
ĠrifuÄĿ intoj
taj pu
Ġkun vi
ĠB ele
kci on
Ġkol um
Ġfer mis
Ġmalno v
Ġ193 7
su pre
Ġmalaper as
Ġmemsta ra
ĠKonstan tino
ĠJugosla vio
G o
g un
Â ĵ
Ġe la
Ġp anta
Ġs ko
ti el
al ta
Ġkon jek
ÅĿ ir
va torio
pe toj
ke t
Ġra cio
par e
ĠMar gar
ami ko
wa y
Ġsimp l
Ġfaci lan
Ġvide ble
Ġstatus on
R us
Ġe mis
Ġd am
li koj
va taj
Ġsub it
Ġres taÄµoj
Ki e
Ġâ ĸ
Ġaran ÄĿon
ĠÐ ¿
ĠeÅŃro panoj
Ġpan or
ĠKam bo
Ġgus tum
Ġkomis ion
gma il
h ing
an ier
Äī ado
ki r
Ġkre dantoj
Ġfi das
Ġatmos fero
J or
en ca
Ġpar oj
Ġtro vig
tiko loj
Ġfa ktojn
Ġplen umo
Ġins tigas
Ġprodu ktojn
ĠDum e
cri pt
Ġmontro s
ĠBelorus io
ĠSkot lando
Ġsu pozi
pi c
Ġpe coj
Ġsuper flu
Ġkar iero
Ġsemajn on
Ġaser toj
ĠUN ES
Ġfan tas
ĠZim babvo
Ġde te
ti lio
Ġne di
ĠS enato
uz is
Ġkel ka
ĠW it
Ġprefer is
Ġ196 6
ĠdaÅŃri gas
Ġkontin entoj
Ġpreter las
Ġinstr umento
Ġpropri eto
Ġekha vis
V o
ka ÅĿ
us t
aÅŃ to
go lo
Ġtra gedio
Ã¡ l
ĠDi ego
Ġzor go
Ġsilen te
K E
Ð ¿
an s
Ġmal dika
Ġkun igi
ĠTi ele
Ġsin tenon
Ġam ba
et te
ĠÅĿan co
Ġsoci on
Ġson ÄĿo
Ġmalkov rita
Ġanon ci
Ðµ Ð½
pel is
Ġelektroni ka
Ġjud ojn
x u
Ġm amoj
do zo
Ġpre ÄĿi
Ġaper igis
Ġurbo centro
Ġinteres ojn
Ġscien cisto
ĠKar i
Ġimp lik
Ġrekon as
Ġkunsi doj
ĠLern ejo
d ur
Ġre le
ĠE lizab
Ġali maniere
kaj a
Ġko doj
ha vas
Ġplan ko
Ġ9 9
ĠDi e
Ġkris tnas
Ġvesper manÄĿo
Ġlar moj
Ġestab lita
H ejmo
f alis
rin toj
tin toj
Ġindi kis
Ġordon ojn
ph y
ĠBen ino
ĠAra bio
Ġlegen do
Ġk g
ol d
Ġspeci ali
Ġlogi ka
ĠÄĿ oje
Ġpri ju
Ġhom amaso
Ġrezul tis
Ġmalfer mas
Ġamas oj
Ġkoman danto
Ġkaf ejo
ĠBangla deÅĿo
! Â»
ĠS ci
Ġo kci
tan aj
ver a
Ġpa fi
Ġpa pera
voj aÄĿ
ĠAl ta
Ġâ Ī
Ġlar ÄĿe
Ġefektiv igi
Ġfervoj a
ar bo
es s
ĠI tal
ĠVi aj
vin oj
Ġkonstru as
vor taro
Ġkonson antoj
zam bi
L Y
pa la
ĠNo vaj
Ġmez uro
Ġfoj foje
Ġchi am
Ġmaljun uloj
ĠKos ovo
Ġklasi fi
Ġkontras te
Ġgeedzi ÄĿo
ĠVladi mir
ĠB ru
Ġfor tik
Ġkor poj
Ġtrans loÄĿ
Ġvin ber
ĠKun e
Ġgeo grafiaj
ĠA ir
so cia
Ġpost tagmeze
Ġkov ritaj
m ina
ĠA ri
Ġspe kti
ÅĿi ma
Ġ192 5
Ġfaj ron
Ġfut balo
ĠLis bono
ĠK y
ko di
ĠA aron
Ġmal re
Ġma gn
ĠRe giono
Ġaten tigis
Ġekster landanoj
mul taj
ĠUnivers ity
Ġmalbon on
Ġeksperi men
âĹĭ âĹĭ
Ġor eloj
din ta
Ġeldon i
Ġlitera turon
ÅĿan ÄĿ
Ġspor to
Ġsk emo
x e
ĠM ur
Ġkonta kton
Ġpalestin anoj
es taj
Ġmi ras
me zo
Ġpen tr
Ġkomun isma
Ä¥ an
Ġmalfer miÄĿis
kondu kis
Ġapo gi
Ġkorek ti
ĠSimp le
F ederacio
ĠÄĿ er
ĠR emo
Ġlito va
Ġita laj
k ing
Ġkom plik
Ġkons cien
Ti un
Ġmez uri
Eni ru
di ÄĿi
Ġmi ris
ĠEsperan te
be zon
Ġdisku ton
Ġbo tan
Ġfu ÄĿis
bata lo
ffi ce
tegori oj
g ha
ri me
ĠK ab
ĠS tran
ĠP Ã©
Ġdispon igas
ĠNi kara
Ġrapi do
Ġakti vas
Ġiden tigi
Ġcifer eca
Ġtrapas i
Ġi lojn
ĠF lori
ĠBa vario
Ġamas a
ĠVer duloj
ĠSek retario
Ġdiferen con
ĠtaÅŃ gan
Ġara boj
ĠGram Trans
Ġal tern
du be
Ġver kitaj
Ġra ÅŃ
Ġso lan
Ġkontro lon
ÅĿan ÄĿo
Ġ196 2
Ġmur do
L igiloj
Ġli tur
Ġg aja
zi ÄĿis
ĠF ut
Ġmor tos
ĠUnu iÄĿo
Ġeben aÄµo
d k
Ġkom paro
ce lo
Ġsen tojn
ku ri
ĠAn dal
Ġide aloj
Ġprogra mado
Ġpres krib
Ġsignif oj
Ġampleks an
ĠVarso via
te br
Ġre gxo
ĠH ab
par i
Ġkole ktas
Ġmaj us
Ġanon co
ĠKalifor nio
B i
k tro
ĠF esto
ek do
Ġliber igis
Ġrigar data
ĠSi berio
ĠanstataÅŃ igi
ĠIs la
temp an
Ġsoli dareco
ĠT uni
Ġpli vas
Ġtra f
Ġsan ktulo
Ġsti lon
k vanto
l umo
Ġm uz
Ġri pozi
ĠJ em
Ġkor te
Äīe fe
Ġdom ojn
Ġgaranti as
faci l
E Äī
Ġri Äīe
ve turo
Ġgvi dado
Ġ24 0
Ġ192 7
Ġleg ebla
ĠIS O
ta doj
to do
pe o
ek de
tro po
Ġuz os
Ġmor tigas
Ġto tala
Ġ197 2
ĠKam er
Fran cio
S A
Ġre kor
ĠR ub
Ġle s
pre zento
Ġkomun umon
son e
ĠSu pra
Ġstari gita
up r
C h
ĠÄī em
Ġvi rus
Ġl en
Ġek is
Ġfa li
Ġbi cik
ĠSu do
Ġmis io
Ġblan kan
kompren eble
ĠHer cegovino
ĠJos ef
Ġleci onoj
ajn is
Ġpri paro
ĠT V
Ġmon daj
ĠO b
ĠÅ ģ
ĠPa trino
Ġab rup
Ġbo ato
ĠTa g
su kces
Ġstatis tiko
Ġdestin ita
f ama
p ento
Ġor den
Ġneces an
Ġflu gas
Ġmemor u
ĠÐ ²
201 0
Ġmalsu pra
Ġsti mu
ĠUz bek
Ġfron to
ta le
re gi
ĠM eso
ĠaÅŃ toj
ver ko
ĠÐ Ķ
kondu ko
ĠKongres on
ĠJordan io
gan a
Ġdo g
por tis
ĠÃ ī
and ro
Ġpoten coj
Ġvetur as
Ġepisko poj
es an
ĠS va
ĠG en
Ġpoten ci
Ġata k
Ġ192 4
Ġjarde ko
C C
Ġi es
pe z
Ġek parolis
Ġkor oj
Ġankor a
Ġsan gon
Ġalvo kis
Ġhispan an
II I
Ġtraj to
ĠEdu ardo
ĠVaÅĿing tono
t l
Ġ `
in amo
Ġne for
Ġg ento
Ġkomple ksa
Ġvesper on
Ġgar di
Ġates to
ĠDoc umenta
ci Ã³n
de mo
aÅŃ skul
ĠH omo
Ġkiam aniere
ĠÄīef ro
ĠRe in
Ġperson an
ĠBa ch
Ġeven ton
Ġnatur on
ĠAkade mi
ĠFrancis co
Ġdenas ka
n ar
s as
w ig
ri gis
Ġvi gle
Ġlim igi
Ġmaljun aj
Ġform iÄĿis
Ġfabri ko
ĠJohan n
Ġf olk
gu e
Ġprof eto
vita vy
Ġdosier ojn
or t
Ġre gadon
tis ma
ÅĿ in
ĠMa dagas
Ġkru ela
ĠÄīa p
Ġtransi ro
Ġplejo fte
L and
c l
i am
Ġs fero
Ġaldon ita
Ġrespon dojn
kos taj
pub lik
Ġvesper man
Ġkomenco s
Ġagnos kis
ĠÄĿen as
Ġmomen te
Ġteori on
ĠBata lo
A d
h oma
mo va
ĠF ebruaro
pren antoj
lon ga
Ġkie lo
ĠSta tu
Ġreprodu kti
V I
Ġa ÄĿ
ĠN an
ĠAn dro
Ġminu to
Ta go
Ġafa ble
Ġs ume
li brojn
per fek
Ġsen kul
Ġsen uti
Ġkla var
ĠKvin petalo
Ġf lo
ka dis
va la
ĠB ene
Ġfar ata
Ġka co
Ġcer teco
Ġkres kon
Ġmil da
ĠY o
ĠPoÅĿt kodo
Ġvi dante
Ġo ksig
ĠA Ä¥
Ġna d
ĠPa tri
Ġevolu as
ĠSu fi
Ġbu ÄĿeto
ĠZam TV
Ġpod kas
ĠHai tio
e doj
Ġ \
Ġs ino
Ġal kuti
Ġi l
Ġvi ron
lan tojn
ĠH as
Ġsci ante
Ġ196 5
Ġapo go
ĠMol da
Ġekzek u
a p
Ġg eni
Ġsen dos
Ġrila t
Ġmod esta
Ġ195 4
fre d
ĠinÄĿeni ero
P ra
Ġp uno
Ġmal favor
ĠH A
Ġnom umita
... "
Ġspe gu
Ġmar ko
kom o
Ġ196 4
ĠMika elo
k li
ĠÅĿ tor
lan a
ren o
Ġme tu
Ġang laj
Ġraj tis
ĠSi mile
201 2
m pa
Ë Ĩ
å ı
un e
ĠN ami
ia do
Ġar ti
Ġkla ran
Ġperson ajn
eg ro
Ġfu ÅĿ
ĠkaÅĿ ita
ĠCx u
g r
le do
Ġvi vos
Ġmi gran
Ġli kva
ĠT el
Ġka toj
Ġsoci ajn
Ġrakon tojn
Ġrezul te
Ġ197 1
Ġimperi ismo
Ġara baj
Ġtaks is
Ã§ o
dres on
gran daj
ĠMon ato
Ġfo tilo
Ġflan ken
Ġduon e
Ġfal sa
ĠBal ta
p ing
in ujo
ĠL igoj
ĠA L
de c
ki es
Ġkonsi las
alis ta
mem broj
Ġalvo kas
Ġron d
Ġvenon t
Ġhistori istoj
Ġa ba
Ġel las
tro p
ĠantaÅŃ ju
org aÅŃ
ĠBer lin
Ġem ble
landan o
Ġstul ta
Ġnub oj
N or
Â Ĺ
te ko
ĠT al
ĠB ol
uz io
ek zis
Ġlern adon
Ġliber igita
mul te
Ġ196 3
Ġfes toj
200 4
ĠpaÅĿ ojn
Ġpose daÄµo
çļ Ħ
a Äī
p ti
or gano
ĠK em
Ġkun fan
van oj
Ġpermes into
Ġprakti kaj
igu el
ĠWi kipedia
Ġagra ble
Ġfem in
y i
ĠG r
Ġro las
Ġer aron
gh as
ĠDis er
Ġher bo
Ġfundamen taj
Ġalu das
eb ro
Ġgra co
Ġ195 7
Ġtr um
A b
V ia
v uloj
Ġc ind
Ġsur loke
Ġ6 2
Ġekster en
Ġdev igas
ĠBo hem
Ġprofes ie
Ġkona tiÄĿi
Ġsimpa ti
R im
Ġi al
Ġg ard
Ġg iganta
vi co
ĠI F
Ġek lo
ge o
Ġfil inon
Ġkomple ks
Ġkov rilo
Ġprinci pon
ĠAle x
ĠindiÄĿen aj
Ġm amo
Ġin tri
Ġkun a
Ġfor mita
Ġor gen
tur no
ĠBo ur
ins uloj
ĠNikara gvo
) [
Ġal to
Ġta buo
kte jo
Ġeldon on
Ġfaci ligi
Ġeston tecon
Ġnatur an
Ġvenon tan
Ġsurpri zo
Ġprokla mis
ĠNom spaco
E P
v ina
Ġ æ
vi Äĩ
ĠPar is
Ġvun di
Ġfenomen oj
E le
Ġla i
Ġkun venon
Ġfor vi
Ġpen son
ĠÅ ½
Ġkunlabor as
ben aÄµo
iuj n
Ġpsiko logio
Ġstan dar
Ġeksta ris
ĠDocumenta tion
Ġv is
Ġlo ÄĿi
ch es
Ġofici roj
Ġnum er
Ġsom er
Ġagnos ki
d erna
Ġhel pa
stra to
Ġgaze ton
Ġhal t
Ġemin enta
Ġslova ka
ci ÄĿis
Ġre kt
ĠA ktu
Ġmal vas
Ġinter no
ke ton
Ġven tro
ĠKa tedralo
Ġden s
Ġses io
Ġklopo do
Ġmalpermes ita
Ġkvi eta
Ġtrapas is
man to
ĠAn ta
ĠKomun ista
Ġsan g
Ġsitu o
ĠÄīefe piskopo
Ġlim igoj
ĠAra baj
Peter burgo
G a
Ð ±
ĠM embro
Ġnaci ismo
In stru
Ġeli ras
B A
Ġk s
Ġli ge
ĠP ierre
Ġfar m
gan do
ĠMi lano
Ġ196 1
Ġbra koj
Ġmalvar m
o ku
ti ÄĿoj
Ġal paro
ĠS vitavy
Ġg el
Ġpe te
Ġkonta ktojn
201 1
Ġsupoz iganta
Ġsalu tas
ĠKore a
Ġoperaci umo
ĠWiki Trans
k m
Ġt ris
Ġli gna
Ġg amo
ini taj
Ġob sta
Ġpu ÅĿ
Ġcxiuj n
Ġisra ela
g aro
di t
ĠD r
ten egro
Ġ19 01
ĠRe zul
Ġforlas as
ĠAntaÅŃ e
Ġsor ton
Å į
ka o
Ġta pi
Ġno bel
Ġsci oj
Ġplen igi
Ġpartopren antojn
ĠUni on
ĠRo y
Ġprezento s
Ġrit mo
Cer te
G vineo
e y
e ven
Ġa eron
lo w
ĠM ed
ĠR ad
fer e
Ġnom atan
ĠÄīu ro
ser io
Ġprepar as
Ġron doj
Ġenspe zoj
ĠAbra ham
w ald
in en
Ġre don
âĢ ĺ
os aÅŃ
Ġprele gon
ĠmaÅĿ inoj
Ġaver aÄĿa
Ġpek oj
Ġbol ÅĿe
Ġekspedi cio
al to
Ġre ton
ĠP hi
bu ro
Ġakti vado
fri ko
Ġeni ro
Ġ195 3
Ġpubli kon
Ġkompro mis
em is
em ent
ĠG uj
ver e
dan oj
Ġlas te
Ġmateri alojn
Ġteori oj
Ġtr ono
Ġsoli d
akti va
Ġrimarkin da
unda tion
D L
Ġpo lan
ĠÄīi es
tu be
Ġspeci f
Ġsol voj
Ġve ter
Ġ192 6
Ġas is
ĠBu tano
Ġvalor ojn
200 9
ĠPan amo
ĠFu ku
p ris
ĠE mir
Ġsuper is
ĠMal supra
skul tu
Ġmenso go
Ġetn aj
C A
e Äī
Ġ á
Ġo voj
ĠV I
ver boj
me co
Ġven dejoj
ling von
Ġmili taj
Ġaten tigas
Ġbata lon
Ġriver on
Ġbri lis
Ġaga dojn
ÅĻ ÃŃ
Ä¥i vo
ĠinaÅŃgu ro
O kaz
U EA
Ġ Ñģ
el j
ÅĿ tono
ĠA po
Ġpen d
Ġori ent
Ġperio doj
ĠaÅŃskul tas
ĠOrgani zaÄµo
ĠaÅŃton om
F un
M S
ro po
ÅŃ ten
ko p
bo lo
Ġhom ajn
ado s
Ġge ome
stra te
tradu koj
, ,
Ã Ħ
Ġin dul
ran oj
du o
laj a
Ġkompren on
Ġliber igo
Ġride tis
ĠSri lanko
Î »
Ġi pernity
Ġsek undoj
ĠÅľ tu
cer te
Ġde komence
ĠL ando
ĠÄīef ajn
ĠRe da
Ġmalri Äīeco
Ġaktu alaj
ĠUS D
Ġne ÅŃ
Ġka ÅĿis
Ġkons cienco
Ġba tis
Ġmar nivelo
kom puti
Ġvoj ojn
Ġkur as
ĠAleks ander
Ġom aÄĿe
Ġukra ina
ar meo
Ġ19 13
Ġpa tri
Ġda tiÄĿas
Ġbon on
Ġmor ta
ĠW ind
Ġaten tu
ĠÅĿta lo
ĠMon tenegro
Ġfo kus
Ġamas e
Ġinten sa
kva lita
Ġpol vo
[ âĢ¦]
Ġen am
ĠT r
Ġfor Äµe
Ġku iri
ir kaux
Ġpres ita
Ġpatr inon
Ġgas o
foj a
ĠJor ge
Ġdistingi voj
n acia
Ġti mu
ĠL ub
Ġpatr ujo
Ġkomer cistoj
ĠFo undation
Ġprofi ti
Ġkvali fi
ĠMadagas karo
A mi
g xi
Ġsin ta
Ġspe gulo
tema lo
Ġisla manoj
Ġslova koj
I s
Ġi tin
Ġpor tu
kon traÅŃ
ĠF ami
Ġno toj
Ġfra p
Ġ9 5
Ġsal on
Ġdor mis
Ġprepar ita
Ġrea ki
Ġgrande gaj
Ġintele kt
Ġcivili zo
fami lio
Ġen korp
ĠN ata
Ġman k
Ġhav igis
Ġregu laro
ĠEst us
Ġekkon is
' ll
K an
m ulo
Ġpre t
ĠJ amaj
Ġapar tajn
Ġkap tas
Ġinflu i
Ġkriti kis
t j
Ï Ħ
Ġla goj
Ġre ferenco
par on
Ġins u
Ġspeci ojn
Ġve turo
ĠGol fo
ĠSekure co
ĠKaza Ä¥io
ĠS S
kon kurso
ĠVi zito
ali go
Ġrila ta
Ġ7 00
ĠMal granda
flu gis
Ġordin ar
Ġbalo tado
Ġhi p
Ġavanta ÄĿojn
ĠKongres a
Ġares tita
ĠWal ter
ĠĠĠĠĠĠĠĠĠĠĠĠĠĠĠĠ ĠĠĠĠĠĠĠĠĠĠĠĠĠĠĠĠ
H O
T U
Ġte amoj
Ġsek von
pro kras
Ġkontro lis
bir doj
o d
Ġa sek
lo kon
Ġre form
Ġkons pi
ĠKom ita
Ġju ÄĿo
Ġdona c
Ġinvi to
ĠpaÅĿ on
Ġeventu ala
f ara
Ġki lo
Ġo pozi
ĠF S
pren u
ĠEn landa
Ġpe ton
Ġgvi data
Ġpren ita
ĠJu ven
Ġnig ran
Ġdol Äīa
Ġner vo
w is
ĠS tre
Ġkun pre
Ġkom pen
no to
Ġci taÄµo
Ġsignif ojn
Ġadres oj
Ġkalku las
Ġmembr aro
Ġvidin daÄµoj
f eld
s z
Ġli bre
ter no
Ġneni e
ĠMar x
daÅŃ ra
ĠX XX
Ġperio daÄµoj
ĠPara gvajo
Ġhim no
ti gado
Ġo pozicio
ĠP io
ĠT am
Ġang lo
Ġesplor istoj
ĠIsra elon
Ġinvers e
ta vo
ĠÄī inoj
ĠC is
Ã© e
Ġop tim
Ġvid vino
Ġkapab lojn
IN A
Ġseks umi
Ġreale co
Ġmalven ko
Ġtrej na
K vin
to ma
ĠD as
ĠÅĿi pon
ĠW as
ĠPor talo
Ġhal tigi
Ġega laj
Ġapro bita
Ġkategori igi
de ma
Ġha ven
ĠPa pu
ĠJo Mo
ĠBo c
Ġden tojn
Ġbalo to
ĠVa tikan
Ġreprodu kta
Ġtelevi da
Ġprovizor a
Ġprovizor e
T e
to v
ĠS tar
ĠlaÅŃ dire
Ġmo tivo
Ġparo lante
Ġkor tego
Ġkompren os
Ġce tero
ĠÅĿta tan
ĠRo bin
Ġgrand ska
Ġeksplo do
Ġsova ÄĿa
Ġvikti mo
Gran da
Ġrubri ko
H er
tis tojn
ĠH il
Ġsigni fi
Ġamas on
tina to
inter es
Ġtea traÄµo
Ġripe ti
Ġinform iÄĿi
Ġpromen i
Ġpal pe
bir do
ĠmalÄĿus ta
b es
peran ta
Ġdi ino
tre to
Ġmala pro
Ġmala vanta
Ġmas ak
201 3
Ġhor on
Ġekle zi
d n
ta goj
Ġa stro
Ġak ces
Ġfin as
ĠFran co
ĠDan k
ĠtaÅŃ gaj
Ġsom ere
Ġtermin on
= =
f ado
Ġsi diÄĿis
ol ing
Ġor deno
Ġaldon an
ba t
ale s
Ġreda ktor
Ġobser vas
Ġcir klo
bre co
ĠSam uel
Ġlib ero
ĠCX ar
E ÅŃro
Ġi aj
ern ak
spe ci
Ġbi ci
Ġler ta
Ġmesa ÄĿoj
Ġmalhel pis
× ķ
Ġ ).
ta bulo
ĠA risto
Ġse ÄĿo
ma don
Ġta ba
kti ko
Ġem eri
Ġkli entojn
teli taj
ĠFern ando
ĠJem eno
" ?
ÅĿ ojn
pre cipe
Ġfi del
Ġbri le
Ġamp lekso
Ġgrama tikaj
Ġmallar ÄĿa
li tan
Ġb er
Ġsi me
ve t
ĠC he
Ġrapi dan
ĠÃ ¸
Ġmod elon
Ġreda ktis
Ġesplor as
200 6
Ġbul teno
Ġornam ita
Ġsinsek vaj
Ġbabi lado
Ġes eo
gi aj
ck er
ĠmanÄĿ aÄµon
Ġorien taj
rigar d
Ġsekreta ri
Ġkr oni
Am eriko
Institu to
ĠMolda vio
K lubo
ĠG Ã¶
Ġno cioj
Ġpe z
Ġpren os
Ġfeli Äīon
Ġapo g
Ġprezidan ton
b ero
ri l
Ġak voj
Ġfon tojn
Ġfun do
Ġfil ojn
Ġkonser vado
ĠFon daÄµo
Ġsab ate
Ġbas ton
ĠTrans ilvanio
Ġnukle aj
kole kto
Ġgel ern
V enon
c ka
ĠM y
Ġpro vu
ĠB eli
ĠU gando
Ġno tis
Ġkro ata
Ġflu ti
Ġimp reso
Ġokup iÄĿi
Ġembar as
ĠFried rich
B O
s at
in kluzive
ĠA h
ajn a
Ġdi k
Ġmo do
Ġiom a
Ġlu don
ĠvoÄī dono
ĠKru co
ĀĀĀĀĀĀĀĀĀĀĀĀĀĀĀĀ ĀĀĀĀĀĀĀĀĀĀĀĀĀĀĀĀ
ĠBandar Q
V E
c ina
o kaz
Ġb eb
Ġpo lojn
ĠF ron
Ġsen ar
ki on
ni ca
Ġaten tigi
kon tra
Ġmin us
Ġrenkon to
Ġprakti kas
Ġordon on
Ġvoja ÄĿas
Ġparla menta
ĠSal vadoro
ĠPla co
ĠEr n
Ġsuver en
A C
Ġf ia
ran ko
lu b
ĠÄĪ a
gra da
Ġvo kas
Ġmor tigita
ĠMa lantaÅŃ
Ġpi an
vor tojn
ĠÐ ½
ĠIntern acian
Ġefi kas
ĠTa ÄĿi
ĠCen tr
Ġ195 5
Ġrekon i
ĠGron lando
ĠGva temalo
i va
p df
x a
Ġti r
Ġpre ven
Ġkam pon
tun e
Ġvali di
Ġunuo pa
Ġinstruis tino
ĠBona ero
Ġpafmor tigis
g run
en kov
ĠVi kimedia
Ġkomen con
Ġmis i
Ġaran ÄĿita
Ġinten se
Ã¤ n
ĠLin k
Ġescep toj
Ġkomunum aro
f el
g ine
h oro
ĠK ura
ĠE EU
Ġkre deble
Ġfi ki
Ġ194 3
Ġarm ilojn
Ġtrar igar
Ġburo kra
ĠJamaj ko
F o
h aÅŃ
n una
ĠL KK
ig ajn
ĠA men
vis toj
âĢĿ )
Ġserio zaj
fra to
Ġforma la
igh t
Ġfron te
S cript
s ing
ka pabla
Ġven t
ÄĿa don
ĠNa tura
Ġdor mas
Ġdosier on
200 8
ĠES PERANTO
Ġfek un
Û Į
ĠM iguel
ĠA tribu
Ġper sa
ĠD enove
Ġven dejo
ĠAn golo
Ġlin ion
Ġplan lingvo
Ġkapab laj
ĠMo zambi
ĠMos kva
Ġeten di
Ġvali da
Ġeksperi mento
ĠKas telo
ĠFrank fur
i pernity
us ence
de ci
Ġtro tu
Ġlan go
ĠIn dekso
Ġvo kalo
Ġam ori
Ġparola doj
Ġenke to
Ġtenden coj
ĠTea tro
ĠKambo ÄĿo
Ġvi vaj
pro fes
et h
Ġna z
Ġmals ame
ĠGi orgio
Ë Ī
vi vis
ma tiko
tro pi
Ġmulte ge
ĠSa haro
ĠRi vero
Ġdetru o
Ġagnos kita
Ġgri z
Ġbor doj
ĠJac ques
B al
z ek
Ġi ra
ĠC al
Ġtra ktis
ĠMi chel
pu ra
Ġci tas
Ġve turilo
Ġapo gas
tike doj
Ġvaria Äµoj
Ġkonkre taj
Ġâĸ º
C on
Ġe go
Ġre taj
Ġmal ÅĿa
ĠLa u
Ġpar ado
Ġor bi
ĠO pen
Ġfi dinda
ĠÅ ¬
Ġdezi roj
Ġmuzi kisto
Ġreda k
Ġcx irkaux
Ġdefen dis
ĠTra di
ĠÄīes igi
produ ktado
Ġnekon ataj
ĠAmi ko
Ġa kura
Ġre alaj
ran kvi
Ġko li
ĠÄīiu okaze
Ġcen troj
Ġkar t
Ġ0 24
Ġprofun do
ĠHel sin
D a
b os
Ġen u
ĠA si
Ġel fos
Ġpre si
Ġar Ä¥
ĠO to
âĢĿ ).
Ġtri ono
Ġkan tono
Ġplan ojn
Ġdisting o
ĠMan if
Afri ka
ðŁĺ¨ðŁĺ¨ ðŁĺ¨ðŁĺ¨
S em
d ing
ĠB ras
Ġek ri
mp oj
Ġevolu igi
Ġefi koj
Ð¾ ÑĢ
Ġscen oj
ĠKri meo
ĠmalriÄī uloj
Ġdiskrimin acio
wit ter
3 00
e oj
Ġa zen
Ġali ris
Ġeks hibicio
Ġaldon ante
Ġpron omo
ĠVen u
Ġsalu tis
Ġavan gar
ĠTrin i
% ,
s ulo
Ġo ceano
de fen
ĠkontraÅŃ bata
ĠUnu iÄĿinta
Ġscen o
Ġmovi ÄĿas
Ġabun de
b eno
c c
s igno
Ġti mig
Ġkun vo
Ġko ali
Ġpen tra
Ġplen dis
Ġdan ki
ĠRus lando
Ġcivi l
proksi me
Ġposed antoj
Ġakompan as
tari ko
Ġato m
Ġastron omo
Ġhospita lo
haus en
âĢ ĭ
Ġeks pon
ĠMar ie
Ġtiam aj
ĠÄīirkaÅŃ e
Ġeven tojn
Ġimp ul
ĠBah Ã¡
Ġvok aloj
ĠÄµa zo
ĠNami bio
ĠMozambi ko
% .
E O
T R
Ġa daptita
Ġli gojn
ĠM Ã¼
ĠI sa
Ġha ve
ern e
Ġci coj
ĠPa tr
vor ton
Ġhej mon
ÅĿi p
ãģ ®
Ġfian Äī
ĠSene galo
ĠTuni zio
a ki
s che
u ch
v d
ĠE L
em ia
tu do
ĠI V
Ġpen o
Ġfin aÄµo
tre o
Ġmuzi kaj
Ġon klo
Ġmallong igo
Ġmid zi
T ER
on aj
en g
di ro
Ġar ÄĿen
Ġsin joroj
Ġsin ago
Ġci co
Ki om
far ejo
Ġiam aj
Ġ195 2
Ġmiks aÄµo
ĠfraÅŃ l
ĠSinjor ino
ti en
om ojn
Ġpa ten
Ġkons tern
labor is
Ġves tita
br un
Ġespri mojn
ĠkaÅŃ zita
Ġdiman Äīe
ĠDeklara cio
h ora
Ġdis par
ga la
Ġme talo
kul turaj
Ġkul pas
Ġcen z
Ġnaci ajn
Ġmis tera
Ġpoten caj
ĠÐ ¡
ĠPre ÄĿejo
ĠDan ke
Ġkov r
Ġdoni taj
ĠRu ando
Ġado les
Neni u
Ġtu taj
ĠVi c
Ġfi don
son aj
gita n
Ġmemor on
Ġfing ro
Ġse kaj
ĠN enio
iÄĿ adis
ĠF e
ĠH ero
Ġdu bo
Ġno kta
rus e
Ġpu goj
Ġprofes io
cern e
Ġpri zono
ve c
pa go
Ġka bin
tor aj
Ġkri moj
Ġaso cion
ĠKol on
ĠEdu kado
ĠaÄī et
ĠIst vÃ¡n
ĠKamer uno
Ġkom i
Ġte oria
ĠC y
Ġar gen
ĠÅĿi ajn
Ġmar ki
ĠSi mon
Ġsilen tis
Ġparola don
Ġavanta ÄĿo
Ġekzempl ojn
Ġromp is
Ġful mo
Ġkondamn ita
ĠJuven tus
V V
om bo
ĠI ma
Ġinter ple
Ġpre tigi
ca ya
Ġsci vo
Ġkur b
Ġflu gis
Ġsubten antoj
Ġedu k
ĠKor tumo
Ġampleks as
ĠMem broj
ĠMem briÄĿi
Ġretpo ÅĿ
ĠKos tariko
scien ca
Ġspon tan
Äī ilo
Ġper i
Ġek funkci
Ġali ÄĿo
Ġfar oj
ĠKon ser
Ġjun eco
Ġkonsider ante
ÅĿi poj
Ġtag man
poli tiko
Ġera o
n ojn
ma taj
tri taj
ĠÂ ĵ
Ġparo lanto
Ġkap tita
Ġ13 0
Ġelekto s
ell s
ĠTrini dado
D io
ta cio
Ġne pra
va Script
Ġri Äīeco
Ġblo goj
ĠDan iel
Ġmer kre
Ġbab ili
ĠHon duro
Ġvio lon
Ġglute oj
ĠUzbek io
ĠEmir landoj
er ia
en tan
Ġal kla
ĠÄīi esulino
pa ÅĿ
no logio
Ġle gos
Ġofici ro
Ġtab l
Ġkondam ni
Ġemfa zas
Ġjubile o
A ten
t ch
Ġi z
ĠS ES
Ġno velo
Ġven igis
Ġci klo
hi en
Ġpi Äīo
Ġsper taj
Ġmond mapo
Ġanon cas
Ġrevolu ci
Ġfro ma
Ġmalsanu lejo
Ġm ed
Ġf est
ĠG vi
Ġtra fas
Ġra ba
Ġfa ktoro
Ġdezi rus
ĠÃ ¢
Ġesplor isto
Ġr ul
Ġgaranti i
Ġglute o
ĠTesta mento
c xi
Ġ oj
la taj
Ġde post
ĠK ER
de ven
ven dejo
ĠAl bert
ĠMa k
ĠFran caj
Ġim post
val or
Ġarme oj
Ġobjek ton
ĠSove tio
Ġrespekti vaj
ĠProjek ta
P ala
i den
m uni
o fici
ĠLa oso
ĠI ru
Ġri din
ber ia
Ġko kri
Ġkomen ti
Ġform ulo
Ġ189 0
Ġsinsek vo
Ġfanta zi
kie wicz
ĠteÄ¥ ni
g g
ĠC ho
Ġme tal
Ġsuper rigar
ĠloÄĿ loko
Ġspeci fita
tiga ta
ĠKas tilio
Ġkolon io
I F
ur boj
ĠS anta
ĠÄīi elon
Ġpi ano
ĠTo ba
Ġokul vi
Ġteritor iojn
Ġhero oj
ĠJako bo
Ġde kor
ÄĿ ajn
di r
ĠA kvo
Ġunu oj
ma le
Ġkol oron
Ġmona ton
Ġreda kt
Ġhon ore
Ġer ojn
ãĥ ¼
ĠÄīeÄ¥ aj
Ġinsek toj
Ġkon venas
Ġsu den
Ġpa ÅĿis
ĠO ber
pan te
Ġero tismo
Ġelsta ras
Ġsh ang
Ġvizitan tojn
Ġkapi tula
re volu
Ġv oje
ĠÄī eno
es io
Ġin a
tra di
dis trikto
Ġmem bri
Ġsa kra
ĠPor tala
Ġaser ti
Ġvalor aj
ĠSte fano
Ġkavali r
Ġmat Äīo
in dan
Ġel pe
Ġek lernis
Ġsa lo
Ġregis tara
Ġinstru adon
ĠDu on
Ġlitera turaj
ĠOr deno
Ġpaci entoj
Ġtrajn oj
Ġentuzias mo
Ġj uris
Ġpro gno
Ġlo s
ĠO ficiala
lik an
Ġsufi Äīan
Ġhon este
ak cep
ĠRa pi
Ġepo koj
Ġmuze on
T eks
Ġe tajn
in ing
ti ÄĿu
da tigita
ÄĿa taj
Ġge filoj
Ġkonsider u
ĠKo le
Ġkal um
ĠTo pic
Ġroman on
Ġpan jo
Ġmalsukces is
ĠMaj stro
ĠKir gi
San kta
ĠInvers igu
f oni
Ġno to
ĠVi ktor
ĠO kciden
Ġforges as
Ġspiri t
Ã¡n dez
Ġtab ernak
Ġmalrapi da
ĠScien coj
ĠMeksi ka
Ġlingvis to
Ġmid zo
Ġadvo kato
n eto
ĠMi r
ĠPo vas
fo li
Ġpi Äīoj
Ġnu daÄµo
ĠÃ Ħ
Ġrespe ktas
Ġfes tis
ĠOkaz is
ĠItal ujo
g hi
w ska
te ton
Ġdi e
ĠO k
cen ton
Ġmar kita
Ġekster lando
Ġuti lajn
Ġses deknaÅŃi
Ġripo zo
S O
Ġen kar
Ġki ajn
Ġre ÄĿon
Ġg ek
dan tojn
Ġlan gumi
Ġba t
ĠMa lio
Ġevi tas
Ġhon esta
Ġcir ku
Ġima gas
Ġkalkul is
Ġplimul ton
Ġmame go
Ġmame goj
. âĢĶ
j en
Ġb ebo
Äµ aro
ĠF ara
pa ca
ĠTi an
Ġtre m
pl ene
Ġvar iaj
ĠSeb as
i anoj
Ġa le
ri go
per as
ĠP ren
ĠD ub
ĠI vo
bor do
Ġdev igita
ĠAr to
Ġscien ce
Ġbata las
ĠVer sio
ĠY ork
ĠLon g
Ġliver i
____ ____
V ir
f eto
li kaj
ĠÄī in
de ta
kon ata
Ġman kon
Ġpoli c
Ġfil meto
ĠdaÅŃ ros
Ġkro man
Ġ8 5
Ġkonsi lio
Ð° Ð½
Ġmalpermes as
Ġagra blan
t ta
Ġs um
po v
ĠF is
ĠG DR
Ġsan kti
Ġeldon oj
ĠLe ono
Ġata ki
ĠLon don
Ġlingvis toj
ĠJesu on
ti ca
ĠK E
Ġfar iÄĿu
Ġno bla
Ġnor m
Ġuni kan
Ġbu tonon
scien co
Ġmid zumo
Ġafab la
Ġkuire jo
K I
K re
Ġn eri
lu doj
Ġha vaÄµo
par ton
Ġvo lu
et z
ori e
Ġekster landa
Ġnu bo
Ġrapor tojn
ĠserÄī ante
ĠFo iro
ĠKu vaj
ĠJun g
Ġokazon ta
Ġdeven aÄµon
Ġneo logis
lov skij
t ti
Ġ ^
Ġre zi
Ġar ticle
Ġpen as
ĠPro du
br ajn
Ġkar dina
Ġ193 5
Ġkarakteri zas
Ġekstre m
Ġplez ur
ĠHom aj
ti ÄĿos
as t
Ġne po
per caya
Ġg eno
us s
ĠG and
Ġka ta
Ġka du
Ġma terio
ras truk
Ġren ask
Ġkro ma
ĠaÅŃskul tu
ĠSer ge
Ġrime don
eso to
ĠPoli tiko
ĠPaci fiko
de go
ĠÅĿ pru
gan tan
Ġven en
Ġko dojn
bur gio
ĠSu pera
Ġmina cas
T ag
w an
ĠA pen
Ġse moj
ru e
ĠaÅŃ diÄĿis
ĠVi la
Ġra ci
ĠAl menaÅŃ
c ks
ÄĿis to
Ġter oris
Ġpartopren anto
Ġbezon ataj
Ġbo v
ĠvoÄī doni
Ġtrin kis
ĠLen in
for ta
Ġdeta la
titu do
ĠSa uda
ĠLu is
int us
Ġ; )
Ġreprezen tis
Ã¤ r
ĠKul tur
Ġmira klo
Sin joro
p ton
Ġes te
ĠK ub
ĠF ind
Äīe f
ĠMar io
Ġfra ton
Ġscien can
Ġbu ÄĿe
Ġkunlabor e
Ġvas taj
ĠSud ameriko
inde x
Ġsendepende con
ãĢ Ĥ
Ġa us
Ġkon ce
ĠÄĿ erman
man taj
Ġbon vena
ĠAn a
Ġating ita
Ġknab on
Ġmeto dojn
radi k
ĠVoj aÄĿo
Ġfilozofi aj
ĠGuj ano
Ġ zonoj
Ġmal plej
Ġper tur
pe c
Ġfor bru
Ti e
Ġuti ligas
fon to
ĠNa turo
ĠFa koj
Ġbur ÄĿa
Ġrekla mo
ĠFra kcioj
Ġbr una
Ġgratu las
K ri
S peci
Ġ ..
Ġs umon
li r
Ġpens u
ĠUnivers ita
ban do
inter faco
ĠvoÄīdon is
Ġintele kta
ĠFeli Äīe
Ġk ami
in er
Ġa i
Ġen ten
Ġne videbla
Ġka pa
Ġokaz u
Ġindi gn
Ġ9 78
ĠÄµurn aloj
Ġlerno libroj
ĠSem ajno
ĠChris tian
ĠGub ernio
Voj aÄĿo
u kso
Ġs aÅŃ
ci go
es anco
Ġmi tologio
ĠA zor
Ġsub skribo
Ġesti ÄĿas
Ġbri toj
IN O
Ek zemple
Ġpose do
Ġteori e
Ġkomb ino
ĠPapu o
Ġes tanta
Ġen s
Ġne esperan
ĠD oro
Ġali igas
ca don
Ġtie a
ĠÅ »
ĠMa ksi
ne ÅŃtra
ĠÄĿoj is
Ġkvadra taj
è¡ĢèĺĩæľĪè¡ĢèĺĩæľĪ è¡ĢèĺĩæľĪè¡ĢèĺĩæľĪ
Ġguberni estro
m el
Ġ q
Äµ enkov
ĠÅĿ aÅŃ
ĠN ATO
ga Äµo
Ġver soj
ĠKi uj
Ġdispon o
cen o
cen co
Ġdon ante
ĠEÅŃro paj
Ġer are
Ġapro bo
Ġaktiv ulo
ĠfraÅŃ lino
Ġnego co
ĠZam bio
Ġgita ro
r ho
le ma
ĠL F
Ġkon ton
ĠB ala
il la
Ġlo kajn
Ġsuper i
Ġvar marko
Ġpra va
Ġrea goj
Ġreali gis
Ġgre kaj
ĠPi ron
Ġkonvers aci
Ġbla zono
Ġalkoho lo
ĠÅľanh ajo
b lon
ci ita
tu ko
Ġ7 2
Ġkonsi dero
Ġ15 00
Ġvidpun ktoj
Ġimpos toj
li ÄĿi
re o
ĠH ere
Ġ19 15
Ġpa vi
Ġpost tagme
Ġcer tigas
Ġer ara
Ġestr aron
Ġdifin is
ĠAmeri can
ĠKristnas ko
k landoj
lan dajn
Ġra bo
ksi do
ĠKon stru
Ġci lin
Ġfon e
ĠAl t
Ġmulte kosta
ec t
ĠÄĪe fe
Ġkunlabor ado
ĠTo po
ĠBon venon
Ġfilozo fia
Ġkomputi lon
Ñģ Ðº
a c
Ġf ana
Ġne kla
Ġmal kom
ce to
Ġlabor isto
Ġpe zaj
Ġbu ÅĿon
Ġmez ur
Ġklasi kaj
http s
Ġfrene za
Ġprole taro
tebr uloj
Ä ¤
ro v
Ġre v
Ġdis doni
ĠÄīiu foje
Ġmar ÅĿis
kur son
Ġperio don
ĠWil hel
Ġerar as
Ġargumen tojn
Ġdro go
Ġf aro
ĠP rem
ĠO bser
ĠBa ha
Ġrea lan
sk Ã½
Ġkolekti va
Ġorgan ismo
! ).
s kri
Ġl oj
de blaj
Ġdi ame
ĠF AR
ĠG ren
Ġba ha
Ġvir ojn
ĠEl don
Ġkonfes as
Ġprodukta don
C o
l ujo
u er
á ĥ
is tan
Ġf legis
Ġha veblas
Ġkons isto
ĠKomun a
Ġtur koj
tras te
Ġkontro las
ĠGran daj
ĠOri gin
Ġkonfes i
Venon ta
a tribuite
ali igi
Ġmar kis
ĠAr Ä¥ivo
ĠAm ster
Ġalt nive
Ġjapan oj
ĠEkonom ia
Ġfakul tato
/ .
aj xo
ĠK lo
ĠÅĿ nu
ing hien
ma d
ĠAn der
Ġsek vu
Ġfun goj
Ġrenkonti ÄĿas
ĠpreÄĿ ejon
Ġinicia tis
hon e
Ġabun das
ĠvilaÄĿ anoj
Ġepizo do
b estro
ĠTi moro
Ġlabor ejo
Ġkul po
anu a
Ġprote ktas
201 7
Ġpira mi
h ero
Ġne ima
ran tan
kon sen
mo toro
Ġsen fina
ĠJ in
Ġfa ÅĿis
ĠJu li
ĠRa fa
Ġefi keco
Ġsubstan tivoj
Ġadop tis
Tra du
opini e
R iko
T ro
i x
an galo
am an
tan taro
ĠR imar
Ġfor mu
pa ce
ni e
ĠlaÅŃ t
Ġpoliti koj
ĠMul t
ĠBah amoj
ĠRegis taro
S R
s p
Ġt h
ton e
ĠD ro
so ft
ze jo
Ġkol onoj
Ġminis terio
Ġripe tas
Ali aj
ĠBud ho
ĠMalfer ma
p ran
vi za
Ġmal tra
uz oj
dis ko
Ġkons cia
ĠantaÅŃ eni
Ġnun e
Ġmor tigitaj
ĠKon tro
ĠMa ps
Ġnu traÄµo
Ġsol vojn
Ġfer mi
Ġevolu igo
Ġpromes as
Ġmiks ita
Ġdikta turo
Ġadjek tivo
T uj
e du
j ana
Ġm eb
Ġn arko
âĢ °
ĠF A
Ġide ala
Ġvar maj
Ġami kon
ĠÅľ ajne
Ġhar monio
Ġskla vo
Ġperfor te
ĠCez aro
Ġape la
c ra
Ġmor alo
Ġedu ka
Ġfabri kado
German io
Ġdeputi toj
ĠBrun ejo
I G
b loj
aci Ã³n
tra dio
Ġelek tr
Ġcx io
Ġgrama tikon
Ġelsen doj
Ġdesegn ita
aspe caj
ĠApri lo
or ig
Ġne ordin
ig ebla
vi c
Ġmon umen
Ġka li
Ġda toj
Ġno ti
ĠFon to
Tem as
ĠTaÄĿi kio
ĠToba go
B ri
K u
Ġa bor
ĠV el
vin tus
Ġsoci e
Ġvizi ton
Ġbi ciklo
Ġkondu ton
Ġmodern an
konstru ita
Ġavanta ÄĿon
Ġebli gante
ĠGab ri
or n
Ġki ras
ĠÄīi um
ĠT ul
Ġce lante
Ġprezi den
Ġskla v
Ġhazar da
ĠmonaÄ¥ oj
Ġalterna tivo
Ġrecen zo
ĠRej no
Äľis datigita
ĠBoc vano
a ko
Ġa vino
Ġne bulo
Ġvi coj
Äµ eti
Ġeks kluzi
Ġlabor ojn
inter facon
Ġindustri aj
fin ita
ĠSub ite
Ġinteligen ta
Be daÅŃrinde
Ġkorid oro
I U
lo ka
Ġmal vir
de oj
Ġsub ita
Ġsukces oj
Ġfo lio
Ġkomer cisto
-- -
liber a
Ġbab ila
ĠLas te
I u
Ġa c
Ġpri ta
ĠB io
Ġmon tetoj
tribu tion
Ġpartopren intoj
ĠSen naci
ĠBon an
ĠSur inamo
Ġbrus ton
ĠPu erto
Ġmam uloj
ĠBeli zo
I r
Ġla ca
po zio
ĠC xi
Ġpar on
Ġta ble
ĠKon ven
Ġpi k
ĠEk va
Ġkam para
tes to
gh oj
Ġmedi on
Ġrea gis
Ġaga d
Ġtutmon daj
Ġkonten t
ĠTh onon
Ġtab lon
ĠUr ba
man ÄĿ
tor e
Ġaper igi
Ġurbo domo
Ġkompren u
Ġmala pero
Ġperson eco
Ġkonsider ita
Ġfeder acio
Ġservi lo
ĠÄĿisda tigita
Ġsele ktado
ĠKana da
Ġfrun to
ĠEri treo
ĠEven tualaj
p hi
ĠJ anuaro
ĠLi an
Ġvin tre
Ġfil inoj
ĠPro ksi
Ġviza ÄĿoj
200 7
Ġrekomen do
Ġkontin enta
ĠHe in
Ġfoli um
Ġelpens is
Ġk esto
Ġre ten
vis mo
Ġ19 16
Ġven kon
Ġmalmul tajn
ĠeÅŃro pan
ign oj
Ġaktu ale
Ġaver tis
gor it
Ġmarks ismo
i b
Ġa Äµojn
Ġen sem
Ġne tuÅĿ
Ġ( Â«
Ġo sta
ĠA las
Ġel kres
Ġdi rita
ĠD in
Ġsen pere
Ġmon ton
tr us
ĠW el
rus a
Ġsa ti
Ġstu dojn
Ġsimp to
Ġoku pi
Ġproksime co
ĠKor Äµenkov
ĠKonsi lantaro
lari um
un de
Ġf us
Ġdis koj
Ġdispon eb
Ġtradi cion
Ġban k
Ġfen estr
Ġprogram ero
Ġprizor gas
Ġaktive coj
Ġmalfeli Äīo
i j
Ġs tro
tor y
lej on
ke don
Ġeks pan
Ġvin tra
ĠAr tikolo
Ġgen roj
ĠTem po
ĠmallaÅŃ te
Hun gario
Ġkardina lo
K ale
d ler
p rojekto
la Äµojn
Ġk amen
Ġal um
eb er
Ġfor mul
Ġkons ilojn
âĢĿ :
far i
Ġtradi cian
ĠFo toj
hor lo
Ġbonven igas
ĠOS M
L ER
en daj
Ġf los
Ġin jek
ĠS tras
Ġpro pre
Ġsen ditaj
Ġtu tajn
Ġlo gx
Ġem er
ĠAtlan tiko
p raj
z ano
ti pa
ĠI R
kan alo
Ġindi koj
Ġprofes oroj
ĠmanÄĿ aÄµojn
Ġsti loj
Ġiden tecon
Ġmalpermes o
ĠEks pozicio
ãĤ «
Ġkir ur
Ġhelpan toj
M I
Ð ķ
ä ½
Ġa lar
re con
Ġv u
Ġpor doj
ĠR em
Ġdu bin
Ġaplik as
Ġju ÄĿi
Vi kipedion
ĠBra tis
Ġregn on
Ġkomencan tojn
Ġmal pra
Ġri ve
for mon
Ġven kas
Ġsci igi
pre m
Ġter uraj
ĠÄľi aj
Ġna zi
Ġna zia
Ġmen son
Ġkres ki
ĠNa tional
gh y
Ġsufer o
kato lika
Ġdeks tren
ãĥ ĳ
kura ÄĿ
ĠVo lapu
fil umo
Ġprun te
rho den
G S
Ġkon di
ÅĿ ita
Ġmi lojn
Ġven d
Ġsek vos
ut sch
Ġsper ti
Ġ190 4
Ġripe tis
Ġdese gni
Ġinterkonsen ton
Ġato mb
Ġdro goj
O kaze
t ten
an io
ul inon
ĠP el
Ġsen prokras
Ġkre du
Ġ201 9
ĠW h
ĠKon f
Ġkompa t
klas o
Ġelmon tri
Ġrobo to
Ġimpli cas
Ã§o is
Ġa men
Ġre tradukoj
Ġan as
tr y
Ġmo viÄĿo
ĠAn tik
pen e
Sam e
wi ec
Ġetern an
ĠAleksand r
ĠVol ley
Ġinterkonsen tis
Jo h
ĠNiko laj
Ġb ala
ĠE bur
Ġl ist
ĠV aj
ĠI K
Ġinter veno
Ġ4 80
Li cenco
cx oj
Ġon klino
Ġkru da
ĠÄĿoj on
Ġinvi ti
ĠMul te
ilu zi
ĠRemo val
M P
Ġa fek
Äī es
da ur
ĠR ss
fi ks
Ġsa ÄĿo
Ġgrand urbo
Ġdiferen caj
Ġsup ran
Ġblin da
Sek cio
ĠStel larium
ĠKuvaj to
h io
r ing
pre mio
Ġneces us
val on
ĠVin cent
ĠVes per
ĠtaÄī mentoj
ĠAtribu te
A F
E C
ĠS ti
de ka
Ġak toroj
Ġkla raj
Ġnu traÄµoj
Ġbata lantoj
Ġmemor is
Ġkunlabor anto
Ġflor ojn
Ġsx ang
Ġnordo kcidente
ĠantaÅŃen igi
ĠLand sat
# ?
la go
Ġek zilo
Ġplu ra
Ġrila tis
gos lovskij
Ġ0 8
Ġsim ilis
Ġsufer oj
ĠÅĿanÄĿ ita
Ġ190 3
Ġran gon
kap ita
ĠQ ui
ĠAt tribution
ĠBre tonio
anua tuo
I am
U nio
t ha
Ġp aj
di an
ven ant
Ġ4 50
ĠÅľ tatoj
Ġdif inoj
kos te
Ġfinan ce
a ti
e po
z ata
Ã »
Ġo pero
tu li
ĠD VD
vers io
si oj
ĠkondiÄī e
Ġna ÄĿ
Ġprezen tiÄĿis
ĠMe ta
fon so
Ġdekla ri
Ġhal tejo
Ġturn as
Ġmeze po
ĠKata ro
Ġforpas o
ĠJud ujo
B ordo
U B
Ġg is
ĠP L
Ġali ri
Ġmon tru
ol oj
Ġfar tas
Ġbo voj
kar toj
Ġkru ele
Ġrespe kton
Ġordon oj
Ġproce do
ĠÄīiuta gaj
Ġnorma laj
Ġgrun don
Ġpale stina
Ġtavo loj
Ġaktor ino
litera turo
b ino
â ĵ
Ġa ÄĿaj
Ġf aÅŃ
ka la
de ca
Ġdu ona
ĠO kaze
Ġofi co
Ġfer mitaj
Ġespl ora
Ġdire kt
Ġani moj
Å¡ ek
teria lo
ĠÄ¥ a
Ġveturi loj
Ġregn oj
D ek
U L
n ing
on bul
Ġf is
ka i
ĠA teno
ĠP ere
Ġta bu
Ġta bulo
tem pon
Ġsan on
Ġgerman lingva
Ġvian don
ĠAÅŃ ton
ÃŃ k
Ġprovin ca
ĠÄĪar to
Ġcir kvi
Ðµ ÑĢ
ĠHer oldo
Ġduo ble
Ġfe ÅŃ
âĹ Ħ
ĠAzor ÃŃn
in eto
Ġkaj o
Ġi di
Ġse tle
ed ojn
Ġuz antojn
Ġmili tista
Ġdisku tado
kar do
Ġprele gojn
Ġplenum ado
Ġekvi li
ĠEÅŃ geno
n elonge
å ¸
Ġa simi
ra Äµoj
Ġre fer
Ġb os
Ġpri zon
ĠT es
Ġeble cojn
Ġfi ksitaj
ĠRo berto
ĠÄīes as
ĠKol um
Ġpose di
Ġmalproksi maj
Unu a
Ġabun da
ĠTeri torioj
×Ļ ×
H e
T er
el is
ĠEs pl
Ġfor mado
Ġcen tron
Ġdef aÅŃl
Ġrapor ti
Ġfinan ci
ĠLing voj
Ġsign on
Ġinsta lis
Ġplez uron
Ġorto grafio
Ġsekure con
ĠFlor enco
Ġjubile a
Ġvidpun kton
b ejo
u le
ĠS kan
ĠF lan
Ġtrans skrib
Ġaspe ktojn
Ġkonklu dis
Ġminim uma
ĠNiÄĿ ero
Ġplat formo
e lan
Ġf res
vi er
ĠN er
ve con
ren ia
Ġindi kita
at h
Ġinklu de
Ġmur dita
proble moj
g acio
an ino
ka pa
ĠE N
Ġpost ulojn
Ġmo la
Ġsufi Äīis
Ġreprezen ti
Ġporde goj
ĠRein hard
, âĢĶ
Ġf ata
Ġkun fon
ĠB ill
pa ÄĿa
Ġsub spe
Ġbon vole
Ġsam on
kom pan
ĠloÄĿ ejon
Ġtur ismaj
ĠDu e
Ġsubskrib ita
Ġgelern antoj
Ġmi grado
Ġpri deman
ĠD eb
ĠÄīe lo
Ġres en
ĠEÅŃro p
Ġsetle jo
P rin
ĠV anuatuo
uz as
ki to
Ġres p
Ġfi ÅĿo
Ġdispon eblaj
Ġins pe
ad re
Ġspeci fan
ĠpaÅŃ zo
Ling va
Ġinfana ÄĿo
win ki
Ġkapitalis ma
glis h
ĠKirgi zio
ĠFind vej
J O
b reto
n eni
on ta
ti ano
Ġsu ker
las i
Ġfor iras
ĠO ktobro
ab el
Ġofi cis
KO N
Ġlonge co
lar ojn
ĠÅĿar ÄĿo
ĠGam bio
I uj
k lando
ï ¸
ĠA parte
ej aj
Ã¡ k
ĠÄīiam aj
Ġevolu igis
ĠBa den
tik ano
ĠJe hu
Ġtab loj
Ġdokumen ta
ĠFer din
li gu
Äī irkaÅŃ
om ia
ĠS tri
ĠF land
Ġsub ÅĿtato
ĠInter tempe
Ġkal end
ĠÄīees ton
Ġturn iÄĿis
Ġtekni koj
Ð½ Ð°
Ġdra mo
ĠBab el
Ġnega tiva
) âĢİ
es k
ĠL uno
ĠG es
ĠC ro
za k
ha vaj
Ġro koj
Ġtradu kistoj
Ġposte uloj
Ġkura ÄĿis
ele k
ĠaÄīe tas
ĠTiuj n
ĠCo un
Ġkonson anto
provi zo
Ġsudori enta
ĠAndro id
Ø ¯
un blog
Ġo pon
dis tan
Ġar taj
se e
cx as
Ġprofi ton
Ġinicia toj
ĠScien co
ĠVil no
Ġinven tis
ĠBus h
c le
g ento
l Ã³
Ġn ud
ĠS van
zi lando
Ġfor igitaj
Ġgran do
ab lo
Ġlu ktas
Ġ6 3
ĠÄµ eti
ĠIli aj
Ġkar ieron
Ġet na
Ġgeed zoj
Ġpripens is
Ġparale le
ĠMag gi
Ġeksi dis
b esto
u ÅĿ
Ġn ene
ĠR y
Ġmar koj
mar k
aran ÄĿoj
ph rey
Ġmalfacila Äµojn
No to
Ġpropor cio
ĠSalom onoj
z hou
ĠL esoto
Ġek dor
ve ta
ĠR oma
ĠAl b
Ġkro kodi
ĠEÅŃro pon
Ġves taÄµoj
Ġval uto
Ġdisku tas
Ġreda ktojn
Ġbru lo
ĠBri tujo
kin toj
ĠBu dap
rapi d
Ġeko logia
Ġhipo kri
ĠBr no
R es
r ino
Ġp int
Ġen reta
Ġti mi
Ġre vela
st ran
don g
ĠH ind
ĠMi Ä¥a
Ġmul ta
kti ka
Ġesperan tajn
Ġkomun ajn
Ġinklu dis
ĠÅĿlos il
ĠPrezi dento
Ġmalagra bla
I om
R en
o la
t Ã©
ti es
ĠÅĿ losi
Ġka te
Ġdeta laj
Ġna zo
ĠmalantaÅŃ en
Ġkonklu di
Ġkampan jon
ach im
? Â»
Ġv ak
Ġre ga
ĠG run
Ġdis sol
Ġeks entis
mon a
Ġsek voj
Ġ18 0
Ġrezul tan
ĠaÅŃskul tantoj
Ġata kojn
ĠMala vio
Ġdelegi to
hun gar
M or
P I
h omo
Â ª
Ġe fem
in is
ĠM O
ĠD un
ĠG usta
ĠJ Ã³
Ġfar uno
Ġling ve
Ġuz anta
Ġaper u
Ġdeci da
Ġpopo laj
ĠBo goslovskij
Ġproce zon
Ġvek iÄĿis
ĠinaÅŃ g
ĠjuÄĿis to
ĠSva zilando
tis tino
ĠÄīi us
ĠN ome
Ġsen iluzi
erman n
Ġnov eloj
Ġakcep tebla
gx a
Ġses dek
Ġlar ÄĿaj
Ġradio akti
Ġanarki istoj
Ġdelegi toj
gaze to
ĠFundamen ta
? !
m ora
Ġh u
Ġsu daj
Ġle ono
Ġres ur
âĢĿ ),
Ġter oro
bi oj
Ġmen sa
Ġstu dio
Ġkonsider oj
Ġpriskrib itaj
Ġfeli Äīaj
Ġ195 1
fra zo
Ġron da
Ġsolda tojn
å ®
de toj
po voj
kon si
mi er
Ġar ko
van i
Ġesti gis
Ġposte ulo
ĠSo ft
ĠDi rektoro
Ġekonom ion
Ġbazi taj
ĠÅĿlos ilo
ĠlaÅŃle ÄĿe
Ġal logi
Ġg am
Ġpar tik
Ġtu ÅĿi
Ġtre zoro
Ġkomun uma
Ġba pto
Ġdok tr
Ġgaze tara
ĠÄīa pelo
Ġbur ÄĿaro
Ġargumen tas
Ġarbi tra
ĠManu el
Ġe co
Ġre ktaj
di rek
Ġpo emon
ĠB y
pro vinco
kci ojn
Ġpas igi
ad ojn
Ġpopo lojn
Ġeldon itaj
Ġden t
ĠKy renia
di e
Ġl istoj
Ġmon ta
Ġsci ojn
Ġmen s
Ġ7 7
Ġkuti mis
ĠkaÅĿ e
ĠKol orado
Ġpromes o
Ġminis troj
Ġkriti kas
Ġmedic in
ĠKos mo
ĠLen ino
onbul ismo
2 000
B ar
c ante
k ena
Ġin da
Ġpre tigis
ku o
ĠO mano
Ġfon tas
th on
Ġ0 9
Ġlim igas
Ġfizi kaj
Ġafi ÅĿoj
gor ia
Ġsova ÄĿaj
ĠTurk menio
ĠHab s
p ronon
Ñ ħ
Ġs va
ĠM uro
Ġel teni
iÄĿ ado
pon to
Ġsur ter
Ġor kestro
ĠO ce
Ġho teloj
Ġkonser v
ĠSek elj
Ġia foje
Ġmodi foj
Ġvarme ga
m Ã¡
Ġe g
Ġe cojn
Ġp intoj
an e
Äī eno
uz on
ĠÄµ al
mar on
Ġtuj a
ĠY a
Ġremem oras
ĠÅĿul das
Ġmilit kap
Ġkomita tano
ĠEd ward
ĠLabor ista
ĠWar inghien
å ¤
Ġp ig
ĠG xi
Ġar mitaj
pu ri
Ġekzis tado
Ġuti l
ĠCh am
Ġalt lernejoj
Ġsurpri ze
Ġkriti kon
Ġisla mo
Ġos toj
Ġmalof taj
Ġsindika toj
ĠMediteran eo
P aÅŃ
j aj
al b
al s
Ġb in
ĠO leg
rin to
Ġapar t
ĠSan ktan
Ġdek re
Ġklari gon
Ġfinan can
Ġstran gan
ĠPi p
ĠVen is
Ã§ a
Ġeltro vis
Ù Ī
Ġv et
ĠK res
Ġj ul
va Äµon
fi ce
par u
Ġele kta
". [
ĠMon te
ĠTo ledo
Ġpun kton
flan kaj
id el
Ġata kon
Ġfavor aj
tiv aloj
Ġplifor tigi
Ġintervju on
ĠlaÅŃle ÄĿa
maÅĿ ino
? âĢľ
z ig
lo kaÅŃ
us se
Ġsen naci
ĠÄĪ ado
Ġma tri
Ġam b
Ġtrans dono
and el
ĠanstataÅŃ is
Ġson is
Ġtemp loj
kin s
Ġpromes on
Ġkolon ia
ĠVatikan a
E tikedoj
Ġa Ã½
Ġne el
ĠEsperan tio
ki un
ki am
Ġ3 20
Ġko pio
ĠRe ven
cer oj
Ġinten con
Ġkoncern an
Ġdisvas tiÄĿo
Ġgen toj
Ġkunsi don
Ġsuges tis
Ġteror istoj
Ġsankte jo
Ġpasint jare
Ġekspluata do
d ujo
i ajn
Ã ĸ
Ġ roj
Ġen miks
le ca
ka toj
du kto
pa ÅĿis
tor ojn
Ġta kso
Ġlabor ado
tur an
pro cezo
Ġba zoj
Ġang uloj
Ġaten du
ĠMa h
Ġ12 5
val ora
Ġrekomen dis
Ġkona tan
ĠÄīa pe
Ġrela tiva
ĠCar los
Ġinterpre to
Ġelspe zoj
Ġdelika ta
A G
O ffice
e tis
l le
n aja
li gado
Ġor aj
Ġkons ilo
ĠTi bor
igi te
Ġfon daÄµo
ĠSo li
Ġdisvol viÄĿis
Ġkomuni kiloj
Ġresponde ca
Ġunuo p
ĠTom aso
Ġtal ento
num ero
Ġmalpe za
Ġsenprokras te
w y
on is
ar kio
Ġpermes ite
ĠMar so
Ġnor daj
Ġnask iÄĿas
Ġkonkur enco
Ġreligi an
Ġmalo be
ĠVa tikano
Ġpriva te
sub e
Ġemo ci
Ġprodukti taj
Ġkonk ero
ci ÄĿo
Ġt us
ĠP in
pa to
Ġka poj
... ).
Ġvin on
bi la
Ġ6 6
Ġinstru on
ana da
ĠLe ÄĿo
ĠBra zila
Ġreferen dumo
n ajn
s un
om bar
ĠV alo
Ġmo de
kci aj
tin de
ĠMar to
ÄĪ io
Ġus e
hel p
pos te
uma tene
Ġtag libro
Ġpozi tive
Ġprogres on
bil do
Ġfide laj
Ġkonkre te
Ġintelekt uloj
Ã ²
Ñ Ī
Ġ Ã©
Ġa pa
Ġj an
Ġ1 10
Ġel tenas
ĠG ala
Ġtu ton
Ġkre pus
Ä¥ u
ĠSi lezio
Ġstra ton
Ġstra tegia
Ġkapab l
Ġgas tojn
tia go
Ġmallong ajn
Ġdiman Äīon
estr aro
ĠBlan ke
C i
P ub
b lia
g ul
la to
Ġfor esto
ĠC u
Ġci ti
Ġaten tis
ĠMa teo
ĠEk le
Ġsitu is
Ġorganiz aj
Ġras ismo
Ġgla cio
Ġkonvin kita
Ġapli kado
Ġbul gara
ĠtaÄī mento
U C
Ġa gos
Ġpri lum
ĠloÄĿ antaj
Ġim pe
ĠÅĿa f
Ġalian canoj
ĠRa y
Ġprofun daj
ĠTiam aniere
Ġalvo kojn
Ġmatema tikisto
Ġdatre venon
ĠindiÄĿ enoj
ĠK A
di ga
kon go
Ġmon tara
ĠC ama
for mojn
Ġko ver
ite co
Ġfra teco
Ġmen di
Ġating oj
Ġeldon isto
Ġfaci ligas
ign on
Kon traÅŃ
Ġgajn as
Ġmalo bser
Ġmalfor taj
Ġrenov igo
Pres s
Ġalmo z
ĠPermes ilo
s istemon
Ġi P
Ġpro pe
ĠJ im
ale ono
ĠFran ce
Ġkol ere
ĠTiu tempe
Ġsoci etoj
Ġkura ÄĿo
jor dan
Ġunuan ime
Ġsab aton
Ġsudo kcidenta
ĠÄĿusta tempe
Ġmalof ta
n en
â ĸ
Ġm el
Ġm ure
Äī itaj
am ple
fi ÅĿo
pa per
Ġpe con
Ġpoli tik
Ġbone gan
ĠAr n
ĠÄľ ardeno
Ġkole go
Ġdisvol vo
Ġkal kulo
his tor
Ġkonkur son
Ġkonten tigi
ĠTh eo
Ġadministra cio
ĠCar lo
Ġmanif es
Ġdispu to
Ġenspe zo
Ġimpon a
Ġciviliz acio
daur inde
p ul
Ġde fici
or ld
Ġfor iro
ĠG y
Ġpen dis
Ġkor t
ĠÄīiu kaze
Ġinf rastruk
Ġfilozo foj
Ġblu aj
Ġnas ki
rum p
ĠMaÅŃri tanio
ĠWilhel m
. Â»
j k
k em
k hol
ti ris
ĠK O
st en
Ġmon eroj
Ġpar tion
Ġlabor antoj
omo uc
Ġfoj oj
blan ka
Ġretiri ÄĿis
blu a
ĠUNES KO
ãĥĳ ãĤ«
M er
e e
ti am
ĠM S
ĠR as
Ġmon dan
Ġjar milo
Ġ[ [
kom itato
Ġkul tiva
ĠLe e
Ġfer mo
Ġkonsci is
Ġprizor gi
poli tika
Ġmodif itan
Ġjuris di
M T
ĠS ÅĤ
vi da
vo lon
ĠR ab
ĠR et
vis to
Ġar toj
Ġser vantoj
ali a
Ġ0 6
Ġgeo grafi
Ġnordo kcidenta
ĠFal klandoj
Ġhorlo ÄĿo
Ġtam bur
b it
d ris
j una
p y
ĠF EI
Ġno ktoj
mon to
Ġ0 5
Ġnaj baro
Ġkompa to
Ġris kas
ĠVir tu
Ġpreten das
Ġsincer a
Ġretum ilo
ĠDec embro
N O
v re
z anto
Ġk erna
Ġvi ki
Ġli gis
Ġan ekdo
ĠA ro
Ġel pensi
ĠVi rinoj
Ġnu tri
Ġag ro
Ġreferen cas
Ġromi anoj
ï ¾
ur u
ka zo
es per
Ġre formoj
ĠK AJ
ĠP edro
Ġpl umoj
ej s
Ġaldon a
Ġskrib e
Ġprof etoj
Ġproce d
ĠriÄī an
Ġstri o
Ġagnos ko
ĠSte pan
Ġstar ti
Ġinterpre tado
ĠinterÅĿan ÄĿi
Ġner ek
Ġlib reto
v ujo
Ã ī
to ler
Ġan tis
ĠA gado
Ġdi kaj
Ġmem bron
Ġser vado
Ġpermes os
Ġspe con
Ġci fero
Ġrila ti
Ġ6 8
ĠMe za
th al
Ġkomuni ka
Ġpriskrib on
Ġpru den
ĠSove ta
194 5
rez ul
Ġalmen au
ĠBohem io
B S
P arto
ra l
Ġdis ÅĿi
Ġtra gi
Ġtra iris
Ġmar kante
Ġmulte gaj
Ġsa te
Ġekster an
Ġab sor
Ġokciden t
Ġrespe gu
ĠNor do
ĠFo to
Ġfizi kisto
Ġesperant lingvaj
ï¼ Į
Ġmetro o
Ã± a
Ġlecion ojn
% )
ar baroj
de mi
ĠÅĿ vi
Ġdivers econ
se h
Ġkru d
Ġapo gon
Ġmer it
ĠSta tis
Ġkresk igi
Ġdefini tiva
ĠÅĿar ÄĿ
Ġfanta zio
ĠSier aleono
ĠEkva tora
M uzeo
S ch
b ligi
n ama
Å Ī
per sona
cep to
ho f
Ġapar tigi
Ġvar bi
gen a
kov Ã¡
Ġbal da
Ġkial on
ĠDa venant
ĠJun io
Ġuson an
Ġestab li
Ġmalfeli Äīa
Ġsto ma
Okaz is
Ġen ciklopedio
vo k
Ġmon go
Ġtro veblaj
Ġur so
ĠKom en
Ġplen das
Ġplu v
Ġplan tojn
Ġcen so
ec k
Ġelek tron
ĠPost tagmeze
ĠDi versaj
ĠÐ ¸
Ġfam iÄĿis
ĠEle k
ĠGab ono
ĠPoz na
ĠpasaÄĿ eroj
Ġbonkor a
Ġinterromp is
ĠPhi lip
Kale donio
Å «
Ġen glu
ĠM ek
ĠA c
ce a
Ġha veblaj
fer ojn
sta do
Ġser vu
et y
Ġves ti
Ġfla gon
Ġfab elo
Ġhispan oj
Ġkonfir mas
ĠOl omouc
ĠEkonom io
Ġkabin eto
ĠGand hi
Ġs tum
Ġm ol
am eni
ĠE va
Ġinter komuni
ĠO z
pre ci
Ġkompren ata
ser voj
ĠKa ÅĿi
kos toj
Ġdona cojn
naci aj
Ġdras te
Ġk raj
al ti
ĠL ig
ĠM ara
po von
ĠD anu
Ġsen kulp
si m
Ġsek vantaj
Ä¥ in
ĠNi tra
ĠÄľi bu
Ġjun ajn
Ġrespon dos
ĠPa v
Ġkura ÄĿas
Ġhav igas
ĠEU RO
Ġabon antoj
Ġdekli vo
F a
É Ļ
ti er
Ġre gata
Ġfor aj
Ġmon at
Ġdu cent
Ġres taÅŃ
Ġser Äīa
kul ojn
Ġkla varo
ĠPro vinco
Ġeldon as
ang ulo
mal fer
Ġprovi zitaj
Ġfes ton
Ġpozi tivan
Ġalt nivela
Ġprofi lo
cha ft
Ali flanke
Ġinterparo lo
Ġefekti vig
le gu
il in
ĠH U
Ġma tura
Ġir landa
Ġkvi e
Ġmask loj
ĠBela r
manier oj
in ala
re ÅĿ
Ġal gorit
do ws
ĠS telo
Ġdis kre
pa troj
tor es
ĠW est
Ġide alo
Ġpens maniero
Ġvizi tos
ĠFa e
Ġreali gita
Ġeta po
fin aj
Ġdiskon igi
gvi dantoj
Ġekspli cite
s ame
ci l
Ġh ek
ĠD res
Ġmo viÄĿis
Ġakcep tos
ÃŃ s
Ġprakti kado
ĠIsra ela
ĠEgip t
Ġmask lo
Ġsuk ero
Ġgimna zio
ĠindiÄĿ ena
ĠHum phrey
Ġambasad oro
muni ca
K ul
M L
Ġs ar
Ġne ebla
Ġb lon
Ġkon form
Ġpro bab
Ġse par
ha i
Ġplan lingvoj
Ġprin tempa
Ġflug ha
Ġkonk eri
Ġastron omio
Ġemin ent
ĠBern ard
ĠaÅŃtomob ilo
I a
e ka
e konom
i daj
ĠS ig
Ġel ten
st or
Ġdi ÄĿita
ĠG ros
ĠMi los
gu ro
ĠMar ian
Ġskrib ite
Ġdan cis
Ġelek traj
Ġsiste me
Ġpris tu
ĠBa ghy
ĠRus ujo
Ġinflu ita
ĠLiber io
Ġhar ojn
Ġalko hol
Ġekspozi cion
sam kondiÄīe
poz eble
Jor ko
Ġne dis
Ġ( [
Ġan tologio
Ġl undo
ba tis
Ġtradu ka
Ġvesper a
Ġprofi t
Ġbel ga
ĠloÄĿanta ron
ĠCol le
Ġanti cipe
Ġhorizon to
ĠPon to
ĠÅĿil do
Ġzo o
ĠÅľtu b
M em
k turo
Ġ ),
Ġa kso
don aj
Ġfor kuris
tor ita
sta cioj
Ġvor ta
Ġfi kcio
Ġskrib os
ĠInter kultura
ĠLu doj
ĠEtern ulon
Ġeksperi mentoj
Ġkolon elo
P E
Ġla mpo
Ġti ran
Ġne gra
Ġan eks
ĠA so
Ġkun igas
Ġkun disku
Ġfor igas
Ġsen mor
Ġsen inter
Ġspe ktantoj
ĠKon certo
ĠFran z
Ġkonsi li
Ġim posto
ĠvoÄī ojn
Ġeston to
Ġinfan eco
Ġreli ef
sk Ã¡
ĠarÄĿ ento
V in
e fi
Ġmal mun
Ġkons cion
Ġins ulon
Ġfinan coj
Ġkonkur soj
Ġkriti ki
Ġskan ilo
ĠFreder iko
K or
] ).
Ġre foje
Ġh inda
ĠI o
Ġsen do
Ġokaz us
Ġorgani zitaj
ĠloÄĿ ejoj
Ġdif inon
pun kton
ag no
Ġprote kton
Ġkolekti ÄĿis
ĠPl ur
Ġmerka toj
ĠTj umeno
c re
Ä ĥ
ÄĿ ardeno
Ġb las
ĠP et
ĠB ulon
Ġdi ven
Ġnom umis
Ġplu vi
ĠKa p
Ġlibro servo
Ġprofi tas
ĠTri bun
erotika Äµo
sign oj
Ġtabernak lo
Ã ģ
ĠM I
Ġda ux
for toj
Ġsta dio
Ġmor alaj
kor pa
Ġter uro
ĠÄīirkaÅŃ as
Ġsendepen diÄĿo
Ġgar dis
fici alaj
Ġgol fo
R u
r d
re go
Ġal ter
Ġti mon
Ġfor tajn
ĠEsperanto Land
den s
Ġaldon itan
por naÄµo
Ġpen et
tre joj
Ġdispon igi
Ġ18 48
Ġru inoj
th ur
Ġlaboris taj
Ð¾Ð »
ĠBur kino
Ka tegorio
Ġekha vi
Ġofice joj
ĠÄľibu tio
k p
ur ch
Ġkon toj
ĠA j
ĠU TC
ĠÄµ az
Ġfunkci anta
Vi kipedio
wi ce
Ġskla veco
ĠBro ad
B u
â Ļ
Ġd ar
li t
Ġal is
ĠM AS
zi te
Ġsen te
dan ton
Ġokaz igas
Ġmo ti
si e
Ġlabor anta
Ġtri foje
kan tan
Ġkar bo
Ġmona Ä¥o
Ġdekla ron
lern ado
ĠNeder landa
Ġsubstan coj
ĠAd ministra
Ġteo logio
Ġinstan co
ĠAristo telo
R espon
p al
on do
Ġe mon
Ġde kon
ĠÄī inan
ĠT ru
Ġkom p
Ġkons cie
Ġsub tito
Ġvo los
Ġekzis tus
Ġekonom ie
Ġgx ia
Ġmalhe laj
Ġadop tita
T ut
« ï¸
ļ «ï¸
Ġf umo
Ġin ti
Ġmal dun
ĠH y
Ġven tum
ÄĪ irkaÅŃ
ĠAl fred
Ġpens adon
fon on
ĠÐ º
Ġkos tojn
ys ÅĤaw
Ġvun dita
Ġkonsul ti
Ġkana bo
???? ????
nombra do
Ġpanta lon
ÅŃten anto
is majn
ig xo
ĠA feroj
Ġsen kons
por ti
Ġmar kas
Ġrapi daj
ne ces
Ġkomer con
Ġfavor as
Ġch io
ĠKel kfoje
Ġpardon u
Ġtaj pi
K ris
t ÃŃ
ra taj
di kato
ĠR Ã©
ĠG ale
Ġpa gos
Ġpl umo
Ġko her
Ġsek reto
ĠkontraÅŃ is
bon e
Ġtur oj
Ġpozi cioj
Ġproce duro
Ġfas ado
ĠCama cho
C om
m uzeo
æ Ī
la ron
al do
co ln
Ġpre zon
ĠR an
Ġkomen tis
Ġser pento
Ġvol umoj
ĠSan tiago
Ġkar ika
aÄĿ aj
su per
Ġkultur ajn
Ġrif uzi
Ġsolda t
Ġhistori ajn
Ġavanta ÄĿoj
Ġ188 9
Ġtalen ton
ĠBud h
Ġtrio po
Ġmunici poj
C Y
V ere
z Ã¡
ra kon
tis taj
ĠS ten
Ġper eo
ĠÄĿis nun
ĠW ang
Ġkan aloj
Ġorganiz anto
ĠHo dler
ban on
Ġprogram istoj
aso cio
Ġkonfir mi
Ġlogi ke
c ul
c ÃŃa
Ä ĵ
in tern
Ġa zi
Ġvi con
lan tan
Ġfor pu
me t
ini on
ĠÄīirkaÅŃ ita
Ġkole gio
ĠInter reta
Ġrenkonti ÄĿi
Ġpriskrib oj
Ġesperantis tino
Ġ189 8
Ġinspi ris
Ġnordori enta
. (
c n
à ®
ig xi
ĠP le
ĠN em
Ġek rigardis
ĠC ity
ĠLi ve
Ġest ris
Ġkre doj
Ġmar ti
ho ven
Ġkan cero
ĠJo achim
Ġdek du
Ġsemajn fino
Ġata kas
Ġmes o
ĠVladi miro
Ġinterlingvis tiko
S tu
Ġmal ben
mo vadon
Ġfar anta
mon ia
Ġfra tinoj
Ġce dis
se p
tran si
Ġblo ko
ĠÐ ´
Ġradi k
ĠaÅŃtor rajto
ĠCas tro
Ġpartn eroj
Ġalire bla
b estoj
d E
i elo
Ġa risto
Ġre tan
ĠR eto
Ġfor pelis
Ġsen proble
ke e
ĠEn ciklopedio
ĠPro f
Ġkvar on
Ã¼ ck
Ġfrem duloj
Ġfes tas
Ġima gis
ĠdediÄī i
ĠÄĿarden oj
Ġtend aron
Ġekzisto s
Ko lekto
! ),
t ja
Ġb it
tu i
Ġtiu rilate
Ġda ton
ĠO tto
ha vo
volu o
Äīi uj
Ġmalfaci las
Ġsendepen di
Ġtransi ri
Ġprotes toj
Ġsekre taj
premi on
ĠSom era
Ġferi oj
Ġegip ta
Ġbord elon
I ta
K ia
M en
ĠS P
po doj
lin oj
ĠAn ge
Ġplen igas
Ġro ta
be ka
Ġbezon us
ĠMon taro
Ġobser v
Ġtru o
Ġates tantoj
Ġmalmulte kosta
Ġmalsan uloj
ĠFilo zo
Ġrum ana
ĠAndal uzio
T AS
Ġm y
li gos
Ġke mio
Ġpli igi
Ġap r
Ġfi di
Ġkura ÄĿa
Ġkura cado
An koraÅŃ
Ġ0 7
Ġdor son
ĠBi alistoko
Ġhal ti
ĠÄīas ado
Ġpuri gi
ĠRej nlando
Ġbudh ismo
D ie
M AN
T ia
di ris
Ġan ser
tu ale
ĠV roc
Ġdis falo
ĠC H
Ġnur aj
Ġob lik
Ġpublik ajn
Ġkompar as
ĠGre en
Ġlatin an
Ġservis to
Ġanarki ismo
ĠSho w
ti kistoj
Ġf Ã¼r
ĠS tano
Ġj uran
Ġokaz igo
Ġmo k
Ġ6 1
Ġkvar an
Ġkonkur s
Ġprofi tis
ĠÄ¥ or
ĠnaskiÄĿ tago
Ġmalkon sen
ĠDomini ka
ĠSÅĤ up
ĠMilos lav
Ġe di
Ġde leg
en as
li tajn
Ġi dojn
ĠK ON
Ġdi am
Ġtra fa
Ġplej e
Ġ3 000
Ġres umo
Ġter p
cen te
Ġproksi man
Ġaparten antaj
ves pere
Ġreven u
Ġsp uroj
Ġekle ziaj
ĠRam zes
Ġortodo ksa
Ġtrej ni
Ġdiligen te
todo ksa
k itan
ĠN ar
ĠEn konduko
ĠKaj to
Ġ18 70
be ta
ne ÅŃ
ĠIntern acio
Ġokul fra
Ġekvi libro
Ġmaten on
Inter tempe
ksim ume
Ġita lan
Ġpedago gio
ĠenloÄĿ antoj
EÅŃro po
l Ã©
Ġde mo
le gita
Ġne forma
da toj
Ġek bru
Ġvor tum
Ġam erika
ling veco
Ġmult lingva
Ġimp ro
Ġorgan ismoj
Ġoper acioj
Ġbio grafio
fil mo
ĠAmi ke
Ġmiz era
Ġmuze oj
Ġopera co
F eli
e zio
tan ton
Ġdi veni
Ġte ler
Ġam eri
ĠanstataÅŃ i
Ġreda ktado
graf oj
Ġkomer can
Ġinflu oj
ĠSek cio
ĠGo gh
lar ÄĿ
Ġmatema tika
Ġekonomi ajn
Ġdungi toj
Ġleksi ko
ĠAg laja
Ġnorve ga
ĠfaÅĿ ismo
B ir
Ġs ka
es pl
ko wski
da tre
Ġmal p
ĠP ir
ĠÅĿ n
ĠI P
Ġali ÄĿas
Ġpa ce
Ġkons tantan
Ġinf la
gu pta
Ġbra kojn
Ġplenum ita
ĠdaÅŃri go
Ġanon cita
Ġpie de
Ġkontin u
Ġkondam nis
ĠVene cio
Ġfias kis
ĠPozna ÅĦ
Ġs ali
Ġa z
ri laj
Ġo kto
ĠP un
de legi
Ġka le
voj aÄĿo
ĠMa ce
194 4
Ġhum oro
instru ado
---- ----
K omento
l una
ti gaj
Ġkas isto
Ġseks per
Ġpron omoj
Ġscienc fi
K e
v skij
on as
Ġs kra
Ġv jet
ig ho
po ta
Ġfor e
Ġc un
Ġme Ä¥an
Ġfa kulo
Ġhon oron
Ġgas tejo
Ġbri lo
mem a
teks ton
Ġenme tis
ĠStu doj
Ġevange li
Ġkoti zon
Ġkombin ita
Ġgaj e
Ġmalmo la
Ġadek va
Ġfolk lor
ĠDanu bo
is ion
Ġi ron
Ġse man
ĠB ara
iÄĿ a
Ġsuper aj
ĠDi ru
Ġtele fonoj
Ġcxi elo
Ġobser vado
Ġfal saj
Ġpardon pe
Ġkonek tita
Ġprav igi
Ġkomfor ta
ĠCis jordan
Ġal flu
ĠB ut
ĠD em
Ġar ton
Ġso ftvaro
Ġplu an
kte bla
Ġkul to
Ġaten dante
Ġvar io
Ġvir tuala
Ġradi oj
Ġordon as
Ġkontribu on
Ġfrem dajn
Ġr ingo
Ling vo
ĠHol m
Ġsila bo
Ġjunula raj
à ¸
Ġmi zo
Ġ( âĢŀ
vi ÄĿi
Ġdi ÄĿi
ĠF eti
Ġsek vante
Ġorgani zon
zor g
Ġpris er
ĠSa tano
Ġdol oron
Ġfos ili
Ġdeba toj
ĠSep tembro
Ġceter ajn
Ġsuveren eco
ĠStepan ov
e vo
i ru
Ġj x
pi ed
Ġkor pa
Ġmar moro
min te
Ġhel ena
ĠEÅŃro pan
ĠDi man
Ġdef io
Ġsal t
Ġvari anto
Ġfilozofi on
d l
å ħ
Ġ }
ci gi
ig hi
da te
Ġpri disku
po ÅĿ
Ġar gi
ĠTi mes
Ġokaz anta
Ġmili on
Ġdan coj
Ġkontro l
Ġprovi zita
ĠmanÄĿ ado
Ġprogram erojn
Ġsilen ta
Ġinterkon a
glo bo
Ġkorespon dado
Ġmaksim uma
Ġtun oj
B er
Ġt in
Ġb is
ĠE ug
ĠS ala
de a
Ġsci os
Ġeb lojn
Ġdisku tojn
ĠÐ ¾
Ġkos tis
Ġseks on
ĠÄµurn alis
Ġpritra kti
Ġretpa ÄĿaro
ĠSto khol
Ġneevi teble
Ġkortu ÅĿa
B ildo
d omon
s toj
Ð Ĥ
ri e
Ġen ir
ĠÄīi ajn
ĠT witter
kon sider
Ġar oj
ke joj
Ġpl oris
ab on
Ġur ÄĿe
ĠZ i
Ġaten tigo
Ġob stin
Ġoku pado
Ġsemajn e
Ġmedi ti
Ġ190 2
Ġstri kta
Ġspor toj
Ġekzer coj
Ġalterna tiva
IM E
Ġsoj lo
ĠWord Press
i ca
m omente
ĠM ono
Ġver dan
Ġkons ent
ke con
Ġme dia
ĠTi m
Ġak raj
ĠIn forma
Ġsal tis
Ġstari ÄĿis
Ġlim igitaj
ĠVin dozo
pla co
Ġmaldeks tro
ĠÅĿul tro
ĠLitera turo
mez ure
Ġri dis
pren ita
ata ro
Ġfrem dulo
ãĥ ³
Ġmalvar mo
Ġkompon is
Ġhelp iloj
Ġsalu toj
Ġparame troj
Ġtras er
ĠarÄ¥ ite
ĠFeti Äīo
F i
t d
Ġ ðŁĺ
ti ce
Ġf el
Ġal ÅĿuti
per son
da y
us on
Ġel pro
jo te
mon t
ĠÄīef minis
Ġeb lajn
Ġsa kon
ĠRo dis
iÄĿi oj
IN G
Ġkomenc intojn
Ġaktu ali
Ġaver aÄĿe
Ġhungar aj
Ġmales ti
Ã¡s z
kunsi do
Ġnefor ges
Kvin petalo
O fte
g ras
Ù ħ
Ġne farita
Ġre iris
ĠP R
Ġpre z
ĠG un
ĠG EA
ĠC le
Ġbezon ojn
Ġsper t
Ġaspe kti
ĠeÅŃro p
gru pon
Ġkomenc u
Ġpsi Ä¥a
ĠÄĿen ro
ĠLan guage
bil doj
Ġparlamen tanoj
ĠanÄĿ elo
Ġinsis tis
kampan jo
ĠFlori do
X ian
a h
Ġre paci
ĠS lovaka
de me
Äµ aj
tu bo
Ġdi agno
pon oj
Ġta u
Ġko opera
Ġter enoj
Ġnor den
spe ca
Ġmuzi kis
Ġpla ta
Ġbu tiko
Ġtravi vaÄµoj
ĠvojaÄĿ antoj
ĠVor to
Ġesen con
progra moj
u toj
å ľ
Ġm oj
ĠL em
ĠE P
Ġli k
Ġg in
Ġpre ÄĿis
Ġpre pozicio
ĠG dan
Ġc u
Ġlo kita
Ġtro vebla
Ġsci us
Ġsta cioj
Ġdo laro
Ġeb lan
Ġpe zas
Ġlern os
ĠÄĿener al
Ġprakti koj
Ġunue con
ĠSen dube
Ġkona te
Ġares tis
ĠManif esto
Z I
z antoj
ar me
ĠK anto
Ġmal stre
ki aj
kom ita
ami de
Ġpres kau
Ġkole kt
ĠSek cioj
ĠNor th
Ġfu ÄĿi
Ġenkondu kas
Ġnas ko
Ġbonfar to
Ġmastrum ado
Ġdistrikta ro
Pala tinato
k uso
z ej
â ļ«ï¸
æ ĺ
ta mino
ĠA ven
me ze
Ġar milo
Ġ- ,
Ġnom inte
ĠankoraÅŃ foje
Ġliber ec
Ġfunkci adon
Ġnask iÄĿinta
eg no
ĠLiber aj
Ġversi ojn
kura cisto
ses io
Ġprokla mita
Ġrecen zoj
reda ktoro
Ġartefar itaj
Ġabrup te
Ġkundisku tantoj
C S
b uso
w al
z ante
Ġa Äµo
ĠA f
Ġdi zajn
Ġkons ilis
kti lo
Ġdeta lan
Ġpreci zan
Ġsoci alaj
gx os
th y
fon io
ĠLu ko
Ġeten diÄĿis
ĠdediÄī as
Ġmina cis
ĠKata lin
Ġreta dreso
ciklo pedi
Ġsekre te
Ø§ Ø
Ġmiliar dojn
Ġske p
f am
s om
v iga
Ù Ĩ
ĠM P
ks an
Ġel de
em ajne
ĠF iÄĿioj
kor a
Ġele menta
kul ti
Ġlu po
mas o
Ġuti lo
Ġfab eloj
Ġretpo ÅĿto
Ġmelo dio
F ra
an ti
om bro
Ġti ris
ĠN INA
Ġek pose
Ġdis iÄĿis
ĠO p
Ġesperan tigo
Ġpe cojn
kam poj
at s
Ġdek reto
Ġmemor aÄµoj
sek vaj
ov Ã¡
Ġtutmon dan
Ġfabri koj
ĠEuro po
Ġproto koloj
ejs bu
E B
F oje
Ġla g
en ko
te stroj
al fab
Ġvi zio
Ġver di
ĠVi deo
ĠantaÅŃ vido
ge jo
Ġparo loj
ĠW es
Ġdivers a
ĠRe te
Ġbru ligis
ĠtaÅŃ g
Ġima ge
Ġbele gan
Ġmirin dan
Ġagri kultura
Ġkonsekven ce
ĠelÄīer p
T ube
h ojn
Ġp df
ĠB ad
Ġfor veturis
Ġha vantaj
Ġman ÄĿon
raj taj
Ġci taÄµoj
kom pu
Ġ6 7
Ġakcep titaj
Ġgas tigis
Ġretpo ÅĿte
Ġsekre t
ĠPu tin
ãĢ Ģ
ĠUl rich
Ġskato lo
Ġrego povoj
. ÂĶ
C a
V O
f ejo
h ang
s y
er eco
Ġs ha
li goj
Ġmi ro
Ġo doro
ĠN O
Ġsen lima
Ġmon ero
ĠÄĪ EA
gu laro
Ġrus e
ĠJu di
gri za
fes tivalo
Ġbas tono
Ġaven tur
Ġdisvolvi ÄĿon
ĠmalÄĿoj o
Ġhan dika
ĠSÅĤup sk
. ;
u tra
Ġde du
Ġpri du
ĠT uro
Äµ et
ĠB BC
Ġter uran
Ġnu trado
ĠÄĿener ali
ĠRo ger
Ġbri las
Ġspiri taj
deks tre
Ġ28 0
Äľ uste
ĠSE O
ĠaÅŃtorita ton
Bon e
Ġsekvan tan
Ġhas te
Ġrestari gi
ĠProfes oro
Ġneima g
' )
K P
S AT
d eloj
ĠD aÅŃ
ĠF it
Ġtiu cele
Ġsen pagan
anoj o
spe caj
vor ta
Ġ9 8
Ġmedi teran
Ġreligi ajn
ĠdanÄĿ eraj
ĠJos uo
Ġref reÅĿ
Ġrestor acioj
Ġtransform iÄĿas
ĠÅĿu oj
Ġpioni ro
Ġoli mpi
Ġinsis tas
Ġnekuti ma
ç Ķ
Ġpre ÄĿoj
ĠG io
ĠTa goj
Ġinkluzi vita
Ġher boj
Ġbio logia
Ġzorg eme
Ġmanifesta cio
ĠPoz n
ĠBis aÅŃa
Sem ajno
h aj
y ou
Î ·
Ġde metas
le bla
ni ce
Ġokaz intaj
Ġsta ÄĿoj
par t
Ġpos tan
Ġmar aj
lis ma
Ġson g
Ġmult nom
ĠNa zia
ĠHa vajo
Ġmalami kojn
Ġmalaper os
Ġhe ar
Ġcentra lo
Ġlatin e
tic s
Ġaven turoj
Ġmalgaj a
ĠÄīefur bon
ĠQui jote
A X
h ajne
ta rio
Ġal tiri
ĠP O
Ġpre teri
ĠR eb
Ġsen fine
ĠkontraÅŃ uloj
Ġspe ktis
Ġbone co
ĠÄµ aÅŃ
Ġdemokra ta
plen an
ĠmaÅĿ ina
Ġkriti koj
nes s
ÅĿton oj
ĠBir doj
ĠGlo bal
mier z
e i
y on
Ġ uloj
Ļ Ĥ
Ġp lon
Ġi g
di en
ĠA ba
Ġek estas
ĠG hi
me dio
Ġfi lio
ĠW en
Ġren om
Ġvar ojn
Ġpra vig
Ġcen tojn
Ġakcep tu
Ġkura ÄĿon
Ġreg ulon
Ġfla vaj
Ġras oj
Ġarb ojn
Ġalven i
Ġrespub lik
Ġenmig rintoj
Ġparadi zo
Ġinte gra
C X
] ]
z os
in es
ĠK uba
ks ojn
kon ferenco
ĠI lus
ĠH iro
Ġ9 00
Ġmona te
ĠkaÅŃ zon
Ġesper i
Ġbir dojn
Ġspiri tan
ĠLiber ec
fab ri
Ġfundamen ton
Ġerar is
Ġkompli kaj
ĠTor ino
ĠHA LE
f loro
ri t
ĠK oro
ĠE di
Ġ( -
ver da
Ġtra ge
Ġbon vo
Ġfil tri
Ġsa ÄĿe
Ġdeci du
Ġkar na
Ġmalpli mul
Ġten ante
Ġkondu t
cx a
kondu k
Ġdire ktita
Ġrea gas
zan ca
Ġproce zoj
Ġjus tecon
Ġleg eblas
Ġtransi ras
ĠanÄĿ eloj
Instru kcioj
N ask
T ute
r oni
x t
to m
Ġal ju
al uloj
Ġmal respe
Ġek flor
ĠF ru
man s
Ġta bel
gar d
kor ek
Ġaper intaj
Ġkvar taloj
Ġcxi on
Ġmedi tado
Ġkarak ter
Ã¤ l
Ġgar das
Ġmalvar maj
ĠÅĿablon on
Ġkler a
Ġetern aj
Ġincen dio
On line
ĠSoft ware
ĠCisjordan io
y u
en ia
in dustrio
Ġf esta
ci ÄĿas
Ġti paj
Ġi lon
Ġb ieron
Ġek bri
Ġsub tropi
gra phy
ch as
Ġmo vis
Ġlingvo uzo
ĠMar y
Ġspeci al
Ġprezen tata
Ġkonsider inde
ĠInter alie
Ġfla m
Ġserio z
kap uloj
Ġeksci os
Ġhi per
Ġforma toj
aspe kta
Ġlegen doj
Ġdetermin i
kvali taj
Ġmeksi ka
n ek
ta men
Ġs var
vi zi
pe coj
Ġmem breco
Ġak ordi
Ġku pro
Ġlon gas
Ġaten tas
Ġaparten anta
Ġbal bu
ĠaÅŃto vojo
Ġgaze t
Ð° ÑĤ
pens is
Ġbele con
Ġgre koj
ĠAs socia
ĠSal uton
ĠLin coln
Ġatribu as
ĠIJ S
medi aj
Ġmedikamen toj
PaÅŃ lo
A Y
Ù Ĭ
ĠK eb
Ġpro stitu
ĠU zu
Ġar mena
Ġkomen caj
var oj
ĠPro te
Ġradi ado
Ġkomuni ko
Ġedu ko
Ġdirek tas
Ġseks aj
Ġbul gar
ĠSuda friko
ĠKva zaÅŃ
. --
ar ano
lo gy
Ġpa gxo
Ġman dato
Ġsta lin
Ġkontra kton
pro ces
ura do
Ġmalkov ras
ĠbedaÅŃ r
Ġscipo vis
ĠÅĿata taj
Ġretum iloj
Ġtropi kaj
n g
Ġd igno
ĠA kti
ĠN is
ĠN ig
Ġte stu
Ġek umen
Ġpre paro
il en
Ġfor prenis
ĠMi ke
Ġren de
Ġvar bado
Ġkar b
Ġson ojn
ES T
vel ojn
Ġisla maj
ĠÅĿtu po
Su dano
ĠbroÅĿ uro
c ci
m und
Ġen mane
Ġal propri
ĠE ras
ul f
Ġse g
Ġper diÄĿis
em bra
Ġkom e
tan t
Ġpost enoj
Ġmo bili
Ġrice vu
Ġob s
Ġve gan
Ġkomple ksaj
str umen
Ġdivi dis
ãĥ Ī
Ġbab il
Ġtransdon as
194 1
ĠpseÅŃ doni
Ġeklo ÄĿis
p siko
å °
Ġin dekso
Ġin vadis
di aj
ĠS la
Ġsub tera
Ġbon as
Ġma pon
Ġpe tu
Ġalian co
Ġmur m
Ġlim igo
ĠCar l
Ġsamide ano
Ġarbar on
ĠJoze f
Ġvendre de
Ġpreterlas ita
ĠStras burgo
i ano
Ã ¾
æ ĸ
ra dio
Ġin un
Ġmal pro
gi e
Ġmon umentoj
Ġka fon
Ġsek cion
ling en
Ġinteres is
Ġ8 8
Ġofici alajn
Ġadminis traj
Ġlar ÄĿan
Mal fer
Ġmort pa
Ġglor on
ĠBro wn
ĠLern u
Ġkonferen coj
Ġdete kti
ĠAmster damo
U K
Ï ĥ
ĠK in
Ġmi toj
ĠP os
Ġor elo
Ġtro vu
Ġmor tigo
Ġins ularo
Ġnu tras
Ġprin coj
Ġfrem dan
ĠSch war
Ġmanuskri pto
ĠPub lika
ĠWin dows
ç¤¼åĮħç¤¼åĮħç¤¼åĮħç¤¼åĮħç¤¼åĮħç¤¼åĮħç¤¼åĮħç¤¼åĮħç¤¼åĮħç¤¼åĮħç¤¼åĮħç¤¼åĮħç¤¼åĮħç¤¼åĮħç¤¼åĮħç¤¼åĮħç¤¼åĮħç¤¼åĮħç¤¼åĮħç¤¼åĮħç¤¼åĮħç¤¼åĮħç¤¼åĮħç¤¼åĮħç¤¼åĮħç¤¼åĮħç¤¼åĮħç¤¼åĮħç¤¼åĮħç¤¼åĮħç¤¼åĮħç¤¼åĮħç¤¼åĮħç¤¼åĮħç¤¼åĮħç¤¼åĮħç¤¼åĮħç¤¼åĮħç¤¼åĮħç¤¼åĮħç¤¼åĮħç¤¼åĮħç¤¼åĮħç¤¼åĮħç¤¼åĮħç¤¼åĮħç¤¼åĮħç¤¼åĮħç¤¼åĮħç¤¼åĮħç¤¼åĮħç¤¼åĮħç¤¼åĮħç¤¼åĮħç¤¼åĮħç¤¼åĮħç¤¼åĮħç¤¼åĮħç¤¼åĮħç¤¼åĮħç¤¼åĮħç¤¼åĮħç¤¼åĮħç¤¼åĮħ ç¤¼åĮħç¤¼åĮħç¤¼åĮħç¤¼åĮħç¤¼åĮħç¤¼åĮħç¤¼åĮħç¤¼åĮħç¤¼åĮħç¤¼åĮħç¤¼åĮħç¤¼åĮħç¤¼åĮħç¤¼åĮħç¤¼åĮħç¤¼åĮħç¤¼åĮħç¤¼åĮħç¤¼åĮħç¤¼åĮħç¤¼åĮħç¤¼åĮħç¤¼åĮħç¤¼åĮħç¤¼åĮħç¤¼åĮħç¤¼åĮħç¤¼åĮħç¤¼åĮħç¤¼åĮħç¤¼åĮħç¤¼åĮħç¤¼åĮħç¤¼åĮħç¤¼åĮħç¤¼åĮħç¤¼åĮħç¤¼åĮħç¤¼åĮħç¤¼åĮħç¤¼åĮħç¤¼åĮħç¤¼åĮħç¤¼åĮħç¤¼åĮħç¤¼åĮħç¤¼åĮħç¤¼åĮħç¤¼åĮħç¤¼åĮħç¤¼åĮħç¤¼åĮħç¤¼åĮħç¤¼åĮħç¤¼åĮħç¤¼åĮħç¤¼åĮħç¤¼åĮħç¤¼åĮħç¤¼åĮħç¤¼åĮħç¤¼åĮħç¤¼åĮħç¤¼åĮħ
ĠAlas ko
N G
a tojn
d Ã©
f ta
Ð ¶
ti que
Ġsi dejon
Ġte on
Ġfor no
me tita
Ġver ÅĿ
Ġtie aj
ali zo
ĠÄīir kau
Ġkondu tas
Ġaki ro
Ġalfron ti
ĠMora vio
ĠdiÄĿi tigi
" [
F ar
P O
o bjek
p ino
ÄĿ arden
ri gas
ĠC seh
Ġgra vu
Ġve turado
ĠRo diono
Ġreda kto
Ġ0 2
esta po
igu re
ĠLo d
ĠÄĿu u
200 2
ãģ Ħ
Ġmalsan on
Ġinterna tional
Ġemfa zis
dosi ero
Ø§Ù Ħ
ĠJehu da
d h
Ġa gu
ur ba
Ġin fero
Ġ1 12
ĠR EU
Ġver as
no kte
Ġsam o
ĠÄīiuj ara
Ġteks t
Ġpermes ita
Ġju re
Ġcen time
ĠPro gramo
Ġespri mita
far iÄĿas
Ġrimar koj
Ġmas on
Ġpozi tivaj
ĠPas ko
ĠÅĿpar i
Ġpioni roj
German a
G I
V or
ÅĿ tu
ĠP ris
ĠH X
Ġra ti
Ġkre ante
Ġfon dintoj
Ġvar bis
Ġplan ado
Ġregis tro
Ġ9 6
Ġuti ligis
Ġden to
Ġkonser vita
Ġdekla ra
Ġkonta ktis
Ġforlas ita
ĠMos k
Ġalpor tos
ĠScien ce
Ġpardon on
ĠÄīapi troj
Ġskulp tisto
Ġalti ris
Las ta
Ġakuza tivo
ĠLicen se
( (
× Ķ
Ġ um
Ġa kto
Ġre ele
ĠS y
Ġmal fi
Ġdis cip
Ġver d
ĠC lub
Ġeks per
Ġme tos
ge toj
Ġkor tuÅĿ
Ġinf ini
Ġekzis tantajn
Ġrakon tos
Ġriver eto
Ġfinan cajn
Ġseks e
esperan te
Ġenme titaj
Ġmalsam as
Ġpaper on
ĠZagre bo
P la
P aro
è ª
ï ½
an da
Ġa ÄĿon
ti gan
Äī in
ĠÅĿ elo
ĠâĢ ĭ
ĠN aci
iÄĿ ojn
ĠR ol
Ġra dia
Ġle go
Ġmor fo
Ġkul ture
ĠMon s
Ġves ton
Ġmalpli igi
Ġed zon
Ġaran ÄĿojn
200 3
Äľ ia
rigar di
ĠTer mino
Ġstrate gion
Ġdin ami
ĠÅĿer c
Ġjur isto
Ġpentris toj
Ġgor ÄĿo
Ġp ento
ĠB lo
Ġte zo
pi tro
ĠLi m
Ġplu vas
Ġ18 80
der s
Ġju do
ĠMa uri
Ġkvar ono
Ġ10 2
ĠSa ul
Ġuti le
ĠPri vat
15 3
Ġrespe kt
Ġalpor tu
Ġpriva tan
Ġreferen coj
Ġkonsekven coj
Ġprefi kso
Ġalproksi miÄĿis
ĠFara ono
lan den
ve turado
ĠH and
den co
Ġlan Äīi
Ġsta ranta
Ġro lis
Ġpoli canoj
Ġ7 4
ĠBa zi
ĠKar el
Ġdese gno
Ġpoe zia
Ġafri kan
ĠEsperantis taj
ÅĿte jn
Fin fine
Ġkonfor mas
lokaÅŃ sto
v juo
Ä Ĺ
Ġ ujo
Ġvi vu
Ġj h
Ġmal ler
Ġsu ple
ĠC ele
ĠKom isi
Ġ7 68
Ġnu ligi
ĠUnivers alaj
kato lo
ktan taj
ins tein
ĠSch o
Ġleg omoj
Ġform ula
Ġmaga zino
ĠFlu g
Ġgrandio za
ĠÄīem izo
f aro
l ler
u oj
ĠP S
Ġmon s
ĠH ima
Ġpa caj
ĠKom entoj
Ġci tita
Ġlern ejojn
Ġmen uo
ĠAÅŃ gus
Ġto leri
Ġ16 0
Ġflan ka
Ġkris tano
Ġmez lernejo
Ġliver is
g nu
ur t
ma t
Ġfor sen
Ġnom brojn
Ġvo ki
Ġfi zio
Ġparo lon
Ġele ganta
Ġtrans lo
Ġenha vi
Ġflu e
aran ÄĿo
Ġunue ca
ĠFa kul
Ġkarak teroj
Ġhal tigis
Ġdire ktoj
Ġorien ten
ĠÅĿton a
Ġ189 2
Ġradika la
Ġmonar kio
ĠÄĪam bro
ĠWit t
V al
g ren
an an
en con
ci lia
Ġkon tes
ĠM Ã©
Ġo d
Ġkun venas
ĠF ire
Ġ3 50
Ġsam temp
kom panio
Ġ9 2
Ġten dar
ĠIs lamo
Ġkonser viÄĿis
kar is
Ġban kro
Ġmur on
ĠBri an
Ġofer o
Ġjus t
Ġkomputi laj
El ÅĿutita
Ġsimbo las
ĠÅĿtu p
ĠTom as
ĠVol on
Ġgo tika
prin co
Ġportre to
materi aloj
u gh
ĠA gri
kon io
Ġpar koj
Ġak ce
Ġko ko
Ġinf o
se ksa
ĠAl fonso
Ġkonstru ata
Ki pro
ĠÄĪe fa
ĠKo ffi
Ġokciden ten
Ġeli ro
Ġfla v
Ðµ ÑĤ
Ġsti l
ÄĪe f
Ġkvadra ta
Ġ zon
Ġla c
di vido
ĠM Ã¼n
lu d
Ġek zo
ma il
vis ion
Ġme lanko
Ġak va
na tura
Ġlin iojn
Ġcer tajn
Ġoku po
Ġvide blis
Ġbir d
vÃ¡ Äįek
KK A
Ġsuk ce
c antaj
v ul
z ard
Ġre pre
ĠS amo
Ġan ar
Ġkun divi
uz ado
Ġar be
Ġgra don
Ġfi ere
Ä¥ oj
Ġmar oj
pl ino
Ġkonstru adon
Ġ8 3
Ġdev igi
Ġoku pa
ĠSa ÄĿ
Ġmis tero
Ġhon to
urn al
Ġanali zon
Ġkonfes is
Ġset lejoj
ĠLud wig
g ujo
l Ã¡
ä ¼
Ġf lir
Ġre m
Ġri g
ĠF lo
Ġku iris
Ġser vanto
Ġter oj
Ä¥ ejo
Ġdon us
Ġmala mas
Ġsa ko
Ġsukces i
Ġsufi che
ĠPar iza
ĠÃ ¾
Ġscien cajn
Ġ' '
tek niko
Ġpromen is
lum in
ĠLan da
Ġofen di
Ġlud ojn
ĠmalÅĿ ar
Ġkver ko
Ġdest ino
âĵ ı
on ado
Ġal kro
Ġne eble
di vers
ĠF EL
for mado
sta dt
Ġspe ak
cen dio
Ġmalfaci lan
Ġkoncern antaj
ĠOr din
bra do
Ġbab ilis
Ġtravi vi
Ġsus pi
ĠDon ald
Ġdistribu o
Ġentuzias m
Ġoportun e
ĠÅł vÃ¡Äįek
koti zo
Ġade ptoj
×ķ ×
ĠFAR K
ko h
vi ko
ĠR U
ol di
Ġar mita
Ġpa k
Ġor elojn
Ġno tojn
for te
Ġpas io
Ġkri as
gx u
Ġreg ul
Ġ0 3
Ġprote ktado
tar y
Ġtru oj
vide blaj
ĠHar z
Ġrikol to
Ġmani pu
Ġla v
Ġde bu
ti poj
Ġek es
ĠEsperan tajn
Ġfar igxis
ĠC re
Ġpar k
Ġsub fos
xi co
Ġsol ene
Ġneces on
Ġ14 0
ĠCh ang
Ġideo logia
Ġfen es
ĠAli an
Ġenkondu kita
Ġkr urojn
Ġsocialis maj
Ġelspe zi
ĠSem inario
Ġfut b
Ġpligran di
Ġherb ejoj
ĠAnstataÅŃ e
amik inoj
Ġabstra kta
rankvi l
z anoj
å Ń
Ġm oni
te blan
ko po
ĠP C
ĠT rump
co p
Ġsu dan
Ġte sto
Ġc aro
Ġsimi leco
Ġto po
ĠÅľi aj
ĠDi re
Ġbo vo
Ġvide oj
ins titu
Ġgla ta
ĠKris ton
Ġfervor e
Ġfier as
Ġkemi aj
C ar
n os
ur nalo
Ġi d
Ġin time
ĠK li
ĠE ni
ul in
Ġper man
Ġdi ver
Ġtio vani
Ġfa los
ĠÄīef vojo
Ġter en
ĠDe taloj
Ġvide ojn
ĠRi kardo
Ġdekla rita
Åľ ajnas
Ġrevolu cion
Ġmaldeks tren
igx os
Ġrekla m
Ġaven turo
Ġelmon tro
Ġmalkres kis
Ġfidin daj
Ġelef anto
Î º
in fan
li ter
el le
Ġne de
Ġvi ve
ĠS ko
ĠD am
ce v
ĠF ero
Ġspe cojn
Ġba to
Ġajn aj
Ġ7 3
Ġsignif aj
ĠJa co
Ġsiste ma
ĠCh risto
." [
ĠSek vis
Ġtru di
Ġimpres oj
Mo vado
Ġcele bris
Ġesen caj
Ġpripens as
Ġnordori ento
Ġhan di
M uzi
e ko
k laj
Ġe jon
Ġen vol
Ġg rek
ĠM IME
ĠT y
Ġri zo
ĠF eni
Ġra mp
Ġman ov
mon taro
Ġfi ksi
ĠMe tro
Ġofici ali
iga dis
ĠaÄīe to
tigita n
Ġvalor an
200 1
ĠÄīes os
Ġdra ko
Ġsurpri z
ĠPra kti
Ġapu daj
aspe ca
Ġadministran toj
Ġalin eo
ĠStanis ÅĤaw
ĠVroc lavo
P alest
ta gan
Ġne cer
Ġi tal
di loj
ton aj
ĠV ento
Ġka tedra
Ġpa fis
ĠlaÅŃ ta
ca tion
ĠÄīar maj
Ġaldon iÄĿis
Ġpermes u
Ġkla ras
ux ro
Ġ9 1
Ġson regis
Ġkos ma
ĠNov embro
ĠGra va
Ġmale ga
ya hoo
Ġsoli da
Ġarbus toj
Ġreputa cion
ĠFrankfur to
T ur
Ġ ðŁ
Ġe p
ti ÄĿanta
al menaÅŃ
mi on
ĠC N
ed z
ĠMi cro
Ġhom aron
Ġplu ajn
Ġkan tona
ĠÄĪi ka
Ġangla lingvaj
Ġbi bli
pozi cion
nab oj
Ġserio zan
Ġklopo di
Ġseks oj
ĠEgip ta
Ġsk emoj
ĠEr tl
Ġrezolu cion
Ġvendre do
Ġaristo kra
H ol
p iloj
la m
te orio
ĠA da
ĠB at
Ġri beloj
Ġsen la
ni ka
Ġle ÄĿaro
Ġak celi
ĠRe li
Ġang loj
Ġfo tis
Ġkam pojn
Ġsimp lajn
ĠBa g
ĠDi patrino
ĠÅĿa foj
ĠÄīam brojn
Ġtrin kas
Ġkonstitu cia
sem inario
Ġdetermin as
ĠParto prenantoj
Ġkaver no
Ġtrotu aro
Ġnene ces
O O
w eb
È Ļ
re ton
Ġf ala
ĠL Ã¶
vi ca
Ġse ÄĿoj
tan ojn
Ġek kompren
Ġesti gas
ĠÅ ļ
it s
ĠMa te
ĠPro men
ĠPar k
Ġfer a
sek ven
ĠSin sekvaj
Ġedu kadon
Ġarb ara
Ġtrin kejo
ĠIS AE
Ġfenomen on
Ġkalum ni
a tion
am bro
Ġpo p
Ġpro cento
ĠA T
go l
Ġsur strate
ĠantaÅŃ nelonge
Ġkre a
Ġmar istoj
Ġfra mas
Ġhej moj
ĠUnivers alan
Ġkonf uzo
Ġtradi ciajn
Ġadminis tras
Ġdiferen cojn
Ġarme aj
Ġfamili aj
ĠTem plo
ĠAd minis
Ġkonven e
Ġprilabor i
Ġalven os
Ġpligran digi
ĠK p
ĠA posto
Ġse mojn
van a
ĠkontraÅŃ aj
Ġvar man
ĠFran Ã§ois
ĠPro to
ona te
Ġprepar ado
Ġdetru itaj
Ġinsta lita
Ġkonklu das
Ġamaskomuni ki
P i
k tinda
z z
Ġti me
ĠL ins
ĠA dolf
ĠF ord
ej ro
Ġgra tul
Ġ18 50
Ġindi kitaj
Ġcen tran
mar aj
Ġ8 6
Ġnaci lingvaj
Ġlaboris tojn
Ġgx oj
Ġmaljun an
Ġekzer cejo
Ġdenas kaj
Ġnai va
Ġgenu oj
ar s
Äī eron
so va
Ġma lanta
par la
Ġna zioj
Ġru ÄĿan
Ġvizi tu
Ġrif uzo
Ġvolon tu
ĠPan diono
Ġgim nas
Ġsamseks ulo
ĠtransloÄĿ iÄĿis
ĠFS X
ur b
Ġmi eno
ĠS tr
ĠM jan
Ġan t
ren a
Ġar bon
Ġpa gon
Ġma k
Ġma ku
Ġma gia
ej no
Ġvar b
Ġpra a
Ġproble m
Ġspi r
ĠBo u
Ġbal kon
Ġinten s
Ġstre bis
fin aÄµo
post en
ĠÅĿul troj
Ġlevi ÄĿas
ĠaÅŃton oma
ĠTul uzo
o fte
p ron
to le
Äī io
Ġf ame
ĠT at
ĠÅĿ oseo
ĠH uman
bo ur
men te
ĠVi zi
Ġfin aj
Ġfin iÄĿos
Ġrice vita
Ġdan ci
Ġsa ga
Ġob tu
uni vers
kons ci
ĠmalantaÅŃ e
Ġsenpa gaj
Ġhungar e
Ġkvi ete
Ġmall uma
Ġate st
Ġneaten dita
ĠAten tu
Ġvikipedi aj
ĠKE LI
à ¦
Ġe man
Ġe tiko
ka ter
Ġne bu
Ġi daro
Ġre tur
Ġpo et
Ġali landanoj
Ġfor man
ĠantaÅŃ parolo
Ġsep dek
An dre
qu ith
ĠKun si
Ġindustri oj
Ġverkis tino
Ġprotes tantoj
Ġsinsek ve
ĠHal ina
Ġnekre deble
k lik
Ġla m
Ġe ri
Ġa ka
kon tin
ce co
Ġpa Äījo
Ġor digi
Ġvor tarojn
pro ce
ba ti
var ma
Ġpas o
Ġprezen tataj
Ġkol ono
ĠserÄī u
Ġsupo zo
Ġfamili an
Ðµ Ð»
ĠAng lujo
ĠmalantaÅŃ a
Ġlis tigas
Ġhazar do
Ġekzer ci
ĠUson on
Ġtempera turoj
Ġkolor ojn
ĠHam burgo
Ġanstata ux
Ġsacerdo to
Ġastero ido
ĠMeze poko
deven aj
ĠSkan dina
G F
P lu
u laj
v ro
Ã ®
è ¯
or da
re bla
ĠÄī en
Ġin tui
Ġvi vojn
ĠS kribu
ter ion
ĠA zia
dan tino
Ġtro m
Ġko la
Ġpen ante
Ġkor ojn
Ġpe zon
Ġdek lin
Ġmalbon ajn
ĠRi late
ĠaÅŃtor rajta
Ġdefen d
Ġkvan tum
Ġgri mp
Ġservis toj
ĠantaÅŃvi das
Ġanstata u
ĠAÅŃton oma
å¸ Ĥ
ĠStokhol mo
A ra
ta laj
Ġek ran
Ġar mi
si an
Ġfa kt
omo to
ĠRe a
Ġ6 40
Ġnaci on
Ġdisku tejo
Ġefi kojn
Ġmil de
Ġduon jar
Ð° ÑĢ
Ġstuden ta
Ġkunme taÄµo
Ġbom ba
Ġobe i
Ġmek ani
Ġela Äīe
ĠRezul te
s hi
u ps
Ġp uraj
re tejo
ĠT ran
Ġka talogo
Ġkons ilon
ĠEn glish
Ġmo voj
Ġfa ligis
Ġaten co
Ġprof e
ĠInter lingvis
Ġdisvas tiÄĿas
Ġkonvin ko
Ġprizor gis
Ġsenmo va
Ġedzin iÄĿis
Ġfur or
ĠMace donio
b rilo
ta di
le z
es tan
Ġi ajn
Ġvi dita
ĠS ir
Ġpri ra
Ġres umas
Ġmo toroj
Ġsci igas
Ġsek undo
Ġaper on
ĠRe al
19 52
Ġ8 4
kur as
Ġregi onojn
Ġbri laj
Ġfen estron
Ġbele gaj
ĠKonsi der
Ġtranspor ti
ĠLan ti
Ġsalaj ron
ĠvilaÄĿ eto
Ġadjek tivoj
ĠteÄ¥ no
ĠAp ple
ĠMuzi ko
Ġorn ami
Ġnobe laro
u u
â Ĥ¬
li gante
ar anoj
Ġne pr
Ġre organi
di es
ĠlaÅŃ vorte
Ġle vas
pre mo
Ġdispon igis
Ġkul min
mar koj
Ġpu to
Ġmez aj
ĠGran dan
Ġspiri te
Ġsurpri zis
Ġfig uron
konstru o
ĠantaÅŃvi dis
ÐĶ Ñľ
F R
G H
S al
h ab
Ġ ....
Ġs lava
Ġo kt
ver ÅĿ
bo wski
Ġme titaj
Ġlan Äīo
par ko
pri zon
ĠRe gi
Ġ7 6
ens tein
Ġmovi ÄĿi
ĠBil doj
ĠLatin ameriko
Ġargen tina
ĠEURO KKA
Äī ante
es teco
Ġh ir
ĠL illo
Ġpo ÅĿo
ĠP ens
Ġpri mo
ĠF r
il y
ĠMi ch
dan tan
Ġnun tempo
Ġro ma
Ġdan kis
Ġdan cado
Ġkonstru aÄµojn
ĠloÄĿ ado
Ġregis tra
br una
ĠÄĿus taj
Ġkonta ktu
ĠÄĿoj a
ĠÄīes i
Ġmalfru aj
ys tem
Ġdipl omon
Ġallo gas
Ġpopol nombrado
ĠRon do
Ġmaga zen
âļ«ï¸ ı
ĠPozn ano
c ze
Ġs loven
Ġal ve
Ġc in
ver koj
Ġfar ado
ĠTi om
Ġsek vajn
Ġfon diÄĿo
Ġkura ÄĿe
ĠDi k
Ġvila ÄĿa
ĠRa kon
gh on
Ġkas telon
Ġkolekti taj
Ġmaljun ulino
Ġsp am
Ġofen si
Ġeki paÄµo
Ġtera pi
ĠEuro pa
ĠGro up
Ġkrim uloj
Ġaf lik
P G
m Ã¡n
Ġs lan
Ġa bi
Ġb lus
Ġin tima
ĠL EE
Ġpor najn
aÅŃ r
tr uloj
ĠC at
Ġra cie
Ġpost res
vin on
Ġpens ante
Ġindi co
Ġ7 1
Ġfran co
Ġsimi oj
Ġbu tono
Ġkonsis tigis
Ġlong tempe
Ġapro bas
Ġalb umon
Ġetn oj
Ġsudori ento
Ġduling va
ĠdeÄµ or
e va
f lo
f leks
Ġ ura
ul ton
zi loj
Ġpli faci
ĠF I
Ġno beloj
ĠVi ctor
Ġma kro
mon tri
Ġfa voro
Ġins tigo
labor i
Ġten do
qu ez
ĠaÅŃto bus
ĠserÄī ilo
Ġfir man
ĠtaÅŃ ge
AN G
Ġdemokra ti
Ġy o
Ġ189 9
Ġkompa tinda
Ġbas eno
Ġvari antoj
Ġekzempl eron
Ġprinc ino
ĠBr uno
Ġkunpor tis
ĠBea u
Ġsubstre kas
ĠAntar ktaj
! ,
N E
f fer
m ing
z isto
Ġre d
tis o
ĠE bl
Ġpro kur
ĠA ran
ĠP lus
de kon
Ġel kore
kon ser
Ġpar tia
Ġfunkci uloj
ĠLu ter
ĠBer g
Ġpru v
Ġhal tas
Ġsor t
Ġvek i
Ġatribu ita
Ġsove tiaj
Ġstatis tikoj
Ġperseku tado
Ġeltro vi
ĠPrem io
ĠBudap est
H ieraÅŃ
i us
v ulo
å Ľ
Ġp eni
ĠD et
ve z
ven to
gu le
Ġpas ka
ĠMar c
Ġlu dado
Ġnova Äµon
Ġkro mpro
are con
kov rita
Ġsper tuloj
ĠGra matiko
Ġhar aro
Ġuniversita taj
Ġmarbor da
Ġekzempl erojn
Ġproponi taj
mili toj
ĠÄĿisda tigoj
Ġmaga zeno
f ul
s kaja
ĠS uz
Ġkom pens
Ġ" -
Ġuz goj
ĠÄīirkaÅŃ vol
Ġplan i
Ġregis trado
Ġsufi ksoj
Ġ9 4
Ġneces os
ĠSo cio
Ġpu Äīo
fri ka
Ġviv maniero
ĠHa a
flan k
Ġmas trino
ĠX X
ov rilaj
Ġdesegn is
Ġlerno libron
ĠDemokra tio
ĠantaÅŃvi di
ĠÄĮ a
Ġmat Äīoj
wit z
P an
Ġk vo
Ġe c
Ġa zeno
ĠE u
ÅĿ ul
kon fes
ĠD NA
fer aj
Ġtra fe
ku laj
gra mon
tur ajn
Ġfa deno
Ġro zo
Ġren esan
gen tejo
pas o
tive co
Ġaran ÄĿas
Ġ189 4
Ġmina ca
Ġpoem aro
Ġgh uste
Ġlign aj
Ġign or
G ru
e goj
w ood
ko lado
ĠR E
Ġfor flu
Ġar de
Ġtu ber
Ġekz ameni
Ġam fi
Ġ0 4
ÄĿan tan
ĠLin ukso
ĠStu dado
Ġromp ita
Ġ188 8
Ġita loj
Ġemin entaj
Ġese oj
Ġpostula ta
Ġaltran guloj
B el
N eder
Ġa teli
re ÄĿo
Ġal venon
Ġmal simp
zi ÄĿas
ki en
Ġpar enco
ĠÄĪ inujo
Ġcen tre
Ġob st
ĠMal to
Ġefi kaj
Ġkomuni kilo
Ġag lo
Ġkona tajn
ĠKal ining
Ġakade mio
Ġlun de
Ġeldi ris
ĠPlu e
pÃ© ranto
i ros
z al
Ġla t
Ġs kri
Ġg rajn
ĠM esa
ĠA tana
vi on
de j
Ġsu peran
Ġpre ÄĿas
Ġfor umoj
ĠJ el
Ġsta t
ĠkontraÅŃ ulo
ĠPo d
Ġsig nalo
Ġkri zon
ĠPa f
Ġkur ento
nom ata
Ġprele g
Ġmaten manÄĿo
Ġfoli ojn
Ġafi ÅĿi
ĠaliÄĿ intoj
Ġfervor a
Ġinterrila toj
ĠTol stoj
ĠDas gupta
ĠHein rich
G u
Å ¯
Ë Ĳ
Ġk leri
ar ia
Ġt his
ĠS k
de kla
Ġte amon
Ġ18 00
ĠKa pita
ĠLe wis
Ġscien con
Ġedu ki
Ġaga dis
Ġkorek tis
Ġnordo kcidento
kuti me
ĠGeor ges
Ġsuspe ktas
Ġdenun cis
Ġdimen sio
ĠHispan ujo
ĠKolon jo
ĠFland rio
a v
Ñ Ĩ
Ġf eni
Ġne kom
ĠL ille
Ġli teron
ĠJ ubile
pa tio
ĠÅĿi pojn
Ġ18 71
fa kte
Ġmis ter
Ġekonom iko
Ġbar ilo
Ð½ Ñĭ
Ġhejm paÄĿon
Ġapli koj
Ġmeta for
ĠkontraÅŃsta ri
Ġsenproble me
T S
c ula
te amo
Ġf amo
Ġkom plo
ĠH iz
pa c
Ġma pojn
Ġest inta
Ġdivers maniere
Ġliber ala
ĠEk umena
ĠNo a
ĠDi an
kar ton
Ġtemp l
lus tuli
Ġpopula reco
ĠÅĿanÄĿ iÄĿo
Ġorigin an
Ġkonsta to
viadi lo
Ġhere dis
Ġesperant lingvan
fran ca
Ġkomita ta
ĠâĢİ ((
ĠApen aÅŃ
lustuli mu
! âĢľ
ÄĿ elo
ka di
Ġi rana
Ġ( +
Ġan ato
Ġmal plenaj
ĠN eb
oni ka
ĠH ern
pa ÄĿoj
Ġver ÅĿajn
Ġmin ut
Ġven doj
Ġko k
ĠkontraÅŃ ju
Ġrice vo
ĠMon toj
Ġbo telo
ak tuala
Ġprogres is
ĠJun ularo
Ġ189 5
Ġdun g
ĠNova Äµoj
Ġdin as
ĠKal le
Ġmalsukces o
Gran deco
Ġjur ajn
Ġripar i
ĠFis cher
Ġal pre
Ġre doni
ĠP siko
Ġali vorte
ĠG im
Ġsen re
ĠEn e
ĠAn ato
vin taj
tp aro
ĠÄīirkaÅŃ a
kur s
Ġge esperantistoj
Ġkole ktojn
teri ojn
ĠAli vorte
alisto ka
Ġremem ori
ĠBen jam
Ġvun diÄĿis
Or gani
Ġpostlas is
ĠStatu to
Ġtrejna don
ĠMjan mao
A I
E ÅŃropa
S cien
T H
ti tle
mi ra
pi ono
Ġtro mpi
Ġsek toroj
Ġ9 7
Ġpreci zaj
ES PERANTO
Ġban Äīambro
Ġbru toj
Ġrea gi
deks tra
ĠfiÅĿ ojn
Ġinspi rita
Ġski po
Ġkantis tino
ĠHu go
Ġlandli moj
Ġlegan tojn
Rila te
E r
U M
a par
p per
Ġs tern
Ġs feroj
ti uj
ĠG Ã³
Ġka zon
Ġmor ale
kan dida
Ġja ko
Ġkap aci
Ġstu don
ĠÃ ĸ
fon toj
Ġsep tem
nom bro
Ġkomer ce
kar t
Ġenkondu kon
Ð¸ ÑĤ
Ġampleks e
ĠTe ch
ĠAndre as
Ġfut bal
Ġslo gano
Ġsenlabor eco
n gel
p into
ĠT ren
las s
ĠI mp
ĠF en
no vaj
Ġmar i
gu laj
Ġkan tistoj
gen e
ĠGerman aj
ÅĤ ad
Ġdetru as
Ġremem oroj
Ġsupren iris
ĠHon ora
sto kejo
Ġtraduk into
Ġkonkre tan
ä¸ į
Ġinterre te
Ġbongus ta
Ġneevi tebla
eba ot
h omoj
l ta
Ø ¨
li ght
ci poj
Ġkun uloj
pe g
ten berg
Ġkre adon
ĠIn cendio
ze f
Ġiom e
Ġprogra ma
Ġvar so
ĠFran ces
Ġpi tores
Ġplur mediaj
Ġmaj esto
Ġmaj oritato
su fi
Ġdivi ditaj
Ġmalal tan
jar iÄĿon
Ġmenso goj
ĠPas tro
Ġdistan con
Ġkvali toj
Ġbud his
Ġperspekti voj
Ġvers hajne
L an
Ġv ang
Ġal prenis
Ġre tajn
tis ton
ĠK laÅŃ
Ġkon ku
ĠS za
Ġmon taroj
ĠH inda
ĠKom panio
Ġkonstru iÄĿis
Ġ8 1
Ġami kaj
ĠMon tre
paro lanto
Ġuzi ÄĿas
Ġevi t
Ġreali ÄĿis
Ġpronon cis
Ġblin duloj
Ġtekno logioj
Ġsalaj roj
}} .
Ġtoler emo
Ġfori ros
ĠsenÅĿan ÄĿaj
V e
Î ¼
Ġkon oj
Ġ( *
Äµ eto
Ġfor veturi
Ġar ka
Ġkons tantaj
Ġ: (
ina lo
cen zo
Ġ8 2
Ġ8 9
tum ado
ĠÐ ¼
Ġpun ktojn
Ġradi kon
Ġvas t
ind ajn
Ġspiri toj
Ġtutmon diÄĿo
Ġkonten taj
Äľ enerale
Ġ189 6
Ġz lo
Ġgh ia
ĠÄµe tas
ĠGar cÃŃa
ĠBudape ÅĿta
ĠBran den
Ġsinoni mo
Ġsingar de
Ġvertika la
Ġantis emi
D emokra
T EJO
Ġmal be
pe jo
Ġdi eto
ĠD al
ce ton
ĠG ene
Ġno tas
Ġmul ten
Ġsub aj
ĠÅĿta tojn
Ġnu ligis
alis maj
Ġfla goj
Ġproksim iÄĿis
ĠNor man
plan e
Ġkorespon di
Ġflugi l
Ġkonver ti
Sek ve
Ġpropri e
Ġkuir arto
Ven u
Ġfilme toj
Ġhipote zo
Ġfara ono
c aro
e gis
f ali
g ed
s pa
z are
la tine
Ġv ana
Ġne vo
ĠL td
ĠE t
ĠS co
vi vi
ĠP ale
ĠLa tina
Ġun us
me d
ĠC ebaot
Ġmals a
Ġpres kaux
Ġakcep ton
Ġuni kaj
str umentoj
Ġsufer i
Ġripe t
Ġimpres is
Ġvarme go
ĠUS SR
Ġinsek to
Ġsistem ojn
Pl uraj
Ġkolum no
ĠHolm so
âļ«ï¸ı âļ«ï¸ı
ĠÄĮa pek
. '
u do
Ġen ciklopedi
ĠK P
Ġper dos
Äµ i
Ġdi le
Ġle vig
ĠÂ £
Ġskrib aÄµoj
Ġkri terio
Ġ7 8
Ġnu tr
ĠDo ktoro
sek cio
Ġnum erojn
Ġofer ti
Ġkomenc ante
ĠMan kas
ĠHel en
Ġbalo t
ĠÅĿton on
ĠdediÄī itaj
Ġsubskrib i
Ġdra m
ĠÅĿip estro
ĠKre do
Ġelektroni kaj
Ġprezidan tino
Ġfias ko
Ġaposto loj
ĠSalom ono
o z
v igita
Å Ł
ti t
te lojn
ra t
ĠL ej
Ġg eto
Ġver ajn
ĠC anada
Ġap ena
pren os
Ġsta ÄĿojn
ĠÄĿis nuna
ĠIn form
Ġvo ko
Ġpas inte
Ġinstru oj
Ġcen traj
Ġgerman o
Ġmalpli multo
Li tera
Ġrenkonti ÄĿojn
Ġmemor igi
Ġpromen ado
Ġstatu oj
Ġkonflik ton
Ġmalakcep tis
pion ado
ĠEkzem ploj
Univers itato
D omo
v ori
as i
Ġal las
Ġpo lajn
tan ismo
mi e
Ġc ento
Ġfa kta
Ġmar ÄĿ
Ġsa ÄĿaj
Ġnu daj
Ġbi lan
Ġoku pata
Ġflan kojn
Ġuti lon
Ġlar m
Ġkonsen ti
ĠdanÄĿ eroj
Ġfoli umi
Ġhejm paÄĿo
dol fo
Ġbom bo
Ġlun don
Ġeska pi
vila ÄĿo
Ġneniuj n
L on
Ù Ħ
Ġla geto
ĠK Ã¶
de blas
Ġsen nombraj
man uel
Ġka t
ĠO mar
Ġman koj
ĠW eb
Ġfunkci os
Ġinfan aj
Ġofer tis
Ġnatur scien
ĠEU R
Ġminis tron
Ġ189 7
Ã¨ ne
Ã§ Ã£o
instru istoj
ĠaliÄĿ ilo
Ġrezis ti
ĠAndr zej
e ce
Ġp uran
le tero
ĠA K
Ġmal sta
Ġel tiri
ĠaÅŃ tun
ĠC ompan
mon tran
Ġmo tiv
Ġlern antojn
Ġdeci dita
Ġdeci dos
Ġop timis
Ġkomple kso
Ġproksim ulo
Ġdispu toj
Ġkonsekven cojn
Ġpul voro
ĠÅĿer co
Ġperfi do
Ġinterre taj
Ġnutra Äµon
Ġtrun ko
ĠÄīo kola
Bal daÅŃ
ĠOto mana
f le
g esto
w en
is me
ĠP ino
Ġkom ando
ĠaÅŃ t
ed zi
Ġven toj
ĠIn fan
Ġro loj
Ġpe ze
ĠKun veno
Ġinvi ton
Ġanali zas
Ġsom eraj
Ġz amenho
Ġgri zaj
ĠPas porta
Ġnere gis
kum u
âĪŀâĪŀâĪŀâĪŀâĪŀâĪŀâĪŀâĪŀ âĪŀâĪŀâĪŀâĪŀâĪŀâĪŀâĪŀâĪŀ
Äīen ko
. ]
te me
Ġen vio
um itaj
ru lo
ĠD O
Ġver so
Ġaper igas
Ġvar ian
ĠHa go
wi k
Ġlibere coj
Ġsalu to
Ġmeri toj
ĠTele fona
Ġpers is
Ġverk into
Ġdekli voj
Ġimper ia
ĨįãĨįãĨįãĨįãĨįãĨįãĨįãĨįãĨįãĨįãĨįãĨįãĨįãĨįãĨįãĨįã ĨįãĨįãĨįãĨįãĨįãĨįãĨįãĨįãĨįãĨįãĨįãĨįãĨįãĨįãĨįãĨįã
ĠIsla ma
delegi to
d d
la dis
Ġen tj
es i
ĠS R
ĠP y
ĠI ra
tor itato
for man
Ġpe toj
Ġnov uloj
ec ka
Ġevi tis
Ġklas a
parte mento
Ġfeder aciaj
ĠAs quith
ĠMem fis
konstru ado
ĠJar os
ĠParto prenis
ĠMinis tro
Ġamb igu
G A
b elon
ti le
Ġre voj
di k
ĠA VE
ĠP M
Ġel flu
res se
ĠÄīar me
Ġspe ktan
Ġro mpo
Ġsan ga
Ġfo iro
ĠSi mi
Ġkontro litaj
ĠRa porto
Ġzor goj
ĠÄīees tantaj
Ġprogres as
Ġmortin taj
Ġfiks is
Ġbrus t
Sa ksa
Ġakuz is
Ġpilgri m
Ġplum aro
ĠÅĿte lis
**** ****
Ir lando
ĠKonven cio
ĠFakul tato
m Ã¶
r uloj
Ä ¾
Ì Ĥ
Ð ¢
ta m
is en
ig inte
va di
ĠN ilo
ĠEs ti
men tan
Ġuz us
ĠMi c
ĠMon ta
Ġkam pa
Ġprofes ian
cx jo
Ġproksim iÄĿas
ĠOr todoksa
ĠTur ismo
Ġbio grafi
Ä´ an
ãĢ ģ
Ġmalka ÅĿe
Ġelmon tras
Ġpin ton
Ġrol uloj
Ġmalkla ra
âĶ ģ
ĠYou Tube
ĠLevi doj
) ?
T F
s ud
u tis
Ġ ç
Äī jon
ka talogo
Ġre teni
vo Äīe
ĠI lin
oni do
tra to
taÅŃ ga
Ġtra d
Ġsub meti
Ġak uzo
Ġprezen ton
Ġkap itan
ĠPro vi
Ġkur anta
gx ojn
ĠanstataÅŃ as
Ġurb anoj
eks ter
ĠGran de
ĠtaÅŃ gajn
Ġdifin ojn
ĠSte ph
Ġprotes to
Ġefektiv igo
Ġizo lita
Ġnekre debla
Ġetike do
Ġsla vaj
Ġfara on
Ġkoali cio
Teks to
o per
Ã °
te ga
Ġal veturi
Ġin gre
di to
Ġpor dojn
ĠS us
um ero
ĠA ÅĿ
Ġel parolo
ĠV Ã¡
ma laj
ĠH ieraÅŃ
Ġoni di
Ġven kos
za taj
Ġkor ton
tin dan
ling v
19 40
Ġsukces ojn
ĠPa kto
Ġdev ojn
Ġsignif an
ĠAli e
Ġsp urojn
ĠSoci ety
199 2
Ġenme tas
Ġtransdon ita
Ġkana da
ĠÅĿto fo
Ġmeb loj
b b
Ġ zi
Ġa mantoj
re d
Ġf rom
ĠL L
Ġkon on
ĠÅĿ ose
Ġfor tigi
aÄµ a
ĠantaÅŃ longe
Ġter enon
Ġkonstru aÄµon
ĠDe zi
Ġgvi dos
ĠMal bor
ÃŃ r
Ġopini i
Ġbo vinoj
kar on
Ġfacile co
ĠÄµus a
Ġperfek tan
vide o
ãĤ ¹
ĠVen ces
Ġsimbo la
Ġtelefon is
vÃ¡ r
Ġkompeten ta
Ġparlamen taj
Ġhin du
Ġpalestin aj
ĠLeon ard
Ġsurfa con
Ġrespondec uloj
ĠAugus t
ĠFuku ÅĿima
F er
G NU
ri ght
ci plino
Ġfor estas
ek zem
ĠH es
Ġka ton
Ġtra iras
kis ta
ĠDe ks
ĠkaÅŃ ze
Ġmur mur
Ġtito lojn
Ġ189 1
ĠAd amo
ĠUson aj
Le gu
Ġgus ton
Ġsuges tojn
ĠFab ri
Ġoksig eno
E H
Ġa fgan
Ġkaj ero
Ġre vis
ĠL um
ĠE ko
ten ado
Ġfor preni
Ġtra iri
ĠMar ÃŃa
Ġmals eka
Ġskrib ado
ĠUni ted
Ġkonser vitaj
Ġprovi zis
Ġrime d
Ġamp li
nova Äµoj
Ġkoti zoj
ĠsaÄĿ eco
ĠEkzem plo
Ġpentr arto
Ġreprodukti ÄĿas
ĠIma gu
f fen
Ġe va
Ġre pres
Ġb ek
ĠE ro
ĠS es
tu t
Ġek laboris
ma Äµ
pon a
ab ela
Ġpas intan
Ġpe zan
Ġlern ebla
Ġves titaj
ĠDe fen
Ġsubten ata
Ġkondu kos
Ġfla mo
Ġr ara
Al done
Ġran g
ĠSve da
Ġcom munica
KOKOKOKOKOKOKOKOKOKOKOKOKOKOKOKOKOKOKOKOKOKOKOKOKOKOKOKOKOKOKOKO KOKOKOKOKOKOKOKOKOKOKOKOKOKOKOKOKOKOKOKOKOKOKOKOKOKOKOKOKOKOKOKO
Ġens alu
1 01
li ch
Ġv aloj
Ġi ran
Ġj anu
po lon
ĠO omoto
Ġmo ÅĿto
Ġser ba
ĠMar s
Ġaten do
Ġdeman du
Ġkonsider inda
ĠGra vas
Ġnorma lan
ĠBe at
Ġpremi oj
ĠÅĿo foro
Äµe tis
EE EE
Ġdense co
Ġster eo
Ġkoinci das
Ï ħ
Ġde por
Ġal ÅĿu
ĠS ite
ĠN aj
Ġri do
ni j
ub oj
Ġesti ÄĿo
tin ojn
ĠKon cilio
ĠMar teno
Ġtrans preni
rus o
Ġsa k
Ġ7 9
Ġkongres aj
Ġblan kajn
Ġgla te
Ġkoncep tojn
ĠJan e
Ġekle zion
Ġargumen tis
Ġpsiko logia
Ġkolor aj
ĠJar libro
ĠKie vo
ĠmalÄĿoj aj
Ġgal erio
Ġmani pula
Ġlabora torio
ĠAndr Ã©
% ),
B ona
C I
K ur
L ou
M AS
T ion
k ero
la h
le d
ĠL ut
ig anto
Ġse m
Ġmal paci
us oj
ĠÄīi Äīeron
Ġel d
Ġfor igu
pa Äµoj
pa ÄĿaro
ĠO re
Ġaldon iÄĿas
Ġplen d
Ġlas ante
Ġpla fono
Ġpatr ono
Ġklas on
ĠIntern aciaj
ju k
Ġpopula ri
Ġarki vo
Ġtera pio
Ġsopi ras
Ġebli gos
Ġnigr uloj
daux rinde
ĠâĪ Ĵ
A D
or de
ĠS ign
de goj
pa g
ĠO j
Ġkre os
ĠIn dustri
ha vi
Ġfi era
Ġpe tante
Ġmala var
vor e
at us
ec ajn
Ġbata lado
Ġkonf is
Ġinvi tita
Ġnatur ajn
Ġstuden tojn
Ġaro mo
Ġpasi va
Ġdoktor iÄĿis
Ġdevi zo
ĠÅĿnu ro
, âĢ¦
: )
T L
Ġa lo
ar ajn
Ġre iri
ĠL j
ĠS X
Ġkun iÄĿis
tu rita
ga doj
Ġpar ali
Ġpar iza
gra ma
Ġko lap
Ġ6 9
Ġdezi ri
ord press
Ġaki rita
ĠRes pub
ts ch
Ġeten d
Ġdemokra tion
kol oro
Ġkonvin kis
tek turo
sal ono
Ġkis is
Ġintegri ÄĿo
ĠJung kee
H ar
p si
Ġen ÅĿo
ing oj
van ton
Ġhom aran
Ġsam sekso
et he
ĠKomun i
ĠPa c
Ġkuti man
Ġfru kton
Ġtradi ciojn
Ġkrom nomon
Ġpru voj
Ġmalal t
Ġpala c
Ġpremi ojn
Ġprotes tis
Ð¾Ð ¼
Ġmalsam an
Ġkunme tita
ĠÄĮ esk
Ġkurs anoj
ĠÄĿenti le
* .
b ilo
Ġp ed
Äī ina
Ġvi data
ĠK B
ig ilo
ĠM orgaÅŃ
Ġel prenis
Ġek fla
for ton
Ġman telo
Ġma kuloj
Ġtri onoj
ad minis
Ġang ul
gen s
Ġ8 7
Ġkar ton
ĠMe zo
Ġ10 3
Ġvir g
ĠSu kces
Ġprakti kan
Ġhal on
ĠÅĿton ojn
Ġaviadi lon
ĠAt las
Ġlig iÄĿas
Ġmanuskri ptoj
ĠEsper eble
ĠColle ge
L in
d ney
Ġk ante
ĠK ni
Ġun io
Ġak omo
Ġparo Ä¥o
gran ge
ĠAr turo
Ġmuzi ki
ĠPer sone
In form
Ġknab inon
Ġklopo dojn
Ġsor Äīis
ĠÅĿul do
Ġvan goj
Ġbazi liko
Ġekstre man
Ġprecize co
Ġinterparo lis
Ġobe is
emi zoj
Ġellabor is
Ġalkla ki
A K
s tilo
Ġd us
Ġde metis
li me
ÄĿ ele
ro man
di toj
vi ro
Ġper antoj
ĠJ ul
bo ard
Ġekz a
Ġma gne
Ġgra fika
Ġkor por
Ġro zar
Ġmar don
Ġplu ve
ĠÅĿan cojn
Ġhon t
omen ka
Ġunivers alan
ĠY u
ĠSur voje
Ġsign as
Ġagra bl
Ġentuzias me
Bon venon
Ġrimarkin de
ĠarÄĿ enta
Ġsocial demokra
ĠJapan ujo
dimen sia
Ġkomp ilis
ĠBudh ismo
k igi
Î ¯
en ne
Ġ1 18
dis tri
dis tribu
Ġmor tp
Ġpen oj
Ġurbo parto
Ġtrans pas
Ġce di
Ġdev igata
cas t
ĠeÅŃro pajn
Ġkial ojn
Ġpropra Äµo
Ġdisting on
ĠPli aj
Ġdifin itan
Ġbran Äī
Ġinterparo li
ĠEuro pe
Ġripro Äī
Ġign oras
âĹĭâĹĭ âĹĭâĹĭ
ĠDiser von
