{"<s>": 0, "<pad>": 1, "</s>": 2, "<unk>": 3, "<mask>": 4, "!": 5, "\"": 6, "#": 7, "$": 8, "%": 9, "&": 10, "'": 11, "(": 12, ")": 13, "*": 14, "+": 15, ",": 16, "-": 17, ".": 18, "/": 19, "0": 20, "1": 21, "2": 22, "3": 23, "4": 24, "5": 25, "6": 26, "7": 27, "8": 28, "9": 29, ":": 30, ";": 31, "<": 32, "=": 33, ">": 34, "?": 35, "@": 36, "A": 37, "B": 38, "C": 39, "D": 40, "E": 41, "F": 42, "G": 43, "H": 44, "I": 45, "J": 46, "K": 47, "L": 48, "M": 49, "N": 50, "O": 51, "P": 52, "Q": 53, "R": 54, "S": 55, "T": 56, "U": 57, "V": 58, "W": 59, "X": 60, "Y": 61, "Z": 62, "[": 63, "\\": 64, "]": 65, "^": 66, "_": 67, "`": 68, "a": 69, "b": 70, "c": 71, "d": 72, "e": 73, "f": 74, "g": 75, "h": 76, "i": 77, "j": 78, "k": 79, "l": 80, "m": 81, "n": 82, "o": 83, "p": 84, "q": 85, "r": 86, "s": 87, "t": 88, "u": 89, "v": 90, "w": 91, "x": 92, "y": 93, "z": 94, "{": 95, "|": 96, "}": 97, "~": 98, "\u00a1": 99, "\u00a2": 100, "\u00a3": 101, "\u00a4": 102, "\u00a5": 103, "\u00a6": 104, "\u00a7": 105, "\u00a8": 106, "\u00a9": 107, "\u00aa": 108, "\u00ab": 109, "\u00ac": 110, "\u00ae": 111, "\u00af": 112, "\u00b0": 113, "\u00b1": 114, "\u00b2": 115, "\u00b3": 116, "\u00b4": 117, "\u00b5": 118, "\u00b6": 119, "\u00b7": 120, "\u00b8": 121, "\u00b9": 122, "\u00ba": 123, "\u00bb": 124, "\u00bc": 125, "\u00bd": 126, "\u00be": 127, "\u00bf": 128, "\u00c0": 129, "\u00c1": 130, "\u00c2": 131, "\u00c3": 132, "\u00c4": 133, "\u00c5": 134, "\u00c6": 135, "\u00c7": 136, "\u00c8": 137, "\u00c9": 138, "\u00ca": 139, "\u00cb": 140, "\u00cc": 141, "\u00cd": 142, "\u00ce": 143, "\u00cf": 144, "\u00d0": 145, "\u00d1": 146, "\u00d2": 147, "\u00d3": 148, "\u00d4": 149, "\u00d5": 150, "\u00d6": 151, "\u00d7": 152, "\u00d8": 153, "\u00d9": 154, "\u00da": 155, "\u00db": 156, "\u00dc": 157, "\u00dd": 158, "\u00de": 159, "\u00df": 160, "\u00e0": 161, "\u00e1": 162, "\u00e2": 163, "\u00e3": 164, "\u00e4": 165, "\u00e5": 166, "\u00e6": 167, "\u00e7": 168, "\u00e8": 169, "\u00e9": 170, "\u00ea": 171, "\u00eb": 172, "\u00ec": 173, "\u00ed": 174, "\u00ee": 175, "\u00ef": 176, "\u00f0": 177, "\u00f1": 178, "\u00f2": 179, "\u00f3": 180, "\u00f4": 181, "\u00f5": 182, "\u00f6": 183, "\u00f7": 184, "\u00f8": 185, "\u00f9": 186, "\u00fa": 187, "\u00fb": 188, "\u00fc": 189, "\u00fd": 190, "\u00fe": 191, "\u00ff": 192, "\u0100": 193, "\u0101": 194, "\u0102": 195, "\u0103": 196, "\u0104": 197, "\u0105": 198, "\u0106": 199, "\u0107": 200, "\u0108": 201, "\u0109": 202, "\u010a": 203, "\u010b": 204, "\u010c": 205, "\u010d": 206, "\u010e": 207, "\u010f": 208, "\u0110": 209, "\u0111": 210, "\u0112": 211, "\u0113": 212, "\u0114": 213, "\u0115": 214, "\u0116": 215, "\u0117": 216, "\u0118": 217, "\u0119": 218, "\u011a": 219, "\u011b": 220, "\u011c": 221, "\u011d": 222, "\u011e": 223, "\u011f": 224, "\u0120": 225, "\u0121": 226, "\u0122": 227, "\u0123": 228, "\u0124": 229, "\u0125": 230, "\u0126": 231, "\u0127": 232, "\u0128": 233, "\u0129": 234, "\u012a": 235, "\u012b": 236, "\u012c": 237, "\u012d": 238, "\u012e": 239, "\u012f": 240, "\u0130": 241, "\u0131": 242, "\u0132": 243, "\u0133": 244, "\u0134": 245, "\u0135": 246, "\u0136": 247, "\u0137": 248, "\u0138": 249, "\u0139": 250, "\u013a": 251, "\u013b": 252, "\u013c": 253, "\u013d": 254, "\u013e": 255, "\u013f": 256, "\u0140": 257, "\u0141": 258, "\u0142": 259, "\u0143": 260, "\u0120t": 261, "\u0120a": 262, "er": 263, "in": 264, "\u0120th": 265, "\u0120s": 266, "\u0120w": 267, "\u0120i": 268, "\u0120.": 269, "ou": 270, "on": 271, "\u0120m": 272, "\u0120b": 273, "re": 274, "\u0120h": 275, "us": 276, "\u0120f": 277, "\u0120the": 278, "\u0120c": 279, "ing": 280, "at": 281, "or": 282, "\u0120d": 283, "an": 284, "en": 285, "\u0120to": 286, "\u0120l": 287, "\u0120p": 288, "\u0120y": 289, "es": 290, "\u0120n": 291, "ll": 292, "\u0120g": 293, "user": 294, "\u0120,": 295, "\u0120o": 296, "\u0120you": 297, "it": 298, "ed": 299, "\u0120an": 300, "is": 301, "ar": 302, "\u0120in": 303, "ay": 304, "\u0120!": 305, "ve": 306, "as": 307, "om": 308, "ot": 309, "\u0120of": 310, "ow": 311, "\u0120and": 312, "et": 313, "\u0120is": 314, "\u0120wh": 315, "al": 316, "\u0120e": 317, "\u0120be": 318, "le": 319, "\u0120<": 320, "ic": 321, "\u0120\\": 322, "\u0120on": 323, "\u0120it": 324, "\u0120re": 325, "\u0120for": 326, "\u0120u": 327, "ad": 328, "ac": 329, "th": 330, "ver": 331, "\u0120st": 332, "\u0120?": 333, "\u0120r": 334, "ke": 335, "am": 336, "el": 337, "ut": 338, "id": 339, "gh": 340, "\u0120ha": 341, "\u0120j": 342, "\u0120my": 343, "\u0120li": 344, "\u0120go": 345, "\u0120that": 346, "ion": 347, "os": 348, "\u0120..": 349, "ch": 350, "ld": 351, "out": 352, "ent": 353, "\u0120\"": 354, "\u0120sh": 355, "im": 356, "ill": 357, "op": 358, "\u0120k": 359, "\u0120'": 360, "ith": 361, "\u0120we": 362, "\u0120me": 363, "ly": 364, "\u0120he": 365, "ir": 366, "\u0120not": 367, "ust": 368, "\u0120ne": 369, "all": 370, "ght": 371, "\u0120tr": 372, "\u0120your": 373, "\u0120do": 374, "'t": 375, "\u0120lo": 376, "\u0120with": 377, "\u0120&": 378, "\u0120so": 379, "ter": 380, "'s": 381, "\u0120are": 382, "\u0120ch": 383, "od": 384, "\u0120have": 385, "\u0120can": 386, "ur": 387, "\u01201": 388, "\u0120but": 389, "ers": 390, "ere": 391, "\u0120all": 392, "pp": 393, "\u0120this": 394, "\u0120se": 395, "ome": 396, "\u0120at": 397, "\u0120wor": 398, "ct": 399, "one": 400, "ce": 401, "\u0120fr": 402, "ess": 403, "um": 404, "\u0120as": 405, "st": 406, "ight": 407, "\u0120pr": 408, "un": 409, "il": 410, "ol": 411, "est": 412, "our": 413, "\u01202": 414, "ore": 415, "\u0120de": 416, "\u0120was": 417, "\u0120just": 418, "\u0120what": 419, "\u0120v": 420, "ak": 421, "fe": 422, "\u0120ab": 423, "ist": 424, "end": 425, "ant": 426, "ag": 427, "\u0120get": 428, "ain": 429, "\u0120no": 430, "\u0120su": 431, "day": 432, "ould": 433, "and": 434, "\u0120up": 435, "ck": 436, "ack": 437, "\u0120they": 438, "\u0120:": 439, "\u0120out": 440, "ie": 441, "\u0120am": 442, "ul": 443, "ate": 444, "ake": 445, "\u0120don": 446, "\u0120pe": 447, "\u0120al": 448, "\u0120will": 449, "\u0120us": 450, "\u0120or": 451, "very": 452, "\u0120like": 453, "se": 454, "ok": 455, "ig": 456, "\u0120-": 457, "\u0120le": 458, "\u0120fe": 459, "ation": 460, "ally": 461, "\u0120kn": 462, "\u0120when": 463, "art": 464, "\u0120un": 465, "\u0120con": 466, "\u0120love": 467, "\u0120day": 468, "\u0120who": 469, "pe": 470, "oun": 471, "ab": 472, "ast": 473, "ind": 474, "\u0120from": 475, "res": 476, "if": 477, "\u0120about": 478, "ople": 479, "\u0120ex": 480, "\u0120tim": 481, "\u0120com": 482, "\u0120pl": 483, "\u0120if": 484, "ive": 485, "ard": 486, "\u0120know": 487, "qu": 488, "\u0120people": 489, "ep": 490, "\u0120one": 491, "\u0120te": 492, "\u0120how": 493, "ame": 494, "are": 495, "\u0120now": 496, "\u0120than": 497, "ry": 498, "\u0120by": 499, "ong": 500, "iv": 501, "\u0120see": 502, "\u0120has": 503, "\u0120man": 504, "ink": 505, "\u0120some": 506, "ost": 507, "\u0120/": 508, "ice": 509, "\u0120br": 510, "her": 511, "\u0120bl": 512, "'m": 513, "we": 514, "ity": 515, "wh": 516, "\u0120time": 517, "\u0120every": 518, "\u0120any": 519, "reat": 520, "ort": 521, "\u0120god": 522, "\u0120life": 523, "\u0120ag": 524, "ven": 525, "ump": 526, "\u0120his": 527, "\u0120want": 528, "ies": 529, "ace": 530, "ob": 531, "ip": 532, "\u0120new": 533, "hing": 534, "\u0120fo": 535, "\u0120our": 536, "\u0120gr": 537, "ge": 538, "\u0120good": 539, "ap": 540, "way": 541, "\u0120more": 542, "\u0120sp": 543, "\u0120work": 544, "\u0120say": 545, "ick": 546, "ose": 547, "atch": 548, "\u0120need": 549, "\u0120happ": 550, "\u0120there": 551, "ear": 552, "\u0120)": 553, "use": 554, "\u0120sa": 555, "pl": 556, "ud": 557, "\u0120cl": 558, "\u0120=": 559, "ia": 560, "\u0120think": 561, "\u0120them": 562, "\u0120feel": 563, "ans": 564, "\u0120(": 565, "em": 566, "oy": 567, "ous": 568, "\u01204": 569, "ings": 570, "\u0120did": 571, "\u0120qu": 572, "\u0120off": 573, "\u01203": 574, "\u0120en": 575, "\u0120co": 576, "\u0120cr": 577, "elf": 578, "ting": 579, "\u0120af": 580, "uck": 581, "ass": 582, "own": 583, "ide": 584, "\u0120only": 585, "ue": 586, "ine": 587, "the": 588, "\u0120im": 589, "\u0120bec": 590, "\u0120why": 591, "\u0120ar": 592, "ib": 593, "ough": 594, "\u0120been": 595, "ause": 596, "\u0120their": 597, "\u0120back": 598, "ound": 599, "\u0120dr": 600, "\u0120fa": 601, "\u0120today": 602, "alk": 603, "\u0120her": 604, "ure": 605, "ish": 606, "\u0120him": 607, "\u0120got": 608, "\u0120over": 609, "to": 610, "\u0120would": 611, "\u0120mu": 612, "ire": 613, "\u0120she": 614, "\u0120never": 615, "der": 616, "\u0120make": 617, "\u0120year": 618, "\u0120gu": 619, "ek": 620, "\u0120even": 621, "ning": 622, "ite": 623, "ff": 624, "\u0120trump": 625, "\u0120had": 626, "\u0120ke": 627, "\u0120res": 628, "\u0120sc": 629, "\u0120dis": 630, "\u0120look": 631, "ving": 632, "\u0120going": 633, "tr": 634, "so": 635, "ment": 636, "\u0120mo": 637, "ha": 638, "\u0120does": 639, "\u0120;": 640, "ts": 641, "ence": 642, "\u0120way": 643, "ach": 644, "ub": 645, "\u0120much": 646, "\u0120still": 647, "\u0120oth": 648, "\u0120let": 649, "\u0120act": 650, "\u0120real": 651, "\u0120then": 652, "\u0120thank": 653, "og": 654, "\u0120watch": 655, "\u0120great": 656, "sh": 657, "\u0120ad": 658, "ase": 659, "ope": 660, "\u0120right": 661, "age": 662, "\u0120tw": 663, "\u0120week": 664, "up": 665, "cc": 666, "\u0120show": 667, "llow": 668, "ress": 669, "\u0120again": 670, "\u0120po": 671, "ful": 672, "\u0120really": 673, "iz": 674, "\u0120play": 675, "\u0120bel": 676, "ile": 677, "'re": 678, "\u0120because": 679, "iend": 680, "\u0120being": 681, "\u0120sm": 682, "\u0120world": 683, "\u0120call": 684, "ber": 685, "az": 686, "\u0120bet": 687, "\u0120ser": 688, "he": 689, "\u0120should": 690, "self": 691, "ne": 692, "00": 693, "act": 694, "\u0120too": 695, "\u0120hel": 696, "ci": 697, "\u0120em": 698, "ought": 699, "\u0120won": 700, "omet": 701, "ance": 702, "ord": 703, "ah": 704, "iss": 705, "other": 706, "ait": 707, "\u0120bo": 708, "thing": 709, "\u0120after": 710, "ways": 711, "ull": 712, "\u0120last": 713, "\u0120wr": 714, "ang": 715, "aking": 716, "\u0120thr": 717, "\u0120belie": 718, "\u0120best": 719, "'ve": 720, "my": 721, "ath": 722, "\u0120ro": 723, "\u01205": 724, "\u0120pre": 725, "\u0120help": 726, "weet": 727, "pt": 728, "\u0120may": 729, "\u0120try": 730, "\u0120down": 731, "\u0120take": 732, "ves": 733, "\u0120hope": 734, "ren": 735, "pect": 736, "\u0120keep": 737, "irst": 738, "\u0120could": 739, "orr": 740, "\u0120always": 741, "\u0120fl": 742, "\u0120follow": 743, "\u0120str": 744, "ount": 745, "ote": 746, "ily": 747, "na": 748, "ave": 749, "\u0120friend": 750, "per": 751, "ade": 752, "\u0120ph": 753, "\u0120someone": 754, "ions": 755, "\u0120pers": 756, "\u0120somet": 757, "itt": 758, "aw": 759, "\u0120night": 760, "when": 761, "\u0120come": 762, "xt": 763, "\u0120att": 764, "oc": 765, "01": 766, "\u0120ever": 767, "ree": 768, "ory": 769, "\u0120things": 770, "\u0120stop": 771, "\u0120app": 772, "oss": 773, "\u0120wait": 774, "\u0120big": 775, "able": 776, "\u0120talk": 777, "ady": 778, "\u0120mon": 779, "\u0120bad": 780, "ise": 781, "be": 782, "\u0120ur": 783, "ild": 784, "akes": 785, "of": 786, "\u0120happy": 787, "ness": 788, "\u0120start": 789, "int": 790, "ely": 791, "ary": 792, "\u0120first": 793, "ms": 794, "\u0120other": 795, "ond": 796, "li": 797, "irl": 798, "\u0120guy": 799, "\u0120spe": 800, "\u0120into": 801, "\u0120its": 802, "pr": 803, "ason": 804, "\u0120were": 805, "\u0120fuck": 806, "\u0120rem": 807, "eric": 808, "\u0120person": 809, "wn": 810, "ved": 811, "\u0120*": 812, "\u0120where": 813, "\u0120end": 814, "ible": 815, "ious": 816, "\u0120supp": 817, "\u0120many": 818, "\u01207": 819, "\u0120per": 820, "ft": 821, "\u0120give": 822, "for": 823, "ark": 824, "\u0120put": 825, "\u012010": 826, "\u0120ho": 827, "\u0120find": 828, "\u0120thing": 829, "ied": 830, "ich": 831, "\u0120days": 832, "\u0120believe": 833, "\u0120ins": 834, "\u0120here": 835, "\u0120part": 836, "\u0120fin": 837, "urn": 838, "\u0120better": 839, "ian": 840, "ail": 841, "\u0120fam": 842, "\u0120well": 843, "ens": 844, "\u0120wom": 845, "\u0120tell": 846, "\u0120id": 847, "ny": 848, "als": 849, "get": 850, "\u0120long": 851, "ood": 852, "lease": 853, "\u0120word": 854, "\u0120des": 855, "\u0120very": 856, "\u01209": 857, "\u0120mus": 858, "au": 859, "ict": 860, "\u0120something": 861, "ock": 862, "\u0120most": 863, "\u0120those": 864, "fore": 865, "you": 866, "\u0120min": 867, "\u0120didn": 868, "ream": 869, "ty": 870, "\u0120car": 871, "\u0120chr": 872, "\u0120fun": 873, "\u0120bu": 874, "\u0120mom": 875, "ident": 876, "ated": 877, "\u0120live": 878, "\u0120rep": 879, "\u0120win": 880, "\u0120mor": 881, "\u0120heart": 882, "ating": 883, "alth": 884, "\u0120ter": 885, "\u0120hard": 886, "\u0120home": 887, "ign": 888, "\u0120americ": 889, "\u0120pres": 890, "\u0120said": 891, "\u0120ind": 892, "oth": 893, "\u0120thought": 894, "\u0120ask": 895, "\u0120old": 896, "\u012012": 897, "\u0120own": 898, "\u0120pol": 899, "esus": 900, "\u0120rel": 901, "\u0120hate": 902, "\u0120tru": 903, "\u0120doesn": 904, "\u0120che": 905, "\u0120girl": 906, "ug": 907, "\u0120these": 908, "\u0120nothing": 909, "\u0120same": 910, "lo": 911, "\u0120game": 912, "\u0120sad": 913, "'ll": 914, "\u0120med": 915, "vice": 916, "\u0120next": 917, "\u0120before": 918, "\u01200": 919, "ash": 920, "\u0120ve": 921, "\u0120el": 922, "te": 923, "ange": 924, "\u0120jo": 925, "igh": 926, "ody": 927, "\u0120years": 928, "\u0120tweet": 929, "\u01206": 930, "br": 931, "\u0120made": 932, "\u0120kid": 933, "\u0120aw": 934, "\u0120care": 935, "\u0120please": 936, "\u0120miss": 937, "\u0120pray": 938, "\u0120jesus": 939, "vie": 940, "\u0120done": 941, "ult": 942, "\u0120op": 943, "\u0120hum": 944, "\u0120mind": 945, "ittle": 946, "\u0120acc": 947, "fer": 948, "\u0120inter": 949, "\u0120doing": 950, "\u0120run": 951, "ank": 952, "\u0120team": 953, "iness": 954, "leep": 955, "\u0120gl": 956, "\u0120shit": 957, "\u0120sin": 958, "\u0120ear": 959, "\u0120$": 960, "\u0120through": 961, "\u0120christ": 962, "ors": 963, "ism": 964, "\u0120list": 965, "\u0120bre": 966, "\u0120little": 967, "ower": 968, "itter": 969, "oney": 970, "\u0120family": 971, "\u0120count": 972, "\u0120ob": 973, "ons": 974, "\u0120getting": 975, "\u0120mat": 976, "gr": 977, "\u0120kill": 978, "\u0120hour": 979, "\u0120pro": 980, "\u0120must": 981, "\u0120hand": 982, "ction": 983, "ool": 984, "\u0120away": 985, "\u0120pay": 986, "\u0120dec": 987, "\u0120ton": 988, "just": 989, "\u0120rec": 990, "amp": 991, "\u0120prob": 992, "\u0120everyone": 993, "me": 994, "\u0120sl": 995, "ited": 996, "\u0120another": 997, "\u0120job": 998, "ical": 999, "ually": 1000, "\u0120happen": 1001, "\u0120terr": 1002, "ather": 1003, "\u0120ass": 1004, "\u0120read": 1005, "\u0120yes": 1006, "\u0120comp": 1007, "not": 1008, "\u0120lot": 1009, "\u01208": 1010, "itch": 1011, "\u0120del": 1012, "ars": 1013, "\u0120lead": 1014, "\u0120sch": 1015, "\u0120ev": 1016, "\u0120comm": 1017, "\u0120bus": 1018, "les": 1019, "\u0120makes": 1020, "\u0120sure": 1021, "\u0120sun": 1022, "ix": 1023, "\u0120yet": 1024, "\u0120child": 1025, "\u0120giv": 1026, "\u0120news": 1027, "\u0120while": 1028, "ime": 1029, "ouse": 1030, "\u0120everything": 1031, "\u0120thanks": 1032, "man": 1033, "iver": 1034, "\u0120friends": 1035, "\u0120trying": 1036, "\u0120cont": 1037, "ats": 1038, "less": 1039, "\u0120stay": 1040, "\u0120exc": 1041, "\u0120char": 1042, "ward": 1043, "\u0120morning": 1044, "ics": 1045, "\u0120inc": 1046, "\u0120sec": 1047, "ra": 1048, "\u0120z": 1049, "\u0120lol": 1050, "\u0120mar": 1051, "\u0120tom": 1052, "\u0120left": 1053, "uss": 1054, "\u0120such": 1055, "\u0120money": 1056, "\u0120inst": 1057, "\u0120tonight": 1058, "ert": 1059, "ders": 1060, "\u0120which": 1061, "\u0120faith": 1062, "app": 1063, "\u0120anything": 1064, "\u0120amaz": 1065, "ro": 1066, "\u0120bless": 1067, "red": 1068, "\u0120sleep": 1069, "\u0120use": 1070, "\u0120attack": 1071, "\u0120head": 1072, "\u0120book": 1073, "\u0120ment": 1074, "\u0120support": 1075, "\u0120%": 1076, "\u0120month": 1077, "oud": 1078, "av": 1079, "ship": 1080, "\u0120imp": 1081, "\u0120also": 1082, "\u0120stand": 1083, "ues": 1084, "cial": 1085, "\u0120peace": 1086, "\u0120x": 1087, "ude": 1088, "\u0120dif": 1089, "ater": 1090, "\u0120fight": 1091, "\u0120ac": 1092, "\u0120twitter": 1093, "fr": 1094, "orrow": 1095, "wor": 1096, "017": 1097, "\u0120face": 1098, "\u0120two": 1099, "iting": 1100, "aut": 1101, "\u0120country": 1102, "\u0120around": 1103, "\u0120sur": 1104, "\u0120kind": 1105, "\u0120lost": 1106, "\u0120having": 1107, "arn": 1108, "\u0120anyone": 1109, "\u0120without": 1110, "\u0120walk": 1111, "\u0120hear": 1112, "\u0120watching": 1113, "\u0120lord": 1114, "ax": 1115, "\u0120cle": 1116, "\u0120change": 1117, "\u0120def": 1118, "ial": 1119, "ters": 1120, "\u0120wrong": 1121, "\u0120turn": 1122, "\u0120wish": 1123, "\u0120boy": 1124, "\u0120sing": 1125, "ute": 1126, "\u0120yourself": 1127, "\u0120trust": 1128, "\u0120high": 1129, "\u0120mean": 1130, "ger": 1131, "\u0120respect": 1132, "\u0120others": 1133, "\u0120true": 1134, "\u0120truth": 1135, "ired": 1136, "its": 1137, "ma": 1138, "\u0120self": 1139, "fect": 1140, "\u0120gon": 1141, "\u0120+": 1142, "\u0120since": 1143, "\u0120feeling": 1144, "\u0120pass": 1145, "\u0120women": 1146, "\u0120guys": 1147, "\u0120oh": 1148, "ents": 1149, "oke": 1150, "iday": 1151, "ember": 1152, "bo": 1153, "ets": 1154, "ates": 1155, "\u0120listen": 1156, "\u0120sit": 1157, "\u0120hur": 1158, "ner": 1159, "ready": 1160, "orry": 1161, "ual": 1162, "\u0120~": 1163, "\u0120house": 1164, "\u0120war": 1165, "\u0120enough": 1166, "ying": 1167, "\u0120fail": 1168, "ations": 1169, "\u0120music": 1170, "ize": 1171, "\u0120power": 1172, "\u0120free": 1173, "io": 1174, "\u0120dream": 1175, "what": 1176, "\u0120times": 1177, "\u0120full": 1178, "\u0120bir": 1179, "\u0120isn": 1180, "\u0120president": 1181, "\u0120compl": 1182, "aren": 1183, "\u0120health": 1184, "\u0120service": 1185, "\u0120else": 1186, "\u0120gonna": 1187, "\u0120open": 1188, "\u0120ok": 1189, "\u0120ref": 1190, "ama": 1191, "\u0120plan": 1192, "ws": 1193, "ik": 1194, "\u0120unders": 1195, "\u0120sk": 1196, "\u0120kids": 1197, "vel": 1198, "\u0120school": 1199, "fl": 1200, "\u0120amazing": 1201, "no": 1202, "\u0120hon": 1203, "\u0120wonder": 1204, "lle": 1205, "\u0120says": 1206, "ience": 1207, "aff": 1208, "\u0120beaut": 1209, "\u0120tomorrow": 1210, "\u0120los": 1211, "\u0120ent": 1212, "joy": 1213, "\u0120post": 1214, "ale": 1215, "\u0120sy": 1216, "tand": 1217, "\u0120actually": 1218, "af": 1219, "\u0120myself": 1220, "ever": 1221, "\u0120bab": 1222, "enc": 1223, "don": 1224, "til": 1225, "\u0120pos": 1226, "\u0120dem": 1227, "go": 1228, "led": 1229, "\u012011": 1230, "\u0120against": 1231, "\u0120rest": 1232, "\u0120making": 1233, "\u0120name": 1234, "cept": 1235, "life": 1236, "\u0120white": 1237, "\u0120cour": 1238, "\u0120pain": 1239, "\u0120far": 1240, "\u0120:)": 1241, "\u0120class": 1242, "\u0120reason": 1243, "\u0120ed": 1244, "oup": 1245, "\u0120cho": 1246, "\u0120ye": 1247, "\u0120already": 1248, "\u0120phone": 1249, "iet": 1250, "\u0120both": 1251, "\u0120sn": 1252, "'d": 1253, "\u0120understand": 1254, "ott": 1255, "ys": 1256, "body": 1257, "\u0120terror": 1258, "ubl": 1259, "ins": 1260, "\u0120until": 1261, "co": 1262, "\u0120leg": 1263, "\u0120place": 1264, "\u0120ppl": 1265, "\u0120cons": 1266, "\u0120eur": 1267, "\u0120coming": 1268, "\u0120seen": 1269, "\u0120song": 1270, "\u0120ele": 1271, "aught": 1272, "bs": 1273, "ition": 1274, "\u0120fear": 1275, "imes": 1276, "ustom": 1277, "\u0120ret": 1278, "\u0120hell": 1279, "\u0120sou": 1280, "\u0120gen": 1281, "\u0120es": 1282, "\u0120fan": 1283, "ists": 1284, "\u0120sw": 1285, "ri": 1286, "\u0120looking": 1287, "\u0120black": 1288, "\u0120human": 1289, "ames": 1290, "\u0120ep": 1291, "\u0120dep": 1292, "\u0120few": 1293, "\u0120et": 1294, "\u0120rac": 1295, "\u0120told": 1296, "air": 1297, "do": 1298, "\u0120nor": 1299, "\u0120mag": 1300, "\u0120dont": 1301, "\u0120polit": 1302, "\u0120fav": 1303, "\u0120media": 1304, "uc": 1305, "ling": 1306, "\u0120men": 1307, "this": 1308, "form": 1309, "\u0120inv": 1310, "\u0120fil": 1311, "umb": 1312, "att": 1313, "by": 1314, "\u0120season": 1315, "\u0120remember": 1316, "why": 1317, "ense": 1318, "\u0120differ": 1319, "\u0120conf": 1320, "how": 1321, "\u0120learn": 1322, "ead": 1323, "\u0120bed": 1324, "\u0120ce": 1325, "\u0120less": 1326, "\u0120contr": 1327, "gn": 1328, "ccess": 1329, "\u0120proble": 1330, "\u0120words": 1331, "\u0120break": 1332, "\u012020": 1333, "\u0120custom": 1334, "\u0120insp": 1335, "\u0120eas": 1336, "ball": 1337, "ier": 1338, "\u0120ma": 1339, "\u0120hours": 1340, "anc": 1341, "\u0120mess": 1342, "\u0120birth": 1343, "ane": 1344, "\u0120reg": 1345, "\u0120ide": 1346, "\u0120set": 1347, "\u0120sorry": 1348, "\u0120fre": 1349, "\u0120america": 1350, "\u0120working": 1351, "\u0120movie": 1352, "\u0120sick": 1353, "\u0120under": 1354, "\u0120sim": 1355, "ush": 1356, "\u0120ey": 1357, "oub": 1358, "\u0120saw": 1359, "\u0120hold": 1360, "\u0120vote": 1361, "\u0120needs": 1362, "\u0120whole": 1363, "\u0120moment": 1364, "\u0120dam": 1365, "\u0120horr": 1366, "\u0120ap": 1367, "sw": 1368, "ont": 1369, "\u0120worst": 1370, "\u0120sat": 1371, "\u0120past": 1372, "\u0120used": 1373, "\u0120story": 1374, "\u0120cry": 1375, "\u0120prom": 1376, "ph": 1377, "\u0120ps": 1378, "land": 1379, "\u0120success": 1380, "\u0120called": 1381, "\u0120vide": 1382, "olog": 1383, "\u0120found": 1384, "cr": 1385, "\u0120la": 1386, "ublic": 1387, "\u0120enjoy": 1388, "\u0120went": 1389, "iful": 1390, "\u0120mental": 1391, "\u0120cause": 1392, "\u0120each": 1393, "ene": 1394, "\u0120order": 1395, "\u0120bring": 1396, "\u0120bas": 1397, "\u0120ir": 1398, "\u0120tv": 1399, "\u0120might": 1400, "\u0120matter": 1401, "lim": 1402, "\u0120que": 1403, "ared": 1404, "\u0120add": 1405, "orn": 1406, "\u0120pa": 1407, "\u0120par": 1408, "\u0120resp": 1409, "uff": 1410, "\u0120rub": 1411, "mer": 1412, "\u0120weekend": 1413, "\u0120je": 1414, "vers": 1415, "any": 1416, "\u0120nice": 1417, "ove": 1418, "\u0120comes": 1419, "\u0120leave": 1420, "rs": 1421, "\u0120woman": 1422, "\u0120super": 1423, "alf": 1424, "je": 1425, "ision": 1426, "\u0120saying": 1427, "\u0120pat": 1428, "ians": 1429, "\u0120strong": 1430, "iously": 1431, "\u0120fucking": 1432, "\u0120fall": 1433, "\u0120art": 1434, "\u0120waiting": 1435, "\u0120state": 1436, "\u0120soon": 1437, "\u0120point": 1438, "\u0120fact": 1439, "ode": 1440, "\u0120sal": 1441, "azy": 1442, "\u0120grow": 1443, "iter": 1444, "\u0120move": 1445, "\u0120mem": 1446, "\u0120iss": 1447, "\u0120da": 1448, "\u0120once": 1449, "\u0120dead": 1450, "more": 1451, "ots": 1452, "\u0120cur": 1453, "ern": 1454, "ational": 1455, "\u0120top": 1456, "\u0120check": 1457, "\u0120proud": 1458, "con": 1459, "\u0120cre": 1460, "ta": 1461, "\u0120beautiful": 1462, "ann": 1463, "\u0120har": 1464, "osed": 1465, "17": 1466, "work": 1467, "ocr": 1468, "most": 1469, "\u0120dad": 1470, "\u0120quote": 1471, "trump": 1472, "\u0120talking": 1473, "\u0120pret": 1474, "\u0120exper": 1475, "\u0120send": 1476, "\u0120ago": 1477, "ife": 1478, "unch": 1479, "med": 1480, "\u0120pot": 1481, "\u0120sho": 1482, "ho": 1483, "dom": 1484, "\u0120food": 1485, "love": 1486, "\u0120hit": 1487, "\u0120red": 1488, "\u0120fake": 1489, "\u0120baby": 1490, "\u0120gets": 1491, "\u0120gb": 1492, "\u0120pur": 1493, "\u0120mot": 1494, "\u0120excited": 1495, "\u0120birthday": 1496, "\u0120vot": 1497, "ald": 1498, "\u0120light": 1499, "min": 1500, "\u0120bar": 1501, "\u0120ra": 1502, "\u0120wants": 1503, "\u0120quest": 1504, "\u0120dog": 1505, "\u0120sound": 1506, "\u0120guess": 1507, "ised": 1508, "\u0120though": 1509, "\u0120fut": 1510, "ng": 1511, "\u0120wow": 1512, "\u0120sex": 1513, "\u0120speak": 1514, "\u0120ty": 1515, "\u0120maybe": 1516, "\u0120abs": 1517, "\u0120stud": 1518, "\u0120cor": 1519, "\u0120gre": 1520, "gether": 1521, "\u0120posit": 1522, "\u0120fans": 1523, "\u0120taking": 1524, "ility": 1525, "\u0120amp": 1526, "now": 1527, "sel": 1528, "\u0120train": 1529, "\u0120alone": 1530, "can": 1531, "\u0120ann": 1532, "anna": 1533, "\u0120meet": 1534, "\u0120instead": 1535, "\u0120treat": 1536, "\u0120ca": 1537, "\u0120room": 1538, "\u0120fore": 1539, "\u0120q": 1540, "\u0120sign": 1541, "\u0120100": 1542, "\u0120cad": 1543, "\u0120hot": 1544, "\u0120muslim": 1545, "\u0120expect": 1546, "lam": 1547, "\u0120kne": 1548, "ret": 1549, "\u0120mid": 1550, "there": 1551, "\u0120ste": 1552, "\u0120bill": 1553, "ester": 1554, "\u0120step": 1555, "\u0120poor": 1556, "\u0120half": 1557, "opp": 1558, "\u0120answ": 1559, "cus": 1560, "\u0120future": 1561, "cl": 1562, "gy": 1563, "\u0120living": 1564, "aring": 1565, "mas": 1566, "\u0120deal": 1567, "\u0120buy": 1568, "line": 1569, "uring": 1570, "\u0120usd": 1571, "\u012015": 1572, "\u0120weeks": 1573, "ton": 1574, "\u0120air": 1575, "\u0120val": 1576, "\u0120vo": 1577, "\u0120party": 1578, "2017": 1579, "com": 1580, "\u0120ll": 1581, "\u0120ready": 1582, "\u0120death": 1583, "\u0120allow": 1584, "\u0120ign": 1585, "utes": 1586, "irit": 1587, "\u0120block": 1588, "\u0120thinking": 1589, "hn": 1590, "\u0120foot": 1591, "\u0120law": 1592, "\u0120fire": 1593, "\u0120beg": 1594, "tf": 1595, "\u0120gbp": 1596, "\u0120gone": 1597, "ouch": 1598, "upid": 1599, "\u0120cny": 1600, "\u0120took": 1601, "\u0120able": 1602, "ipp": 1603, "\u0120came": 1604, "\u0120together": 1605, "\u0120bc": 1606, "read": 1607, "\u0120exp": 1608, "\u0120son": 1609, "ondon": 1610, "\u0120sunday": 1611, "\u0120playing": 1612, "\u0120least": 1613, "\u0120pick": 1614, "\u012030": 1615, "\u0120friday": 1616, "that": 1617, "augh": 1618, "\u0120haven": 1619, "oint": 1620, "\u0120eng": 1621, "\u0120worth": 1622, "iving": 1623, "\u0120children": 1624, "ither": 1625, "god": 1626, "happ": 1627, "\u0120russ": 1628, "rem": 1629, "ities": 1630, "\u0120vict": 1631, "\u0120fac": 1632, "\u0120looks": 1633, "\u0120bull": 1634, "uct": 1635, "\u0120creat": 1636, "\u0120mil": 1637, "\u0120201": 1638, "\u0120happiness": 1639, "\u0120av": 1640, "\u0120soul": 1641, "ks": 1642, "\u0120:(": 1643, "\u0120tot": 1644, "ative": 1645, "\u0120prop": 1646, "\u0120girls": 1647, "\u0120damn": 1648, "\u0120become": 1649, "\u0120lives": 1650, "\u0120usa": 1651, "\u0120stupid": 1652, "\u0120wanna": 1653, "\u0120ang": 1654, "alm": 1655, "\u0120deser": 1656, "\u0120bit": 1657, "\u012019": 1658, "\u0120paren": 1659, "\u0120heard": 1660, "\u0120months": 1661, "\u0120mad": 1662, "fo": 1663, "\u0120poss": 1664, "\u0120finally": 1665, "\u0120smile": 1666, "\u0120hu": 1667, "\u0120different": 1668, "und": 1669, "\u0120sum": 1670, "\u0120joy": 1671, "\u0120cut": 1672, "\u0120side": 1673, "\u0120blessed": 1674, "\u0120opp": 1675, "\u0120dest": 1676, "\u0120met": 1677, "\u0120bb": 1678, "\u0120wanted": 1679, "ines": 1680, "\u0120goes": 1681, "ering": 1682, "\u0120mill": 1683, "orts": 1684, "\u0120london": 1685, "16": 1686, "\u0120chang": 1687, "\u0120lose": 1688, "\u0120>": 1689, "health": 1690, "\u0120single": 1691, "\u0120laugh": 1692, "ift": 1693, "\u0120contin": 1694, "ney": 1695, "selves": 1696, "arr": 1697, "\u0120social": 1698, "\u0120expl": 1699, "\u0120wasn": 1700, "\u0120complet": 1701, "\u0120second": 1702, "\u0120business": 1703, "where": 1704, "ief": 1705, "\u0120video": 1706, "friend": 1707, "\u0120almost": 1708, "\u0120shame": 1709, "\u0120wis": 1710, "\u0120means": 1711, "\u0120loved": 1712, "ject": 1713, "\u0120spirit": 1714, "tod": 1715, "\u0120cannot": 1716, "eless": 1717, "ones": 1718, "ention": 1719, "\u0120sir": 1720, "let": 1721, "\u0120islam": 1722, "got": 1723, "\u0120col": 1724, "\u0120minutes": 1725, "\u0120honest": 1726, "\u0120body": 1727, "\u0120luck": 1728, "\u0120prod": 1729, "ably": 1730, "\u0120simp": 1731, "\u0120ya": 1732, "come": 1733, "\u0120problem": 1734, "\u0120anymore": 1735, "esome": 1736, "time": 1737, "\u0120perfect": 1738, "\u0120suck": 1739, "ored": 1740, "ories": 1741, "\u01202017": 1742, "\u0120colle": 1743, "\u0120eat": 1744, "\u0120forget": 1745, "ugg": 1746, "\u0120couldn": 1747, "els": 1748, "\u0120beh": 1749, "\u0120focus": 1750, "\u0120late": 1751, "ior": 1752, "oken": 1753, "ices": 1754, "\u0120doub": 1755, "\u0120film": 1756, "olut": 1757, "nd": 1758, "ards": 1759, "ments": 1760, "\u0120import": 1761, "\u0120stuff": 1762, "\u0120seems": 1763, "ps": 1764, "\u0120traff": 1765, "igg": 1766, "\u0120sub": 1767, "\u0120line": 1768, "\u0120idea": 1769, "\u0120dark": 1770, "urs": 1771, "\u0120cele": 1772, "\u0120watched": 1773, "\u0120american": 1774, "\u0120funny": 1775, "\u0120cant": 1776, "\u0120disapp": 1777, "\u0120conc": 1778, "wr": 1779, "\u0120crazy": 1780, "\u0120trans": 1781, "\u0120vi": 1782, "ym": 1783, "\u0120pretty": 1784, "\u0120int": 1785, "\u0120positive": 1786, "\u0120yester": 1787, "\u0120rid": 1788, "urch": 1789, "your": 1790, "ures": 1791, "elt": 1792, "\u0120yesterday": 1793, "\u0120wake": 1794, "\u0120relig": 1795, "\u0120ru": 1796, "\u0120hurt": 1797, "\u0120prof": 1798, "lling": 1799, "iel": 1800, "cal": 1801, "\u0120anx": 1802, "side": 1803, "\u0120ball": 1804, "\u0120path": 1805, "\u0120tired": 1806, "\u0120young": 1807, "\u0120net": 1808, "\u0120gave": 1809, "\u0120die": 1810, "\u0120due": 1811, "\u0120favor": 1812, "\u0120cover": 1813, "\u0120customer": 1814, "\u0120traffic": 1815, "\u0120mark": 1816, "\u0120tick": 1817, "\u0120bitch": 1818, "\u0120forward": 1819, "\u0120cool": 1820, "\u0120giving": 1821, "today": 1822, "\u0120happened": 1823, "\u0120control": 1824, "bl": 1825, "lly": 1826, "ding": 1827, "\u0120low": 1828, "good": 1829, "ops": 1830, "de": 1831, "\u0120seeing": 1832, "every": 1833, "\u0120tweets": 1834, "ately": 1835, "\u0120ant": 1836, "gest": 1837, "\u0120drink": 1838, "\u0120awesome": 1839, "ung": 1840, "iety": 1841, "ality": 1842, "ished": 1843, "\u0120suff": 1844, "ird": 1845, "ween": 1846, "\u0120truly": 1847, "well": 1848, "sp": 1849, "ient": 1850, "\u0120bro": 1851, "ized": 1852, "\u0120sol": 1853, "oh": 1854, "\u0120@": 1855, "\u0120rece": 1856, "\u0120motiv": 1857, "ional": 1858, "fc": 1859, "\u0120during": 1860, "\u0120group": 1861, "\u0120er": 1862, "watch": 1863, "\u0120intern": 1864, "\u0120cap": 1865, "\u0120det": 1866, "ically": 1867, "\u0120using": 1868, "\u0120hy": 1869, "back": 1870, "ten": 1871, "\u0120mother": 1872, "\u0120stress": 1873, "dle": 1874, "ants": 1875, "acy": 1876, "view": 1877, "\u0120glad": 1878, "\u0120hill": 1879, "orm": 1880, "\u0120clear": 1881, "\u0120maga": 1882, "\u0120deep": 1883, "\u0120tax": 1884, "\u0120liter": 1885, "used": 1886, "\u0120ones": 1887, "\u0120water": 1888, "\u0120inspir": 1889, "\u0120jud": 1890, "\u0120uk": 1891, "uz": 1892, "ertain": 1893, "\u0120spend": 1894, "\u0120important": 1895, "\u0120ge": 1896, "\u0120dev": 1897, "\u0120fix": 1898, "\u0120short": 1899, "\u0120jour": 1900, "\u0120takes": 1901, "\u0120build": 1902, "\u0120leaders": 1903, "ric": 1904, "\u0120hist": 1905, "\u0120eyes": 1906, "aken": 1907, "30": 1908, "\u0120relation": 1909, "\u0120answer": 1910, "\u0120knows": 1911, "\u0120coun": 1912, "\u0120haha": 1913, "\u0120seriously": 1914, "some": 1915, "off": 1916, "ech": 1917, "\u0120shows": 1918, "\u0120between": 1919, "ram": 1920, "care": 1921, "mp": 1922, "\u0120wtf": 1923, "leas": 1924, "book": 1925, "\u0120small": 1926, "\u0120behind": 1927, "people": 1928, "\u0120monday": 1929, "\u0120obama": 1930, "\u0120vis": 1931, "\u0120mer": 1932, "\u0120either": 1933, "hey": 1934, "\u0120celebr": 1935, "ister": 1936, "\u0120test": 1937, "\u0120hol": 1938, "gth": 1939, "ives": 1940, "mon": 1941, "fort": 1942, "\u0120thoughts": 1943, "\u0120dist": 1944, "\u0120gun": 1945, "\u0120ms": 1946, "\u0120lies": 1947, "\u0120share": 1948, "\u0120public": 1949, "\u0120accept": 1950, "\u0120rain": 1951, "uth": 1952, "\u0120disc": 1953, "set": 1954, "\u0120epis": 1955, "10": 1956, "\u0120ill": 1957, "\u0120nat": 1958, "\u0120emot": 1959, "\u0120close": 1960, "dy": 1961, "\u0120wed": 1962, "\u0120asked": 1963, "\u0120relationship": 1964, "\u0120tal": 1965, "\u0120john": 1966, "nt": 1967, "\u0120started": 1968, "\u0120om": 1969, "ds": 1970, "\u0120account": 1971, "otes": 1972, "\u0120email": 1973, "\u0120pak": 1974, "\u012013": 1975, "\u0120tren": 1976, "\u0120mas": 1977, "\u0120joke": 1978, "\u0120father": 1979, "\u0120offic": 1980, "\u0120lik": 1981, "\u0120liber": 1982, "\u0120worse": 1983, "ivers": 1984, "omb": 1985, "\u0120question": 1986, "\u0120feels": 1987, "aged": 1988, "aughter": 1989, "ific": 1990, "\u0120na": 1991, "\u0120lie": 1992, "\u0120ny": 1993, "\u0120christian": 1994, "\u0120blood": 1995, "\u0120div": 1996, "ex": 1997, "\u0120police": 1998, "\u0120shout": 1999, "\u0120rock": 2000, "fin": 2001, "\u0120hop": 2002, "\u0120pm": 2003, "vies": 2004, "\u0120imag": 2005, "\u0120const": 2006, "\u0120mis": 2007, "hi": 2008, "\u0120level": 2009, "ted": 2010, "\u0120sent": 2011, "\u0120hands": 2012, "head": 2013, "\u0120realize": 2014, "\u0120interest": 2015, "\u0120voice": 2016, "tly": 2017, "\u0120sil": 2018, "\u0120early": 2019, "ler": 2020, "\u0120cond": 2021, "ider": 2022, "with": 2023, "den": 2024, "ided": 2025, "\u0120commun": 2026, "\u0120bur": 2027, "hip": 2028, "inc": 2029, "\u0120gener": 2030, "\u0120literally": 2031, "\u0120depress": 2032, "\u0120india": 2033, "11": 2034, "ser": 2035, "\u0120earth": 2036, "\u0120vs": 2037, "\u0120knew": 2038, "\u0120deb": 2039, "\u0120throw": 2040, "\u0120probably": 2041, "\u0120est": 2042, "\u0120running": 2043, "\u0120king": 2044, "itude": 2045, "\u0120dire": 2046, "\u0120mentalhealth": 2047, "oo": 2048, "\u0120experience": 2049, "\u0120front": 2050, "\u0120fly": 2051, "\u0120adv": 2052, "\u0120vie": 2053, "\u0120den": 2054, "\u0120mass": 2055, "\u0120viol": 2056, "\u0120hair": 2057, "ham": 2058, "\u0120racist": 2059, "\u0120yeah": 2060, "\u0120wind": 2061, "\u0120killed": 2062, "\u0120later": 2063, "\u012018": 2064, "outh": 2065, "\u0120democr": 2066, "rength": 2067, "\u0120given": 2068, "mit": 2069, "\u0120games": 2070, "\u0120evil": 2071, "thank": 2072, "\u0120easy": 2073, "\u0120rather": 2074, "\u0120rad": 2075, "\u0120bible": 2076, "arch": 2077, "eth": 2078, "\u0120clean": 2079, "\u0120fak": 2080, "\u012014": 2081, "unk": 2082, "\u0120chance": 2083, "\u0120history": 2084, "\u0120scre": 2085, "gu": 2086, "\u0120prayer": 2087, "ike": 2088, "\u0120wouldn": 2089, "\u0120listening": 2090, "cy": 2091, "\u0120shoot": 2092, "\u0120di": 2093, "\u0120pet": 2094, "\u0120gop": 2095, "\u0120_": 2096, "full": 2097, "\u0120office": 2098, "gan": 2099, "\u0120prog": 2100, "\u0120city": 2101, "ai": 2102, "\u0120mur": 2103, "\u012040": 2104, "\u0120idi": 2105, "\u0120trave": 2106, "\u0120aren": 2107, "istan": 2108, "ived": 2109, "idence": 2110, "20": 2111, "ured": 2112, "\u0120reading": 2113, "\u0120near": 2114, "\u0120strength": 2115, "\u0120road": 2116, "\u0120wife": 2117, "ged": 2118, "\u0120football": 2119, "\u0120fit": 2120, "\u0120mod": 2121, "\u012017": 2122, "\u0120weak": 2123, "\u0120parents": 2124, "\u0120flight": 2125, "ular": 2126, "\u0120surpr": 2127, "\u0120daily": 2128, "\u0120writing": 2129, "\u0120camp": 2130, "\u0120beat": 2131, "oring": 2132, "umber": 2133, "\u0120destr": 2134, "\u0120match": 2135, "happy": 2136, "\u0120press": 2137, "\u0120pra": 2138, "\u0120brain": 2139, "\u0120etc": 2140, "\u0120ext": 2141, "\u0120star": 2142, "reci": 2143, "aim": 2144, "etry": 2145, "night": 2146, "\u0120till": 2147, "\u0120anxiety": 2148, "\u0120loser": 2149, "ned": 2150, "\u0120hat": 2151, "\u0120tried": 2152, "\u0120rip": 2153, "\u0120potus": 2154, "over": 2155, "mal": 2156, "\u0120arr": 2157, "\u012024": 2158, "oph": 2159, "\u0120safe": 2160, "uk": 2161, "\u0120defin": 2162, "\u0120reply": 2163, "ides": 2164, "\u012016": 2165, "ging": 2166, "lev": 2167, "\u0120forever": 2168, "\u0120longer": 2169, "\u0120fill": 2170, "que": 2171, "\u012050": 2172, "\u0120cent": 2173, "ateful": 2174, "\u0120prote": 2175, "\u0120sometimes": 2176, "jor": 2177, "\u0120save": 2178, "band": 2179, "ina": 2180, "olutely": 2181, "ety": 2182, "\u0120players": 2183, "\u0120summer": 2184, "\u0120paid": 2185, "\u0120phot": 2186, "\u0120choose": 2187, "urday": 2188, "\u0120huge": 2189, "\u0120card": 2190, "\u0120worry": 2191, "\u0120church": 2192, "ca": 2193, "\u0120rob": 2194, "\u0120lea": 2195, "\u0120remind": 2196, "\u0120emb": 2197, "ology": 2198, "\u0120pict": 2199, "\u0120box": 2200, "ital": 2201, "\u0120shall": 2202, "\u0120pie": 2203, "\u0120special": 2204, "\u0120calling": 2205, "\u0120wall": 2206, "ising": 2207, "\u0120hey": 2208, "\u0120outside": 2209, "\u0120americans": 2210, "\u0120religion": 2211, "\u0120cow": 2212, "cle": 2213, "\u0120kick": 2214, "\u0120disappoint": 2215, "\u0120128": 2216, "\u0120return": 2217, "\u0120swe": 2218, "ctor": 2219, "son": 2220, "play": 2221, "vern": 2222, "\u0120appreci": 2223, "\u0120pop": 2224, "\u0120pull": 2225, "ield": 2226, "\u0120tur": 2227, "\u0120christmas": 2228, "\u0120broken": 2229, "\u012025": 2230, "fee": 2231, "\u0120reality": 2232, "\u0120resist": 2233, "writing": 2234, "anger": 2235, "\u0120gotta": 2236, "ivity": 2237, "\u0120join": 2238, "\u0120store": 2239, "\u0120door": 2240, "\u0120gives": 2241, "\u0120national": 2242, "cted": 2243, "ages": 2244, "\u0120canc": 2245, "ips": 2246, "etic": 2247, "\u0120episode": 2248, "\u0120ach": 2249, "\u0120breat": 2250, "\u0120sense": 2251, "nn": 2252, "\u0120wisdom": 2253, "\u0120works": 2254, "\u0120equ": 2255, "\u0120movies": 2256, "\u0120victim": 2257, "ming": 2258, "ury": 2259, "\u0120favorite": 2260, "\u0120park": 2261, "\u0120russia": 2262, "ator": 2263, "\u0120issues": 2264, "\u0120shut": 2265, "fully": 2266, "had": 2267, "\u0120bag": 2268, "\u0120course": 2269, "ried": 2270, "raid": 2271, "\u0120drive": 2272, "\u0120hi": 2273, "\u0120lady": 2274, "ces": 2275, "\u0120agree": 2276, "edom": 2277, "ley": 2278, "\u0120mic": 2279, "gas": 2280, "\u0120grand": 2281, "lled": 2282, "\u0120horror": 2283, "oking": 2284, "\u0120cold": 2285, "\u0120aut": 2286, "\u0120deserve": 2287, "\u0120grace": 2288, "\u0120cof": 2289, "pm": 2290, "\u0120saturday": 2291, "str": 2292, "\u0120mr": 2293, "\u0120attention": 2294, "\u0120inside": 2295, "\u0120loss": 2296, "\u0120speech": 2297, "\u0120yr": 2298, "ement": 2299, "\u0120needed": 2300, "\u0120main": 2301, "\u0120lack": 2302, "\u0120mist": 2303, "\u0120exact": 2304, "\u0120hom": 2305, "\u0120entire": 2306, "\u0120ain": 2307, "\u0120touch": 2308, "\u0120election": 2309, "\u0120mouth": 2310, "ows": 2311, "\u0120talent": 2312, "\u0120grateful": 2313, "\u0120perform": 2314, "\u0120taken": 2315, "\u0120prov": 2316, "gust": 2317, "\u0120sweet": 2318, "\u0120wel": 2319, "\u0120nb": 2320, "cast": 2321, "\u0120number": 2322, "\u0120middle": 2323, "\u0120report": 2324, "\u0120absolutely": 2325, "irt": 2326, "somet": 2327, "\u0120rich": 2328, "\u0120coup": 2329, "\u0120curren": 2330, "\u0120major": 2331, "\u0120happens": 2332, "\u0120inte": 2333, "\u0120bey": 2334, "stem": 2335, "\u0120shock": 2336, "\u0120smh": 2337, "\u0120\u010a": 2338, "\u0120teach": 2339, "\u0120purp": 2340, "\u0120possible": 2341, "did": 2342, "\u0120trend": 2343, "\u0120pan": 2344, "\u0120sen": 2345, "ults": 2346, "cially": 2347, "\u0120played": 2348, "\u0120govern": 2349, "\u0120charac": 2350, "\u0120afraid": 2351, "imin": 2352, "\u0120stre": 2353, "ube": 2354, "su": 2355, "\u0120missed": 2356, "\u0120pu": 2357, "\u0120dm": 2358, "lls": 2359, "\u0120hang": 2360, "\u0120holy": 2361, "ency": 2362, "\u0120freedom": 2363, "\u0120seem": 2364, "\u0120issue": 2365, "\u0120non": 2366, "\u0120hillary": 2367, "\u0120dreams": 2368, "\u0120record": 2369, "tw": 2370, "\u0120dude": 2371, "\u0120coffee": 2372, "\u0120begin": 2373, "\u0120nobody": 2374, "une": 2375, "ustr": 2376, "ya": 2377, "ana": 2378, "ese": 2379, "ille": 2380, "\u0120followers": 2381, "\u0120political": 2382, "chester": 2383, "\u0120action": 2384, "\u0120write": 2385, "\u0120pack": 2386, "\u0120within": 2387, "\u0120claim": 2388, "\u0120courage": 2389, "\u0120telling": 2390, "\u012045": 2391, "\u0120cost": 2392, "ble": 2393, "wards": 2394, "\u0120key": 2395, "\u0120catch": 2396, "\u0120upd": 2397, "\u0120felt": 2398, "\u0120nation": 2399, "\u0120fast": 2400, "\u0120champ": 2401, "\u0120requ": 2402, "bre": 2403, "key": 2404, "\u0120following": 2405, "\u0120dat": 2406, "upt": 2407, "\u0120died": 2408, "\u0120three": 2409, "ified": 2410, "jo": 2411, "\u0120ban": 2412, "\u0120final": 2413, "\u0120choice": 2414, "\u0120ther": 2415, "\u0120strugg": 2416, "unt": 2417, "\u0120situ": 2418, "\u0120omg": 2419, "\u0120worship": 2420, "\u0120eff": 2421, "\u0120poetry": 2422, "\u0120fb": 2423, "\u0120destroy": 2424, "\u0120lif": 2425, "allen": 2426, "ains": 2427, "\u0120sold": 2428, "\u0120alb": 2429, "\u0120calls": 2430, "\u0120comment": 2431, "\u0120|": 2432, "ergy": 2433, "ped": 2434, "nes": 2435, "fa": 2436, "\u0120feed": 2437, "\u0120snap": 2438, "\u0120ah": 2439, "\u0120holiday": 2440, "ada": 2441, "urity": 2442, "rest": 2443, "\u0120ver": 2444, "\u0120ak": 2445, "15": 2446, "\u0120dumb": 2447, "\u0120din": 2448, "\u0120brother": 2449, "\u0120supposed": 2450, "\u0120slow": 2451, "ending": 2452, "\u0120everyday": 2453, "ror": 2454, "aven": 2455, "\u0120west": 2456, "\u0120mine": 2457, "\u0120sitting": 2458, "ites": 2459, "\u0120present": 2460, "sc": 2461, "\u0120busy": 2462, "\u0120rom": 2463, "\u0120incl": 2464, "\u0120conne": 2465, "18": 2466, "\u0120repl": 2467, "\u0120whatever": 2468, "\u0120mir": 2469, "\u0120system": 2470, "mor": 2471, "\u0120company": 2472, "\u0120gov": 2473, "\u0120disgust": 2474, "\u0120cat": 2475, "\u0120race": 2476, "\u0120inspiration": 2477, "ises": 2478, "\u0120staff": 2479, "ague": 2480, "\u0120motivation": 2481, "\u0120bank": 2482, "\u0120forg": 2483, "\u0120lab": 2484, "\u0120knowing": 2485, "\u0120bought": 2486, "\u0120himself": 2487, "\u0120fool": 2488, "\u0120daughter": 2489, "\u0120cred": 2490, "\u0120crying": 2491, "erv": 2492, "like": 2493, "\u0120themselves": 2494, "\u0120fol": 2495, "\u0120threat": 2496, "\u0120embarr": 2497, "dr": 2498, "\u0120okay": 2499, "\u0120gym": 2500, "\u0120yout": 2501, "bel": 2502, "\u0120amwriting": 2503, "\u0120gift": 2504, "\u0120teac": 2505, "\u0120continue": 2506, "\u0120ben": 2507, "\u0120boys": 2508, "\u0120clos": 2509, "after": 2510, "\u0120product": 2511, "\u0120[": 2512, "\u0120scr": 2513, "\u0120lu": 2514, "thought": 2515, "\u0120neg": 2516, "\u0120diff": 2517, "mo": 2518, "la": 2519, "\u0120attacks": 2520, "\u0120land": 2521, "\u0120couple": 2522, "\u0120heal": 2523, "\u0120educ": 2524, "ays": 2525, "ison": 2526, "\u0120embarrass": 2527, "\u0120quick": 2528, "\u0120pen": 2529, "\u0120cam": 2530, "iny": 2531, "\u0120republic": 2532, "\u0120pakistan": 2533, "\u0120online": 2534, "ered": 2535, "\u0120ignor": 2536, "\u0120case": 2537, "\u0120las": 2538, "\u0120quotes": 2539, "\u0120along": 2540, "\u0120missing": 2541, "\u0120bi": 2542, "ession": 2543, "\u0120repe": 2544, "\u0120totally": 2545, "\u0120trip": 2546, "\u0120album": 2547, "\u0120murder": 2548, "ined": 2549, "\u0120asking": 2550, "\u0120politics": 2551, "who": 2552, "new": 2553, "opping": 2554, "\u0120invest": 2555, "\u0120goal": 2556, "\u0120player": 2557, "een": 2558, "watching": 2559, "them": 2560, "eling": 2561, "sometimes": 2562, "\u0120age": 2563, "\u0120goals": 2564, "\u0120fat": 2565, "\u0120espe": 2566, "\u0120scared": 2567, "\u0120cuz": 2568, "\u0120stra": 2569, "\u0120weird": 2570, "\u0120message": 2571, "\u0120tech": 2572, "\u0120leader": 2573, "\u0120often": 2574, "\u0120problems": 2575, "\u0120text": 2576, "\u0120isis": 2577, "\u0120desp": 2578, "\u0120pap": 2579, "\u0120piss": 2580, "\u0120biggest": 2581, "port": 2582, "\u0120tour": 2583, "\u0120travel": 2584, "\u0120straight": 2585, "\u0120turned": 2586, "\u0120exist": 2587, "room": 2588, "ery": 2589, "\u0120proc": 2590, "\u0120club": 2591, "\u0120bud": 2592, "\u0120inn": 2593, "\u0120fig": 2594, "\u0120shot": 2595, "ork": 2596, "\u0120starting": 2597, "ify": 2598, "atter": 2599, "\u0120spent": 2600, "orge": 2601, "\u0120opt": 2602, "\u0120loving": 2603, "tra": 2604, "\u0120crash": 2605, "right": 2606, "have": 2607, "\u0120event": 2608, "\u0120reach": 2609, "\u0120losing": 2610, "\u0120disappointed": 2611, "\u0120especially": 2612, "\u0120mi": 2613, "\u0120complain": 2614, "\u0120hus": 2615, "\u0120greatest": 2616, "\u0120round": 2617, "\u0120conv": 2618, "\u0120date": 2619, "wow": 2620, "attack": 2621, "\u0120exactly": 2622, "\u0120mins": 2623, "ey": 2624, "\u0120internet": 2625, "\u0120moving": 2626, "ges": 2627, "\u0120explain": 2628, "\u0120congr": 2629, "izz": 2630, "ero": 2631, "\u0120cult": 2632, "13": 2633, "yle": 2634, "ploy": 2635, "ledge": 2636, "ced": 2637, "\u0120nfl": 2638, "aps": 2639, "\u0120wonderful": 2640, "ening": 2641, "\u0120college": 2642, "\u0120thru": 2643, "\u0120cup": 2644, "\u0120muslims": 2645, "\u0120thankful": 2646, "12": 2647, "45": 2648, "\u0120tex": 2649, "ams": 2650, "\u0120happening": 2651, "uesday": 2652, "\u0120suppor": 2653, "\u0120beyond": 2654, "ville": 2655, "ieve": 2656, "\u0120corr": 2657, "\u0120imm": 2658, "\u0120cal": 2659, "\u0120200": 2660, "\u0120spo": 2661, "\u0120nigg": 2662, "\u0120imagine": 2663, "onse": 2664, "\u0120lying": 2665, "\u0120tears": 2666, "respect": 2667, "\u0120opin": 2668, "ony": 2669, "ences": 2670, "\u0120eye": 2671, "\u0120form": 2672, "\u0120seek": 2673, "\u0120energy": 2674, "\u0120series": 2675, "\u0120million": 2676, "\u0120mc": 2677, "\u0120hero": 2678, "\u0120suic": 2679, "\u0120cop": 2680, "\u0120view": 2681, "yr": 2682, "\u0120heaven": 2683, "\u0120fant": 2684, "ucks": 2685, "\u0120walking": 2686, "yal": 2687, "\u0120simple": 2688, "\u0120thinks": 2689, "\u0120gold": 2690, "\u0120spr": 2691, "chat": 2692, "\u0120customers": 2693, "\u0120spread": 2694, "\u0120fine": 2695, "donald": 2696, "\u0120prayers": 2697, "42": 2698, "\u0120challen": 2699, "\u0120coach": 2700, "\u0120leadership": 2701, "ails": 2702, "\u0120liar": 2703, "oid": 2704, "\u0120terrible": 2705, "\u0120keeps": 2706, "19": 2707, "\u0120certain": 2708, "\u0120terrorist": 2709, "\u0120praise": 2710, "\u0120lovely": 2711, "andom": 2712, "uses": 2713, "\u0120]": 2714, "\u0120cir": 2715, "mm": 2716, "\u0120winning": 2717, "\u0120fighting": 2718, "\u0120auth": 2719, "\u0120inj": 2720, "\u0120gh": 2721, "\u0120loves": 2722, "\u0120killing": 2723, "\u0120lad": 2724, "down": 2725, "\u0120protect": 2726, "\u0120prep": 2727, "ulous": 2728, "\u0120charl": 2729, "\u0120wit": 2730, "\u0120feelings": 2731, "\u0120donald": 2732, "iest": 2733, "\u0120purpose": 2734, "\u0120soci": 2735, "ursday": 2736, "\u0120south": 2737, "ych": 2738, "\u0120bott": 2739, "\u0120tho": 2740, "\u0120sort": 2741, "\u0120tough": 2742, "\u0120appro": 2743, "\u0120enc": 2744, "\u0120crap": 2745, "sa": 2746, "\u0120pract": 2747, "iant": 2748, "\u0120finished": 2749, "bers": 2750, "\u0120dom": 2751, "itely": 2752, "\u0120manag": 2753, "\u0120allah": 2754, "ell": 2755, "\u0120tickets": 2756, "\u0120showing": 2757, "\u0120push": 2758, "\u0120eating": 2759, "\u0120bow": 2760, "dear": 2761, "\u0120response": 2762, "\u0120legend": 2763, "\u0120pathetic": 2764, "ga": 2765, "\u0120husband": 2766, "ico": 2767, "\u0120blame": 2768, "\u0120fair": 2769, "\u0120track": 2770, "\u0120deliver": 2771, "\u0120violence": 2772, "\u0120jump": 2773, "\u0120journey": 2774, "ee": 2775, "\u0120hyp": 2776, "ently": 2777, "ution": 2778, "\u0120united": 2779, "\u0120soo": 2780, "peach": 2781, "\u0120priv": 2782, "\u0120rap": 2783, "ervice": 2784, "prob": 2785, "\u0120pleas": 2786, "\u0120personal": 2787, "\u0120idiot": 2788, "\u0120ju": 2789, "\u0120sucks": 2790, "\u0120ten": 2791, "igr": 2792, "\u0120angry": 2793, "ster": 2794, "\u0120none": 2795, "ipt": 2796, "\u0120manchester": 2797, "\u0120hor": 2798, "\u0120respons": 2799, "ja": 2800, "\u0120waste": 2801, "\u0120normal": 2802, "\u0120sus": 2803, "\u0120becom": 2804, "\u0120books": 2805, "\u012021": 2806, "\u0120doubt": 2807, "\u0120kar": 2808, "lect": 2809, "action": 2810, "hum": 2811, "\u0120lots": 2812, "\u0120create": 2813, "\u0120youtube": 2814, "ural": 2815, "pre": 2816, "\u0120wear": 2817, "shit": 2818, "ires": 2819, "ended": 2820, "light": 2821, "ffect": 2822, "ances": 2823, "\u0120sky": 2824, "uel": 2825, "rd": 2826, "\u0120government": 2827, "\u0120burn": 2828, "\u0120situation": 2829, "eday": 2830, "\u0120facebook": 2831, "\u0120changed": 2832, "\u0120honor": 2833, "\u0120ways": 2834, "40": 2835, "\u0120interview": 2836, "\u0120annoy": 2837, "enews": 2838, "ands": 2839, "\u0120facts": 2840, "\u0120mum": 2841, "\u0120stuck": 2842, "ford": 2843, "osp": 2844, "\u0120lock": 2845, "ints": 2846, "\u0120broke": 2847, "\u0120blocked": 2848, "\u0120serious": 2849, "others": 2850, "\u0120log": 2851, "\u0120simply": 2852, "\u0120prot": 2853, "\u0120chick": 2854, "\u0120impeach": 2855, "\u0120cross": 2856, "\u0120sister": 2857, "\u0120thats": 2858, "haha": 2859, "\u0120woke": 2860, "list": 2861, "\u0120cit": 2862, "\u0120bath": 2863, "\u0120obv": 2864, "\u0120anim": 2865, "\u0120judge": 2866, "\u0120putting": 2867, "\u0120ko": 2868, "\u0120north": 2869, "ugs": 2870, "\u0120piece": 2871, "\u0120stream": 2872, "\u0120sug": 2873, "imate": 2874, "\u0120songs": 2875, "\u0120born": 2876, "\u0120oct": 2877, "\u01201285": 2878, "\u0120cnn": 2879, "nesday": 2880, "\u0120famil": 2881, "order": 2882, "\u0120tuesday": 2883, "grace": 2884, "gress": 2885, "\u0120alive": 2886, "\u0120stick": 2887, "ival": 2888, "iction": 2889, "\u0120polic": 2890, "\u0120healthy": 2891, "ased": 2892, "\u0120minute": 2893, "\u0120aud": 2894, "\u0120cy": 2895, "\u0120mood": 2896, "\u0120chill": 2897, "\u0120appreciate": 2898, "\u0120definitely": 2899, "aster": 2900, "\u0120yrs": 2901, "\u0120meant": 2902, "\u012022": 2903, "\u0120dress": 2904, "\u0120loyal": 2905, "girl": 2906, "\u0120upset": 2907, "val": 2908, "\u0120jack": 2909, "\u0120sounds": 2910, "\u0120thursday": 2911, "\u0120gay": 2912, "\u0120completely": 2913, "..": 2914, "\u0120sell": 2915, "crib": 2916, "but": 2917, "\u0120complete": 2918, "\u0120racism": 2919, "\u0120horrible": 2920, "\u0120security": 2921, "phone": 2922, "\u0120cast": 2923, "\u0120sports": 2924, "boy": 2925, "\u0120diffic": 2926, "pol": 2927, "\u0120psych": 2928, "\u0120leaving": 2929, "eds": 2930, "\u0120link": 2931, "lex": 2932, "\u0120apolog": 2933, "che": 2934, "pres": 2935, "\u0120constant": 2936, "\u0120batt": 2937, "\u0120lon": 2938, "onic": 2939, "201": 2940, "\u0120welcome": 2941, "\u0120yours": 2942, "\u0120character": 2943, "\u0120hr": 2944, "ighb": 2945, "\u0120blue": 2946, "resh": 2947, "\u0120type": 2948, "\u0120folks": 2949, "ether": 2950, "morning": 2951, "astic": 2952, "pet": 2953, "ortun": 2954, "\u0120pod": 2955, "arently": 2956, "\u0120except": 2957, "\u0120ba": 2958, "\u0120accident": 2959, "\u0120enem": 2960, "\u0120skin": 2961, "\u0120voted": 2962, "\u0120total": 2963, "oor": 2964, "\u0120smart": 2965, "\u0120starts": 2966, "\u0120ug": 2967, "\u0120base": 2968, "fs": 2969, "\u0120surv": 2970, "was": 2971, "\u0120hearing": 2972, "\u0120looked": 2973, "ye": 2974, "\u0120relax": 2975, "\u0120dinner": 2976, "arm": 2977, "14": 2978, "\u0120town": 2979, "\u0120emp": 2980, "\u0120stopped": 2981, "\u0120mention": 2982, "aming": 2983, "\u0120weather": 2984, "uce": 2985, "\u0120plac": 2986, "\u0120dir": 2987, "ium": 2988, "\u0120secret": 2989, "never": 2990, "\u0120gar": 2991, "\u0120weight": 2992, "\u0120abt": 2993, "\u0120boss": 2994, "atic": 2995, "\u0120shouldn": 2996, "\u0120ut": 2997, "ole": 2998, "\u0120notice": 2999, "\u0120prev": 3000, "\u0120lane": 3001, "\u0120vac": 3002, "levision": 3003, "\u0120fal": 3004, "\u0120lat": 3005, "\u0120chann": 3006, "oked": 3007, "\u0120ris": 3008, "aph": 3009, "\u0120finish": 3010, "\u0120hallow": 3011, "\u0120fakenews": 3012, "\u0120loud": 3013, "\u0120quite": 3014, "\u0120difference": 3015, "\u0120opportun": 3016, "\u0120ahead": 3017, "\u0120based": 3018, "\u0120yo": 3019, "\u0120drop": 3020, "\u0120community": 3021, "gre": 3022, "\u0120depression": 3023, "rect": 3024, "\u0120upon": 3025, "\u0120extra": 3026, "\u0120fox": 3027, "\u0120indian": 3028, "\u0120process": 3029, "\u0120random": 3030, "oting": 3031, "\u0120citiz": 3032, "idge": 3033, "\u0120crit": 3034, "\u0120neighb": 3035, "arning": 3036, "\u0120dear": 3037, "\u0120scream": 3038, "\u0120local": 3039, "\u0120:-": 3040, "\u0120meeting": 3041, "\u0120lay": 3042, "\u0120tro": 3043, "\u0120effect": 3044, "\u0120beauty": 3045, "\u0120bal": 3046, "ther": 3047, "\u0120lets": 3048, "news": 3049, "\u0120failure": 3050, "oom": 3051, "\u0120tit": 3052, "\u0120acting": 3053, "\u0120respond": 3054, "\u0120awful": 3055, "\u0120proper": 3056, "lish": 3057, "cum": 3058, "\u0120difficult": 3059, "vi": 3060, "\u0120apart": 3061, "\u0120apr": 3062, "\u0120decided": 3063, "\u0120victims": 3064, "\u0120corrupt": 3065, "\u0120tre": 3066, "\u0120visit": 3067, "\u0120organ": 3068, "\u0120disgusting": 3069, "43": 3070, "\u0120troub": 3071, "bt": 3072, "\u0120forgot": 3073, "\u012023": 3074, "\u0120honestly": 3075, "\u0120dance": 3076, "ince": 3077, "\u0120syr": 3078, "real": 3079, "\u0120jobs": 3080, "fit": 3081, "\u0120aug": 3082, "thoughts": 3083, "word": 3084, "uction": 3085, "esh": 3086, "iding": 3087, "rist": 3088, "\u0120ran": 3089, "\u0120paying": 3090, "\u0120employ": 3091, "gs": 3092, "\u0120decision": 3093, "\u0120sour": 3094, "using": 3095, "\u0120tar": 3096, "\u0120mal": 3097, "abb": 3098, "\u0120halloween": 3099, "ining": 3100, "ze": 3101, "\u0120flag": 3102, "\u0120incre": 3103, "last": 3104, "ids": 3105, "\u0120vol": 3106, "\u0120closed": 3107, "\u0120rev": 3108, "\u012090": 3109, "irm": 3110, "ross": 3111, "\u0120known": 3112, "\u0120gain": 3113, "\u0120serv": 3114, "rew": 3115, "itation": 3116, "anity": 3117, "\u0120cute": 3118, "\u0120hung": 3119, "\u0120society": 3120, "\u0120wednesday": 3121, "\u0120boyfriend": 3122, "\u0120lucky": 3123, "wis": 3124, "nal": 3125, "wood": 3126, "ication": 3127, "\u0120standing": 3128, "uch": 3129, "weets": 3130, "\u0120stories": 3131, "ume": 3132, "\u0120blog": 3133, "\u0120offer": 3134, "\u0120cos": 3135, "\u0120failed": 3136, "\u0120ugh": 3137, "\u0120comfort": 3138, "\u0120radio": 3139, "\u0120driving": 3140, "\u0120consider": 3141, "\u0120picture": 3142, "\u0120express": 3143, "\u0120hosp": 3144, "\u0120bomb": 3145, "\u0120ice": 3146, "\u0120rul": 3147, "\u0120disgrace": 3148, "\u0120page": 3149, "\u0120psalm": 3150, "edy": 3151, "\u0120ger": 3152, "\u0120grat": 3153, "\u0120quiet": 3154, "here": 3155, "\u0120pic": 3156, "\u0120chat": 3157, "\u0120grad": 3158, "uts": 3159, "\u0120ka": 3160, "\u0120protest": 3161, "\u0120rh": 3162, "\u0120phys": 3163, "\u0120anti": 3164, "load": 3165, "\u0120innoc": 3166, "\u0120videos": 3167, "\u0120likes": 3168, "\u0120smil": 3169, "\u0120webs": 3170, "ibly": 3171, "being": 3172, "\u0120actions": 3173, "\u0120project": 3174, "\u0120bored": 3175, "\u0120beha": 3176, "\u0120delay": 3177, "\u0120direct": 3178, "ners": 3179, "\u0120tells": 3180, "amed": 3181, "icle": 3182, "\u0120questions": 3183, "\u0120coll": 3184, "\u0120milit": 3185, "ibility": 3186, "\u0120space": 3187, "\u0120spot": 3188, "\u0120passion": 3189, "\u0120lar": 3190, "\u0120hasn": 3191, "\u0120career": 3192, "\u0120pls": 3193, "\u0120ground": 3194, "lf": 3195, "\u0120wearing": 3196, "\u0120plus": 3197, "vs": 3198, "izing": 3199, "\u0120learned": 3200, "\u0120squ": 3201, "\u0120hypocr": 3202, "\u0120content": 3203, "\u0120lunch": 3204, "\u0120brought": 3205, "may": 3206, "ofth": 3207, "ears": 3208, "great": 3209, "\u0120street": 3210, "\u0120carry": 3211, "\u0120crow": 3212, "ender": 3213, "\u0120knowledge": 3214, "\u0120fem": 3215, "\u0120socal": 3216, "\u0120screen": 3217, "will": 3218, "\u0120incred": 3219, "\u0120across": 3220, "\u0120snow": 3221, "\u0120glory": 3222, "\u0120bt": 3223, "\u0120cance": 3224, "\u0120realized": 3225, "\u0120eu": 3226, "\u0120brit": 3227, "\u0120update": 3228, "\u0120disrespect": 3229, "\u0120sand": 3230, "mix": 3231, "\u0120evening": 3232, "ilt": 3233, "\u0120league": 3234, "\u0120sud": 3235, "igin": 3236, "world": 3237, "\u0120families": 3238, "men": 3239, "\u0120distr": 3240, "\u0120danger": 3241, "\u0120blind": 3242, "\u0120breaking": 3243, "\u0120ridic": 3244, "\u0120handle": 3245, "americ": 3246, "\u0120program": 3247, "ali": 3248, "\u0120performance": 3249, "\u0120campa": 3250, "\u0120allowed": 3251, "inton": 3252, "bc": 3253, "\u0120mix": 3254, "pa": 3255, "\u0120dick": 3256, "proble": 3257, "\u0120common": 3258, "50": 3259, "\u0120humanity": 3260, "\u0120clearly": 3261, "\u0120worked": 3262, "\u0120compet": 3263, "empt": 3264, "\u0120fed": 3265, "ills": 3266, "\u0120suicide": 3267, "\u01202016": 3268, "\u0120pure": 3269, "\u0120market": 3270, "feeling": 3271, "\u0120hurts": 3272, "\u0120stat": 3273, "\u0120trash": 3274, "\u0120info": 3275, "television": 3276, "\u0120green": 3277, "\u0120du": 3278, "osh": 3279, "\u0120elect": 3280, "opped": 3281, "\u0120supporters": 3282, "\u0120helping": 3283, "\u0120socaltelevision": 3284, "\u0120vers": 3285, "\u0120creep": 3286, "\u0120draw": 3287, "\u0120terrorists": 3288, "\u0120wa": 3289, "\u0120price": 3290, "\u0120via": 3291, "\u0120invol": 3292, "\u0120avoid": 3293, "\u0120hoping": 3294, "dd": 3295, "usion": 3296, "\u0120empt": 3297, "\u0120suffer": 3298, "\u0120passed": 3299, "they": 3300, "ask": 3301, "\u0120kiss": 3302, "\u0120sac": 3303, "\u0120dav": 3304, "\u0120pal": 3305, "\u0120civ": 3306, "\u0120plans": 3307, "\u0120sep": 3308, "iger": 3309, "velop": 3310, "\u0120terrorism": 3311, "\u0120affect": 3312, "\u0120design": 3313, "eed": 3314, "\u0120credit": 3315, "ference": 3316, "hood": 3317, "\u0120inform": 3318, "\u0120\u00e2": 3319, "\u0120healthcare": 3320, "sorry": 3321, "\u0120excuse": 3322, "dam": 3323, "first": 3324, "\u0120points": 3325, "\u0120towards": 3326, "ape": 3327, "\u012060": 3328, "athy": 3329, "\u0120nd": 3330, "\u0120result": 3331, "think": 3332, "ifi": 3333, "amb": 3334, "\u0120above": 3335, "\u0120gratitude": 3336, "\u0120aware": 3337, "\u0120receive": 3338, "\u0120driver": 3339, "\u0120contact": 3340, "iven": 3341, "while": 3342, "\u0120extrem": 3343, "\u0120promise": 3344, "\u0120fur": 3345, "\u0120sever": 3346, "\u0120bs": 3347, "\u0120speaking": 3348, "\u0120teams": 3349, "\u0120discuss": 3350, "ec": 3351, "har": 3352, "\u0120brand": 3353, "tain": 3354, "\u0120rude": 3355, "\u0120willing": 3356, "ination": 3357, "istic": 3358, "\u0120regard": 3359, "\u0120force": 3360, "\u0120impr": 3361, "\u0120feet": 3362, "\u0120port": 3363, "\u0120amount": 3364, "gers": 3365, "\u0120roll": 3366, "\u0120twice": 3367, "\u0120politic": 3368, "\u0120dems": 3369, "\u0120includ": 3370, "\u0120bout": 3371, "omg": 3372, "\u0120saf": 3373, "fun": 3374, "\u0120load": 3375, "\u0120littlemix": 3376, "\u0120bene": 3377, "\u0120announ": 3378, "\u0120author": 3379, "iff": 3380, "\u0120host": 3381, "\u0120avail": 3382, "erg": 3383, "\u0120pun": 3384, "\u0120justice": 3385, "\u0120opinion": 3386, "\u0120caught": 3387, "\u0120progress": 3388, "uge": 3389, "\u0120ride": 3390, "\u0120scary": 3391, "\u0120phil": 3392, "vation": 3393, "\u0120learning": 3394, "\u0120remain": 3395, "\u0120filled": 3396, "\u0120concert": 3397, "sec": 3398, "\u0120congress": 3399, "\u0120value": 3400, "\u0120san": 3401, "\u0120everybody": 3402, "\u0120mel": 3403, "\u0120user": 3404, "\u0120favour": 3405, "\u0120fresh": 3406, "\u0120states": 3407, "\u0120rating": 3408, "\u0120fell": 3409, "\u0120admin": 3410, "mot": 3411, "going": 3412, "president": 3413, "\u0120blow": 3414, "\u0120band": 3415, "\u0120nyc": 3416, "tern": 3417, "\u0120convers": 3418, "\u0120findom": 3419, "\u0120naz": 3420, "ev": 3421, "cover": 3422, "\u0120lang": 3423, "\u0120desper": 3424, "\u0120paul": 3425, "\u0120cash": 3426, "hamed": 3427, "\u0120teacher": 3428, "anes": 3429, "\u0120release": 3430, "\u0120calm": 3431, "ample": 3432, "cel": 3433, "ability": 3434, "\u0120offici": 3435, "cious": 3436, "\u0120unless": 3437, "46": 3438, "ivery": 3439, "\u0120tast": 3440, "ona": 3441, "\u0120shop": 3442, "\u0120paper": 3443, "\u0120tea": 3444, "illy": 3445, "\u0120ugly": 3446, "\u0120sar": 3447, "\u0120liberal": 3448, "\u0120adm": 3449, "\u0120effort": 3450, "zz": 3451, "\u0120bunch": 3452, "\u0120kik": 3453, "\u012027": 3454, "\u0120military": 3455, "\u0120ki": 3456, "mao": 3457, "\u0120brings": 3458, "\u0120typ": 3459, "fast": 3460, "uit": 3461, "ential": 3462, "\u0120europe": 3463, "\u0120keeping": 3464, "\u0120whether": 3465, "\u012080": 3466, "\u0120kh": 3467, "\u0120received": 3468, "\u0120website": 3469, "box": 3470, "\u0120ticket": 3471, "\u0120campaign": 3472, "\u0120knock": 3473, "\u0120quit": 3474, "\u0120glob": 3475, "\u0120ashamed": 3476, "\u0120army": 3477, "\u0120hide": 3478, "\u0120kinda": 3479, "\u0120stock": 3480, "only": 3481, "cess": 3482, "\u0120xx": 3483, "\u0120turns": 3484, "\u0120james": 3485, "\u0120hearts": 3486, "\u0120negative": 3487, "da": 3488, "\u0120sens": 3489, "\u0120ridiculous": 3490, "\u0120court": 3491, "\u0120vegas": 3492, "\u0120boring": 3493, "problems": 3494, "week": 3495, "\u0120dan": 3496, "\u0120teen": 3497, "\u0120origin": 3498, "\u0120anyway": 3499, "\u0120score": 3500, "\u0120nature": 3501, "iod": 3502, "\u0120somebody": 3503, "\u0120apparently": 3504, "ossible": 3505, "\u0120sam": 3506, "\u0120singing": 3507, "iced": 3508, "ogn": 3509, "\u0120figure": 3510, "\u0120iphone": 3511, "\u0120ring": 3512, "\u0120color": 3513, "\u0120four": 3514, "\u0120correct": 3515, "\u0120note": 3516, "really": 3517, "\u0120dying": 3518, "fam": 3519, "\u0120seat": 3520, "\u0120members": 3521, "\u0120suffering": 3522, "\u0120pics": 3523, "\u0120nom": 3524, "\u0120comments": 3525, "\u0120meaning": 3526, "itten": 3527, "\u0120students": 3528, "\u0120thankyou": 3529, "vior": 3530, "follow": 3531, "lier": 3532, "\u0120role": 3533, "hol": 3534, "aching": 3535, "\u0120sudden": 3536, "\u0120blessings": 3537, "\u0120mult": 3538, "\u0120delivery": 3539, "\u0120fing": 3540, "\u0120van": 3541, "\u0120march": 3542, "coming": 3543, "\u0120cares": 3544, "aud": 3545, "\u0120moved": 3546, "\u0120bbc": 3547, "\u0120occ": 3548, "\u0120spiritual": 3549, "erson": 3550, "\u0120kept": 3551, "\u0120charge": 3552, "\u0120tweeting": 3553, "\u0120area": 3554, "\u0120patience": 3555, "alled": 3556, "\u0120rise": 3557, "lix": 3558, "\u0120confidence": 3559, "olute": 3560, "old": 3561, "asc": 3562, "icket": 3563, "\u0120encour": 3564, "\u0120praying": 3565, "donaldtrump": 3566, "ida": 3567, "\u0120golf": 3568, "\u0120anger": 3569, "\u0120chris": 3570, "\u0120powerful": 3571, "\u0120decide": 3572, "anda": 3573, "\u0120breath": 3574, "\u0120^": 3575, "\u0120bother": 3576, "\u0120shooting": 3577, "\u0120dc": 3578, "\u0120innocent": 3579, "\u0120athe": 3580, "\u012026": 3581, "\u0120results": 3582, "\u0120concern": 3583, "\u0120ham": 3584, "ien": 3585, "\u0120saved": 3586, "\u0120dogs": 3587, "\u0120por": 3588, "\u0120letting": 3589, "\u0120education": 3590, "\u0120dig": 3591, "\u0120brown": 3592, "\u0120channel": 3593, "live": 3594, "\u0120ignore": 3595, "okes": 3596, "\u0120emotional": 3597, "oved": 3598, "avy": 3599, "\u0120hospital": 3600, "\u0120repres": 3601, "\u0120inspire": 3602, "\u0120rights": 3603, "\u0120warm": 3604, "nc": 3605, "ilar": 3606, "\u0120pizz": 3607, "\u0120surprise": 3608, "aly": 3609, "\u0120crime": 3610, "era": 3611, "\u0120wins": 3612, "\u0120achieve": 3613, "\u0120created": 3614, "\u0120stage": 3615, "\u0120develop": 3616, "\u0120drunk": 3617, "ipped": 3618, "\u0120bigger": 3619, "bu": 3620, "aks": 3621, "flix": 3622, "\u0120risk": 3623, "ature": 3624, "\u0120network": 3625, "\u0120kindness": 3626, "\u0120quality": 3627, "\u0120serve": 3628, "\u0120empty": 3629, "\u0120experi": 3630, "\u012028": 3631, "kn": 3632, "itted": 3633, "\u0120holding": 3634, "\u0120dirty": 3635, "fuck": 3636, "\u0120field": 3637, "\u0120vir": 3638, "\u0120delet": 3639, "\u0120bat": 3640, "\u0120infl": 3641, "\u0120poll": 3642, "25": 3643, "\u0120search": 3644, "ica": 3645, "\u0120cancer": 3646, "ala": 3647, "\u0120ourselves": 3648, "\u0120double": 3649, "alous": 3650, "\u0120asleep": 3651, "\u0120current": 3652, "mom": 3653, "\u0120mart": 3654, "\u0120attitude": 3655, "ipping": 3656, "\u0120profess": 3657, "\u0120row": 3658, "\u0120nh": 3659, "\u0120compass": 3660, "\u0120impress": 3661, "christ": 3662, "\u0120ram": 3663, "\u0120flow": 3664, "motiv": 3665, "\u0120artist": 3666, "\u0120realdonaldtrump": 3667, "\u0120hack": 3668, "\u0120brave": 3669, "\u0120pred": 3670, "\u0120recogn": 3671, "\u0120master": 3672, "ss": 3673, "\u0120policy": 3674, "\u0120drama": 3675, "\u0120building": 3676, "know": 3677, "\u0120cook": 3678, "\u0120available": 3679, "miss": 3680, "\u0120actual": 3681, "\u0120admit": 3682, "\u0120congrats": 3683, "\u0120photo": 3684, "\u0120intr": 3685, "\u0120doctor": 3686, "\u0120hai": 3687, "\u0120switch": 3688, "\u0120syria": 3689, "ado": 3690, "\u0120bloom": 3691, "urance": 3692, "\u0120east": 3693, "rael": 3694, "\u0120ul": 3695, "\u0120battle": 3696, "\u0120eg": 3697, "\u0120crimin": 3698, "apt": 3699, "iverse": 3700, "\u0120mistake": 3701, "\u0120practice": 3702, "\u0120govt": 3703, "\u0120lil": 3704, "\u0120refund": 3705, "\u0120impossible": 3706, "\u0120itself": 3707, "\u0120board": 3708, "22": 3709, "\u0120ly": 3710, "ators": 3711, "again": 3712, "bow": 3713, "\u0120cloth": 3714, "hel": 3715, "ades": 3716, "\u0120retweet": 3717, "\u0120absolute": 3718, "\u0120ideas": 3719, "\u0120arg": 3720, "ez": 3721, "yo": 3722, "\u0120deter": 3723, "want": 3724, "\u0120accom": 3725, "\u0120hall": 3726, "\u0120opportunity": 3727, "\u0120civil": 3728, "tries": 3729, "ban": 3730, "asy": 3731, "\u0120amen": 3732, "\u0120beginning": 3733, "\u0120sup": 3734, "\u0120cancelled": 3735, "va": 3736, "erc": 3737, "\u0120bright": 3738, "\u0120;)": 3739, "aked": 3740, "\u0120oppos": 3741, "\u0120talented": 3742, "\u0120brill": 3743, "2016": 3744, "\u0120cas": 3745, "\u0120numb": 3746, "\u0120bye": 3747, "\u0120floor": 3748, "\u0120wild": 3749, "\u0120victory": 3750, "airs": 3751, "vert": 3752, "agram": 3753, "\u0120mach": 3754, "\u0120prem": 3755, "hael": 3756, "\u0120replying": 3757, "\u0120sis": 3758, "\u0120silence": 3759, "\u0120doll": 3760, "\u0120hun": 3761, "\u0120netflix": 3762, "gl": 3763, "aker": 3764, "\u0120defend": 3765, "\u0120panic": 3766, "xit": 3767, "\u0120goog": 3768, "\u0120sleeping": 3769, "\u0120storm": 3770, "\u0120advice": 3771, "\u0120false": 3772, "aft": 3773, "ensive": 3774, "asty": 3775, "\u0120finding": 3776, "\u0120clinton": 3777, "\u0120laughing": 3778, "faith": 3779, "gal": 3780, "\u0120whats": 3781, "\u0120journal": 3782, "\u0120suggest": 3783, "wed": 3784, "\u0120example": 3785, "does": 3786, "\u0120lonely": 3787, "\u0120ordered": 3788, "\u0120swear": 3789, "\u0120lmao": 3790, "\u0120replace": 3791, "\u0120humans": 3792, "\u0120married": 3793, "\u0120wont": 3794, "\u0120countries": 3795, "41": 3796, "\u0120showed": 3797, "23": 3798, "\u0120faket": 3799, "47": 3800, "\u0120tun": 3801, "\u0120bullshit": 3802, "thanks": 3803, "\u0120mac": 3804, "ened": 3805, "search": 3806, "\u0120releas": 3807, "\u0120techn": 3808, "service": 3809, "\u0120glass": 3810, "\u0120crowd": 3811, "\u0120growth": 3812, "vin": 3813, "arely": 3814, "nothing": 3815, "\u0120window": 3816, "\u0120yog": 3817, "\u0120rat": 3818, "\u0120treated": 3819, "\u0120ille": 3820, "\u0120canada": 3821, "\u0120period": 3822, "\u0120wedding": 3823, "\u0120zero": 3824, "\u0120wash": 3825, "\u0120patri": 3826, "\u0120democrats": 3827, "\u0120surprised": 3828, "\u0120lazy": 3829, "\u0120millions": 3830, "\u0120uni": 3831, "\u0120sb": 3832, "\u0120female": 3833, "rop": 3834, "ems": 3835, "\u0120connect": 3836, "hate": 3837, "\u0120exce": 3838, "gin": 3839, "king": 3840, "\u0120investig": 3841, "\u0120entertain": 3842, "\u0120acts": 3843, "\u0120iran": 3844, "olar": 3845, "ocol": 3846, "\u0120pissed": 3847, "\u0120putin": 3848, "\u0120ble": 3849, "\u0120however": 3850, "\u0120celebrate": 3851, "\u0120integr": 3852, "ray": 3853, "vey": 3854, "heart": 3855, "\u0120fab": 3856, "ls": 3857, "\u0120reasons": 3858, "fulness": 3859, "\u0120interesting": 3860, "ization": 3861, "\u0120moments": 3862, "ba": 3863, "\u0120culture": 3864, "\u0120tag": 3865, "\u0120target": 3866, "ht": 3867, "\u0120ignorant": 3868, "pd": 3869, "\u0120enemy": 3870, "\u0120wine": 3871, "\u0120annoying": 3872, "wom": 3873, "mar": 3874, "\u0120wat": 3875, "omy": 3876, "\u0120gods": 3877, "\u0120dj": 3878, "\u0120faketweets": 3879, "\u0120podcast": 3880, "\u0120jealous": 3881, "she": 3882, "\u0120student": 3883, "\u0120study": 3884, "\u0120devil": 3885, "\u0120shopping": 3886, "\u0120apple": 3887, "many": 3888, "yan": 3889, "\u0120address": 3890, "\u0120ess": 3891, "\u0120defe": 3892, "\u0120hatred": 3893, "\u0120godis": 3894, "\u0120israel": 3895, "bed": 3896, "\u0120sig": 3897, "even": 3898, "\u0120lg": 3899, "bet": 3900, "\u0120training": 3901, "happiness": 3902, "\u0120changes": 3903, "\u0120meditation": 3904, "\u0120english": 3905, "\u0120jul": 3906, "\u0120esp": 3907, "ino": 3908, "\u0120helps": 3909, "jesus": 3910, "\u0120cab": 3911, "\u0120cancel": 3912, "\u0120lift": 3913, "enda": 3914, "\u0120earlier": 3915, "bab": 3916, "ago": 3917, "\u0120didnt": 3918, "\u0120pizza": 3919, "\u0120pitch": 3920, "ubs": 3921, "\u0120nearly": 3922, "\u0120pictures": 3923, "\u0120islamic": 3924, "\u0120david": 3925, "\u0120memories": 3926, "\u0120til": 3927, "ament": 3928, "sad": 3929, "\u0120republicans": 3930, "\u0120assh": 3931, "been": 3932, "\u0120commer": 3933, "ients": 3934, "ule": 3935, "\u0120liberals": 3936, "inst": 3937, "\u0120instagram": 3938, "\u0120wer": 3939, "\u0120sending": 3940, "\u0120struggle": 3941, "\u0120fantastic": 3942, "\u0120challenge": 3943, "\u0120commit": 3944, "\u0120tu": 3945, "\u0120pregn": 3946, "\u0120compassion": 3947, "\u0120nigga": 3948, "\u0120bip": 3949, "\u0120resign": 3950, "talk": 3951, "itty": 3952, "\u0120services": 3953, "\u0120sharing": 3954, "\u0120evidence": 3955, "\u0120george": 3956, "motivation": 3957, "60": 3958, "noon": 3959, "igs": 3960, "ancing": 3961, "tle": 3962, "wait": 3963, "\u0120trouble": 3964, "\u0120shower": 3965, "awn": 3966, "humanity": 3967, "bar": 3968, "\u0120som": 3969, "\u0120beach": 3970, "ibes": 3971, "\u0120successful": 3972, "\u0120citizens": 3973, "\u0120salute": 3974, "\u0120fault": 3975, "ket": 3976, "\u0120pas": 3977, "mus": 3978, "stop": 3979, "lin": 3980, "mb": 3981, "\u0120afric": 3982, "\u0120depend": 3983, "\u0120debate": 3984, "try": 3985, "\u0120subs": 3986, "\u0120drag": 3987, "\u0120walked": 3988, "\u0120fm": 3989, "\u0120snapchat": 3990, "\u0120represent": 3991, "\u0120usually": 3992, "change": 3993, "\u0120theres": 3994, "\u0120plz": 3995, "\u0120champion": 3996, "days": 3997, "\u0120ni": 3998, "\u0120helped": 3999, "house": 4000, "ording": 4001, "\u0120ji": 4002, "istr": 4003, "\u0120lanes": 4004, "\u0120places": 4005, "\u0120msm": 4006, "\u0120prior": 4007, "\u0120clown": 4008, "\u0120hrs": 4009, "\u0120econ": 4010, "bur": 4011, "ushing": 4012, "bing": 4013, "\u0120planet": 4014, "\u0120clothes": 4015, "\u0120pride": 4016, "\u0120request": 4017, "\u0120chicken": 4018, "\u0120brilliant": 4019, "ishing": 4020, "\u0120station": 4021, "\u0120crack": 4022, "\u0120env": 4023, "\u0120loc": 4024, "\u0120data": 4025, "belie": 4026, "orea": 4027, "\u0120saud": 4028, "\u0120abuse": 4029, "\u0120fucked": 4030, "ando": 4031, "\u0120science": 4032, "\u0120understanding": 4033, "\u0120greater": 4034, "\u0120boo": 4035, "udes": 4036, "\u0120ladies": 4037, "\u0120access": 4038, "\u0120ghost": 4039, "\u0120term": 4040, "\u0120ped": 4041, "hen": 4042, "mber": 4043, "\u0120ner": 4044, "\u0120ability": 4045, "\u0120fellow": 4046, "\u0120lasve": 4047, "itive": 4048, "\u0120pupp": 4049, "best": 4050, "\u0120incredible": 4051, "ours": 4052, "\u0120immigr": 4053, "\u0120mob": 4054, "atul": 4055, "\u0120everywhere": 4056, "\u0120followed": 4057, "\u0120hungry": 4058, "\u0120source": 4059, "\u0120wanting": 4060, "\u0120sexual": 4061, "\u0120sem": 4062, "\u0120emotions": 4063, "\u0120texas": 4064, "fil": 4065, "\u0120worried": 4066, "cot": 4067, "dis": 4068, "\u0120pts": 4069, "vo": 4070, "\u0120cricket": 4071, "\u0120currently": 4072, "\u0120broad": 4073, "\u0120site": 4074, "\u0120gard": 4075, "\u0120rule": 4076, "\u0120matters": 4077, "\u0120sacr": 4078, "iters": 4079, "ogr": 4080, "\u0120um": 4081, "\u0120hopefully": 4082, "\u0120turning": 4083, "\u0120puss": 4084, "anyone": 4085, "\u0120sport": 4086, "\u0120despite": 4087, "war": 4088, "\u0120coz": 4089, "\u0120ww": 4090, "\u0120among": 4091, "uh": 4092, "\u0120smoke": 4093, "\u0120inspired": 4094, "another": 4095, "\u0120jer": 4096, "icks": 4097, "\u0120ended": 4098, "\u0120beer": 4099, "\u0120nasty": 4100, "\u0120gas": 4101, "\u0120grown": 4102, "\u0120rules": 4103, "hon": 4104, "\u0120losers": 4105, "\u0120bang": 4106, "shine": 4107, "\u0120plane": 4108, "\u0120arrest": 4109, "\u0120:-)": 4110, "sm": 4111, "\u0120spin": 4112, "\u012070": 4113, "\u0120soft": 4114, "iah": 4115, "\u0120tor": 4116, "\u0120sched": 4117, "\u0120table": 4118, "bless": 4119, "\u0120taught": 4120, "\u0120agenda": 4121, "\u0120awake": 4122, "enn": 4123, "look": 4124, "\u0120humble": 4125, "\u0120condem": 4126, "\u0120massive": 4127, "\u0120fraud": 4128, "\u0120exam": 4129, "\u0120drinking": 4130, "\u0120coward": 4131, "acts": 4132, "\u0120injured": 4133, "\u0120ending": 4134, "mins": 4135, "\u0120aint": 4136, "\u0120bloody": 4137, "\u0120discover": 4138, "\u0120afternoon": 4139, "\u0120russian": 4140, "\u0120mirac": 4141, "\u0120trad": 4142, "\u0120england": 4143, "\u0120prove": 4144, "riage": 4145, "\u0120lately": 4146, "\u0120nights": 4147, "aging": 4148, "\u0120jan": 4149, "\u0120obs": 4150, "\u0120belong": 4151, "fortun": 4152, "\u0120global": 4153, "ivid": 4154, "\u0120shoes": 4155, "giving": 4156, "\u0120angel": 4157, "eding": 4158, "\u0120bann": 4159, "\u0120loyalty": 4160, "\u0120chocol": 4161, "\u0120universe": 4162, "\u0120genu": 4163, "isf": 4164, "\u0120proof": 4165, "\u0120youth": 4166, "omm": 4167, "\u0120hello": 4168, "\u0120witness": 4169, "gen": 4170, "llig": 4171, "\u0120si": 4172, "osing": 4173, "\u0120nba": 4174, "wise": 4175, "essions": 4176, "\u0120position": 4177, "\u0120healing": 4178, "\u0120refer": 4179, "\u0120buying": 4180, "apped": 4181, "\u0120voting": 4182, "\u0120airport": 4183, "isions": 4184, "\u0120jam": 4185, "\u0120manager": 4186, "\u0120vacation": 4187, "aur": 4188, "ued": 4189, "\u0120idk": 4190, "\u0120member": 4191, "iar": 4192, "\u0120dump": 4193, "\u0120princ": 4194, "\u0120unc": 4195, "\u0120review": 4196, "\u0120brexit": 4197, "\u0120supporting": 4198, "\u0120written": 4199, "\u0120frustr": 4200, "asing": 4201, "\u0120opening": 4202, "\u0120research": 4203, "away": 4204, "oon": 4205, "\u0120anthem": 4206, "\u0120steal": 4207, "\u0120spring": 4208, "\u0120events": 4209, "\u0120intellig": 4210, "ias": 4211, "apy": 4212, "\u0120falling": 4213, "\u0120relationships": 4214, "\u0120liked": 4215, "uter": 4216, "still": 4217, "llywood": 4218, "\u0120realise": 4219, "\u0120google": 4220, "\u0120rout": 4221, "\u0120paris": 4222, "anch": 4223, "44": 4224, "esville": 4225, "ji": 4226, "\u0120wealth": 4227, "\u0120trib": 4228, "\u0120statement": 4229, "\u0120becoming": 4230, "\u0120niger": 4231, "etime": 4232, "\u0120likely": 4233, "\u0120wondering": 4234, "\u0120wo": 4235, "eps": 4236, "epend": 4237, "\u0120patient": 4238, "\u0120blocking": 4239, "\u0120emails": 4240, "lection": 4241, "\u0120scene": 4242, "\u0120hurric": 4243, "\u0120mos": 4244, "olic": 4245, "\u0120regret": 4246, "\u0120dish": 4247, "\u0120bigot": 4248, "\u0120describ": 4249, "\u0120hind": 4250, "\u0120tem": 4251, "\u0120accompl": 4252, "\u0120seconds": 4253, "\u0120pros": 4254, "\u0120ignorance": 4255, "iring": 4256, "\u0120ded": 4257, "ston": 4258, "\u012029": 4259, "ius": 4260, "\u0120basket": 4261, "iversity": 4262, "\u0120general": 4263, "\u0120mex": 4264, "\u0120plat": 4265, "\u0120mount": 4266, "\u0120bes": 4267, "\u0120toil": 4268, "hold": 4269, "\u0120involved": 4270, "\u0120ng": 4271, "\u0120chap": 4272, "\u0120critic": 4273, "wing": 4274, "\u0120crush": 4275, "eral": 4276, "please": 4277, "\u0120lim": 4278, "\u0120queen": 4279, "\u0120dangerous": 4280, "\u0120temp": 4281, "\u0120aus": 4282, "\u0120ath": 4283, "\u0120attempt": 4284, "\u0120magic": 4285, "\u0120confused": 4286, "\u0120version": 4287, "\u0120langu": 4288, "thr": 4289, "iment": 4290, "\u01202018": 4291, "\u0120mercy": 4292, "\u0120gut": 4293, "\u0120oper": 4294, "\u0120gent": 4295, "\u0120cheap": 4296, "\u0120chronic": 4297, "\u0120safety": 4298, "rel": 4299, "\u0120spec": 4300, "\u0120runs": 4301, "\u0120reve": 4302, "walk": 4303, "has": 4304, "ries": 4305, "\u0120constantly": 4306, "\u0120growing": 4307, "\u0120repeat": 4308, "21": 4309, "\u0120nap": 4310, "icted": 4311, "bye": 4312, "olution": 4313, "fact": 4314, "\u0120dece": 4315, "\u0120der": 4316, "\u0120ident": 4317, "\u0120article": 4318, "\u0120hotel": 4319, "\u0120wise": 4320, "\u0120fired": 4321, "\u0120hip": 4322, "\u0120integrity": 4323, "\u0120zomb": 4324, "\u0120yay": 4325, "\u0120wal": 4326, "\u0120bon": 4327, "odes": 4328, "wish": 4329, "\u0120toler": 4330, "\u0120guns": 4331, "\u0120silent": 4332, "iple": 4333, "win": 4334, "\u0120max": 4335, "\u0120sunshine": 4336, "ov": 4337, "\u0120appear": 4338, "\u0120bathroom": 4339, "\u0120weap": 4340, "\u0120ends": 4341, "\u0120conversation": 4342, "\u0120views": 4343, "\u0120desperate": 4344, "\u0120legit": 4345, "\u0120changing": 4346, "\u0120charlott": 4347, "\u0120films": 4348, "\u0120tat": 4349, "job": 4350, "\u0120partic": 4351, "\u0120spoil": 4352, "\u0120payp": 4353, "\u0120excell": 4354, "\u0120higher": 4355, "07": 4356, "\u0120cream": 4357, "\u0120desire": 4358, "\u0120exerc": 4359, "\u0120idiots": 4360, "\u0120adult": 4361, "\u0120writers": 4362, "\u0120daddy": 4363, "\u0120ego": 4364, "\u0120emotion": 4365, "\u0120:\\": 4366, "from": 4367, "\u0120france": 4368, "\u0120arm": 4369, "\u0120dropped": 4370, "\u0120style": 4371, "\u0120sept": 4372, "\u0120cro": 4373, "isis": 4374, "\u0120trail": 4375, "\u0120lou": 4376, "too": 4377, "\u0120jim": 4378, "see": 4379, "\u0120balls": 4380, "having": 4381, "\u0120useless": 4382, "\u0120favourite": 4383, "ees": 4384, "\u0120friendship": 4385, "\u0120blessing": 4386, "\u0120size": 4387, "\u0120inner": 4388, "hr": 4389, "\u0120rape": 4390, "\u0120believing": 4391, "\u0120mcc": 4392, "\u0120democracy": 4393, "\u0120raw": 4394, "\u0120trait": 4395, "add": 4396, "\u0120deserves": 4397, "\u0120values": 4398, "\u0120jail": 4399, "enal": 4400, "\u0120hug": 4401, "round": 4402, "\u0120epic": 4403, "\u0120enjoying": 4404, "\u0120darkness": 4405, "big": 4406, "yes": 4407, "iers": 4408, "\u0120somewhere": 4409, "\u0120afford": 4410, "\u0120male": 4411, "\u0120photos": 4412, "inting": 4413, "ani": 4414, "\u0120original": 4415, "\u0120anywhere": 4416, "\u0120staying": 4417, "\u0120tiny": 4418, "po": 4419, "\u0120orange": 4420, "ober": 4421, "\u0120workout": 4422, "\u0120mate": 4423, "\u0120constit": 4424, "\u0120bottom": 4425, "\u0120whom": 4426, "imp": 4427, "\u0120recomm": 4428, "\u0120july": 4429, "\u0120fest": 4430, "\u0120ri": 4431, "\u0120heat": 4432, "\u0120:/": 4433, "ka": 4434, "\u0120expected": 4435, "kind": 4436, "\u0120grab": 4437, "\u012031": 4438, "\u0120answers": 4439, "\u0120natural": 4440, "\u0120flying": 4441, "\u0120chocolate": 4442, "\u0120decl": 4443, "\u0120ber": 4444, "\u0120cath": 4445, "\u0120stronger": 4446, "\u0120smell": 4447, "\u0120valent": 4448, "\u0120wood": 4449, "chool": 4450, "ials": 4451, "\u0120chic": 4452, "mind": 4453, "\u0120held": 4454, "\u0120session": 4455, "\u0120vision": 4456, "\u0120austr": 4457, "\u0120ate": 4458, "\u0120title": 4459, "oul": 4460, "ato": 4461, "mad": 4462, "ags": 4463, "\u0120fully": 4464, "\u0120bringing": 4465, "\u0120pussy": 4466, "\u0120foreign": 4467, "\u0120hv": 4468, "\u0120feb": 4469, "\u0120hahaha": 4470, "\u0120susp": 4471, "\u0120meds": 4472, "\u0120sle": 4473, "\u0120comedy": 4474, "\u0120arms": 4475, "\u0120wrote": 4476, "\u0120stom": 4477, "\u0120gal": 4478, "\u0120cheer": 4479, "\u0120interested": 4480, "\u0120script": 4481, "\u0120behavior": 4482, "\u0120conserv": 4483, "\u0120international": 4484, "\u0120surely": 4485, "\u0120refuge": 4486, "\u0120hits": 4487, "wa": 4488, "\u0120hav": 4489, "ifa": 4490, "help": 4491, "\u0120obviously": 4492, "known": 4493, "medi": 4494, "\u0120belief": 4495, "rench": 4496, "cessary": 4497, "\u0120rate": 4498, "\u0120christians": 4499, "\u0120reco": 4500, "ox": 4501, "\u0120posts": 4502, "ceed": 4503, "\u0120lesson": 4504, "\u0120leads": 4505, "\u0120pc": 4506, "church": 4507, "\u0120bf": 4508, "\u0120forgive": 4509, "\u0120dut": 4510, "\u0120code": 4511, "\u0120frank": 4512, "\u0120hasht": 4513, "\u0120easier": 4514, "oftheday": 4515, "ena": 4516, "\u0120candid": 4517, "\u0120spending": 4518, "\u0120british": 4519, "bit": 4520, "\u0120easily": 4521, "\u0120nose": 4522, "\u0120plays": 4523, "\u0120truck": 4524, "ounts": 4525, "\u0120embr": 4526, "itting": 4527, "\u0120kr": 4528, "pay": 4529, "\u0120pin": 4530, "haust": 4531, "\u0120miles": 4532, "everyone": 4533, "\u0120dare": 4534, "\u0120cars": 4535, "pool": 4536, "\u0120raise": 4537, "ault": 4538, "ller": 4539, "\u0120individ": 4540, "mat": 4541, "\u0120tow": 4542, "\u0120voters": 4543, "\u0120fitness": 4544, "\u0120becomes": 4545, "\u0120failing": 4546, "\u0120ol": 4547, "\u0120depressed": 4548, "\u0120animals": 4549, "24": 4550, "\u0120sales": 4551, "\u0120embarrassing": 4552, "fair": 4553, "\u0120sea": 4554, "\u0120comey": 4555, "game": 4556, "\u0120whose": 4557, "\u0120bipolar": 4558, "\u0120leaves": 4559, "\u0120republican": 4560, "bb": 4561, "yrs": 4562, "\u0120unfortun": 4563, "\u0120independ": 4564, "\u0120selling": 4565, "\u0120nerv": 4566, "ground": 4567, "\u0120wen": 4568, "aine": 4569, "cent": 4570, "\u0120shirt": 4571, "\u0120trumps": 4572, "\u0120mirror": 4573, "\u0120tool": 4574, "\u0120older": 4575, "\u0120produc": 4576, "\u0120iv": 4577, "\u0120earned": 4578, "\u0120shar": 4579, "\u0120cheese": 4580, "aced": 4581, "\u0120breakfast": 4582, "\u0120hes": 4583, "\u0120attr": 4584, "65": 4585, "\u0120mail": 4586, "\u0120les": 4587, "\u0120anybody": 4588, "fill": 4589, "\u0120teaching": 4590, "\u0120agre": 4591, "--": 4592, "\u0120including": 4593, "\u0120washing": 4594, "\u0120stars": 4595, "ita": 4596, "\u0120oil": 4597, "cho": 4598, "\u0120china": 4599, "\u0120earn": 4600, "\u0120hay": 4601, "\u0120unknown": 4602, "ux": 4603, "\u0120hers": 4604, "\u0120activ": 4605, "\u0120according": 4606, "\u0120qual": 4607, "finally": 4608, "\u0120center": 4609, "family": 4610, "\u0120talks": 4611, "\u0120minds": 4612, "\u0120pt": 4613, "\u0120ruined": 4614, "\u0120cha": 4615, "unday": 4616, "\u0120comb": 4617, "\u0120whe": 4618, "\u0120exciting": 4619, "ulation": 4620, "ophob": 4621, "lla": 4622, "lead": 4623, "him": 4624, "\u0120sight": 4625, "\u0120lived": 4626, "\u0120elected": 4627, "enced": 4628, "\u0120majority": 4629, "wisdom": 4630, "ara": 4631, "\u0120breathe": 4632, "things": 4633, "\u0120ja": 4634, "\u0120regular": 4635, "\u0120groups": 4636, "\u0120appoint": 4637, "ij": 4638, "\u0120breaks": 4639, "\u0120solid": 4640, "\u0120official": 4641, "someone": 4642, "\u0120charlottesville": 4643, "once": 4644, "\u0120ful": 4645, "thy": 4646, "\u0120etern": 4647, "\u0120decisions": 4648, "\u0120incom": 4649, "\u0120purch": 4650, "\u0120michael": 4651, "pray": 4652, "\u0120coverage": 4653, "\u0120tip": 4654, "\u0120harder": 4655, "\u0120marriage": 4656, "\u0120usual": 4657, "\u0120minor": 4658, "09": 4659, "fail": 4660, "tt": 4661, "\u0120five": 4662, "\u0120names": 4663, "\u0120entre": 4664, "\u0120salvation": 4665, "\u0120exhaust": 4666, "\u0120ars": 4667, "eous": 4668, "say": 4669, "\u0120lame": 4670, "\u0120language": 4671, "\u0120inf": 4672, "olf": 4673, "\u0120presence": 4674, "\u0120nervous": 4675, "ifts": 4676, "alia": 4677, "\u0120weren": 4678, "\u0120popular": 4679, "\u0120bday": 4680, "\u0120roy": 4681, "\u0120refuse": 4682, "mark": 4683, "\u0120hmm": 4684, "\u0120further": 4685, "\u0120puts": 4686, "\u0120winter": 4687, "ett": 4688, "\u0120easter": 4689, "\u0120thous": 4690, "\u0120bear": 4691, "\u0120neither": 4692, "ilty": 4693, "otten": 4694, "aga": 4695, "\u0120latest": 4696, "istration": 4697, "ron": 4698, "kward": 4699, "\u0120punch": 4700, "\u0120od": 4701, "remember": 4702, "ami": 4703, "orgeous": 4704, "\u0120wishing": 4705, "\u0120luv": 4706, "\u0120numbers": 4707, "\u0120heavy": 4708, "ashion": 4709, "\u0120april": 4710, "pain": 4711, "\u0120wrest": 4712, "\u0120btw": 4713, "\u0120basically": 4714, "\u0120nah": 4715, "uary": 4716, "\u0120yoga": 4717, "\u0120recovery": 4718, "\u0120wet": 4719, "\u0120freaking": 4720, "leg": 4721, "\u0120warri": 4722, "\u012035": 4723, "\u0120athlet": 4724, "\u0120demand": 4725, "\u0120sexy": 4726, "\u0120insane": 4727, "\u0120ptsd": 4728, "\u0120guest": 4729, "\u0120alex": 4730, "\u0120amazon": 4731, "\u0120joe": 4732, "\u0120politicians": 4733, "\u0120actor": 4734, "\u0120mt": 4735, "ari": 4736, "\u0120sides": 4737, "\u0120wid": 4738, "ifying": 4739, "\u0120ken": 4740, "\u0120immedi": 4741, "\u0120veter": 4742, "ograph": 4743, "\u0120hal": 4744, "oses": 4745, "\u0120gram": 4746, "\u0120suc": 4747, "\u0120private": 4748, "\u0120pleasure": 4749, "vable": 4750, "\u0120winner": 4751, "\u0120blast": 4752, "\u0120officially": 4753, "\u0120noticed": 4754, "lord": 4755, "\u0120ta": 4756, "ikes": 4757, "\u0120utter": 4758, "\u0120dry": 4759, "\u0120ive": 4760, "\u0120talked": 4761, "ares": 4762, "\u0120pump": 4763, "\u0120novel": 4764, "\u0120gotten": 4765, "\u0120prison": 4766, "\u0120machine": 4767, "though": 4768, "\u0120ufc": 4769, "\u0120remove": 4770, "\u0120promises": 4771, "vr": 4772, "\u0120sab": 4773, "\u0120sale": 4774, "\u0120six": 4775, "ockey": 4776, "\u0120legs": 4777, "\u0120determin": 4778, "\u0120gorgeous": 4779, "icated": 4780, "ases": 4781, "about": 4782, "\u0120drugs": 4783, "media": 4784, "\u0120attend": 4785, "\u0120recent": 4786, "levant": 4787, "\u0120jr": 4788, "oles": 4789, "\u0120bully": 4790, "\u0120girlfriend": 4791, "\u0120lower": 4792, "\u0120positivity": 4793, "\u0120pregnant": 4794, "\u012000": 4795, "\u0120yall": 4796, "\u0120picked": 4797, "atulations": 4798, "\u0120lit": 4799, "\u0120sacrif": 4800, "always": 4801, "\u0120insurance": 4802, "\u0120promised": 4803, "\u0120matt": 4804, "\u0120neck": 4805, "\u0120ing": 4806, "\u0120shift": 4807, "\u0120apologize": 4808, "\u0120cried": 4809, "\u0120babies": 4810, "mare": 4811, "\u0120kim": 4812, "cript": 4813, "\u0120circum": 4814, "\u0120atheist": 4815, "icked": 4816, "\u0120speed": 4817, "\u0120illness": 4818, "ito": 4819, "isy": 4820, "contr": 4821, "\u0120criminal": 4822, "\u0120cous": 4823, "\u0120model": 4824, "\u0120garden": 4825, "\u0120confident": 4826, "\u0120influ": 4827, "start": 4828, "\u0120garb": 4829, "\u0120dy": 4830, "\u0120fort": 4831, "\u0120sadly": 4832, "ky": 4833, "por": 4834, "\u0120tree": 4835, "\u0120planning": 4836, "\u0120rt": 4837, "\u0120delivered": 4838, "\u0120august": 4839, "itions": 4840, "\u0120scar": 4841, "\u0120creepy": 4842, "\u0120ai": 4843, "\u0120throwing": 4844, "\u0120decent": 4845, "\u0120bob": 4846, "ache": 4847, "igger": 4848, "\u0120suddenly": 4849, "\u0120lied": 4850, "\u0120radical": 4851, "dog": 4852, "anta": 4853, "\u0120satisf": 4854, "\u0120increase": 4855, "\u0120shown": 4856, "\u0120cock": 4857, "show": 4858, "\u0120eh": 4859, "\u0120delayed": 4860, "\u0120eld": 4861, "\u0120became": 4862, "\u0120physical": 4863, "\u0120legal": 4864, "\u0120former": 4865, "\u0120responsible": 4866, "\u0120tm": 4867, "achel": 4868, "\u0120asks": 4869, "under": 4870, "\u0120barely": 4871, "ping": 4872, "\u0120taste": 4873, "\u0120eb": 4874, "\u0120gosp": 4875, "ware": 4876, "gery": 4877, "\u0120teachers": 4878, "prene": 4879, "\u0120thy": 4880, "essed": 4881, "\u0120posting": 4882, "\u0120moon": 4883, "\u0120ml": 4884, "han": 4885, "\u0120va": 4886, "\u0120mindfulness": 4887, "haps": 4888, "\u0120cd": 4889, "ral": 4890, "inge": 4891, "\u0120surround": 4892, "\u0120opened": 4893, "\u0120choices": 4894, "\u0120struggling": 4895, "\u0120hub": 4896, "\u0120signed": 4897, "\u0120lgbt": 4898, "ora": 4899, "damn": 4900, "board": 4901, "\u0120rn": 4902, "\u0120released": 4903, "\u0120third": 4904, "otus": 4905, "looking": 4906, "\u0120sne": 4907, "\u0120june": 4908, "\u0120huh": 4909, "mir": 4910, "\u0120exec": 4911, "\u0120laws": 4912, "friday": 4913, "\u0120large": 4914, "\u0120unto": 4915, "\u0120recently": 4916, "\u0120toilet": 4917, "\u0120obvious": 4918, "\u0120forced": 4919, "\u0120option": 4920, "cons": 4921, "\u0120cu": 4922, "keep": 4923, "\u0120guilty": 4924, "\u0120reveal": 4925, "\u0120makeup": 4926, "\u0120waking": 4927, "arter": 4928, "\u0120flat": 4929, "\u0120impact": 4930, "estic": 4931, "\u0120draft": 4932, "\u0120hurricane": 4933, "\u0120planned": 4934, "\u0120improve": 4935, "atives": 4936, "\u0120dign": 4937, "\u0120mah": 4938, "\u0120nope": 4939, "\u0120kk": 4940, "\u0120ave": 4941, "\u0120york": 4942, "\u0120righteous": 4943, "\u0120brothers": 4944, "hard": 4945, "\u0120votes": 4946, "inary": 4947, "\u0120leading": 4948, "home": 4949, "\u0120shair": 4950, "\u0120booked": 4951, "\u0120demon": 4952, "ashed": 4953, "\u0120niggas": 4954, "\u0120hates": 4955, "\u0120dancing": 4956, "\u0120ow": 4957, "\u0120happier": 4958, "trying": 4959, "\u0120advert": 4960, "cs": 4961, "\u0120ryan": 4962, "\u0120flor": 4963, "law": 4964, "\u0120writer": 4965, "\u0120nic": 4966, "\u0120sees": 4967, "\u0120spl": 4968, "\u0120awkward": 4969, "times": 4970, "\u0120steps": 4971, "\u0120provide": 4972, "\u0120excellent": 4973, "cing": 4974, "\u0120caused": 4975, "\u0120amb": 4976, "\u0120classic": 4977, "\u0120circumst": 4978, "\u0120wishes": 4979, "\u0120generation": 4980, "\u0120noise": 4981, "\u0120incident": 4982, "27": 4983, "\u0120stomach": 4984, "\u0120raised": 4985, "\u0120garbage": 4986, "ns": 4987, "\u0120cake": 4988, "kin": 4989, "\u0120customerservice": 4990, "ko": 4991, "\u0120disag": 4992, "\u0120actors": 4993, "\u0120swim": 4994, "\u0120crew": 4995, "lands": 4996, "\u0120entreprene": 4997, "aa": 4998, "\u0120mike": 4999, "\u012008": 5000, "\u0120potential": 5001, "\u0120prim": 5002, "\u0120obam": 5003, "cott": 5004, "\u0120indeed": 5005, "\u0120fantasy": 5006, "\u0120tab": 5007, "enty": 5008, "\u0120trade": 5009, "\u0120illegal": 5010, "\u0120closer": 5011, "08": 5012, "eem": 5013, "\u0120fashion": 5014, "\u0120chose": 5015, "sof": 5016, "\u0120balance": 5017, "\u0120mothers": 5018, "pping": 5019, "tweet": 5020, "\u0120dial": 5021, "\u0120mistakes": 5022, "paren": 5023, "verage": 5024, "bh": 5025, "field": 5026, "ument": 5027, "stand": 5028, "\u0120unity": 5029, "\u0120corner": 5030, "\u0120extremely": 5031, "\u0120recommend": 5032, "\u0120goodness": 5033, "\u0120selfish": 5034, "tim": 5035, "hope": 5036, "\u0120butt": 5037, "\u012099": 5038, "views": 5039, "celona": 5040, "\u0120gradu": 5041, "\u0120mode": 5042, "\u0120loose": 5043, "\u0120continues": 5044, "hop": 5045, "eline": 5046, "\u0120consist": 5047, "\u0120ratings": 5048, "\u0120traged": 5049, "\u0120somehow": 5050, "\u0120worthy": 5051, "\u0120letter": 5052, "\u0120religious": 5053, "\u0120defense": 5054, "\u0120osc": 5055, "\u0120lines": 5056, "okay": 5057, "year": 5058, "\u0120mut": 5059, "these": 5060, "\u0120canad": 5061, "\u0120fuckin": 5062, "\u0120catholic": 5063, "cong": 5064, "\u0120onto": 5065, "\u0120ruin": 5066, "nam": 5067, "\u0120wasted": 5068, "orable": 5069, "\u0120teeth": 5070, "\u0120clue": 5071, "\u0120enjoyed": 5072, "\u0120ven": 5073, "\u0120separ": 5074, "\u0120pour": 5075, "\u0120willi": 5076, "\u0120several": 5077, "park": 5078, "\u0120wwe": 5079, "\u0120kelly": 5080, "\u0120dar": 5081, "\u0120built": 5082, "\u0120milk": 5083, "\u0120advent": 5084, "\u0120tl": 5085, "\u0120creative": 5086, "\u0120solution": 5087, "\u0120climate": 5088, "\u0120rush": 5089, "\u0120compan": 5090, "\u0120kat": 5091, "\u0120grade": 5092, "\u0120mindset": 5093, "\u0120strange": 5094, "face": 5095, "\u0120jokes": 5096, "\u0120otherwise": 5097, "\u0120bowl": 5098, "\u0120responsibility": 5099, "\u0120pit": 5100, "\u0120posted": 5101, "\u0120500": 5102, "48": 5103, "abled": 5104, "\u0120stressed": 5105, "\u0120gospel": 5106, "else": 5107, "\u0120billion": 5108, "inem": 5109, "icate": 5110, "\u0120docum": 5111, "\u0120bra": 5112, "\u0120computer": 5113, "\u0120bottle": 5114, "icious": 5115, "\u0120taxes": 5116, "\u0120sweat": 5117, "\u0120parent": 5118, "\u0120guard": 5119, "\u0120manage": 5120, "apan": 5121, "\u0120sme": 5122, "\u0120thrill": 5123, "\u0120nt": 5124, "\u0120lights": 5125, "\u0120peter": 5126, "\u0120status": 5127, "\u0120commercial": 5128, "\u0120exercise": 5129, "\u0120doct": 5130, "\u0120chief": 5131, "\u0120details": 5132, "pped": 5133, "\u0120modern": 5134, "russ": 5135, "\u0120stephen": 5136, "ki": 5137, "sl": 5138, "itchen": 5139, "free": 5140, "\u0120baseball": 5141, "ring": 5142, "ipe": 5143, "\u0120nut": 5144, "\u0120unbelie": 5145, "\u0120twist": 5146, "\u0120dealing": 5147, "\u0120shocked": 5148, "\u0120copy": 5149, "\u0120overcome": 5150, "\u0120fund": 5151, "angers": 5152, "thew": 5153, "\u0120pressure": 5154, "\u0120quickly": 5155, "\u0120fixed": 5156, "\u0120horny": 5157, "\u0120hrc": 5158, "35": 5159, "give": 5160, "ained": 5161, "\u0120cloud": 5162, "\u0120memory": 5163, "ein": 5164, "\u0120direction": 5165, "\u0120moron": 5166, "26": 5167, "\u0120spoke": 5168, "\u0120doesnt": 5169, "\u0120kills": 5170, "\u0120professional": 5171, "\u0120reward": 5172, "fection": 5173, "\u0120hole": 5174, "\u0120characters": 5175, "\u0120administration": 5176, "illness": 5177, "\u0120uns": 5178, "\u0120fasc": 5179, "ores": 5180, "\u0120disp": 5181, "\u0120hollywood": 5182, "ii": 5183, "terror": 5184, "\u0120ack": 5185, "\u0120information": 5186, "404": 5187, "\u0120tap": 5188, "\u0120eth": 5189, "\u0120gang": 5190, "\u0120conference": 5191, "\u0120nightmare": 5192, "\u0120threw": 5193, "ification": 5194, "\u0120managed": 5195, "\u0120root": 5196, "\u0120meas": 5197, "\u0120active": 5198, "\u0120heads": 5199, "\u0120rose": 5200, "\u0120seats": 5201, "\u0120dun": 5202, "hell": 5203, "\u0120messages": 5204, "\u0120camera": 5205, "\u0120lasvegas": 5206, "\u0120speaks": 5207, "\u0120sav": 5208, "ounds": 5209, "alling": 5210, "\u0120anxious": 5211, "\u0120corruption": 5212, "\u0120smiling": 5213, "\u0120insec": 5214, "\u0120playoff": 5215, "\u0120pretend": 5216, "oz": 5217, "ilst": 5218, "\u0120grind": 5219, "obe": 5220, "\u0120pulled": 5221, "part": 5222, "car": 5223, "\u0120cops": 5224, "\u0120web": 5225, "\u0120ash": 5226, "des": 5227, "\u0120freak": 5228, "\u012040404": 5229, "\u0120pants": 5230, "\u0120gf": 5231, "\u0120subject": 5232, "\u0120river": 5233, "\u0120waited": 5234, "\u0120treatment": 5235, "\u0120focused": 5236, "\u0120thanksgiving": 5237, "\u0120bitter": 5238, "\u0120nos": 5239, "ension": 5240, "\u0120knee": 5241, "\u0120haters": 5242, "\u0120approach": 5243, "\u0120aim": 5244, "\u0120bitches": 5245, "\u0120shitty": 5246, "\u0120connection": 5247, "\u0120enter": 5248, "ustry": 5249, "\u0120pool": 5250, "pts": 5251, "\u0120pig": 5252, "\u0120chicago": 5253, "\u0120nigeria": 5254, "vp": 5255, "\u0120ip": 5256, "\u0120bike": 5257, "\u0120led": 5258, "\u0120highest": 5259, "yourself": 5260, "\u0120dise": 5261, "ruct": 5262, "\u0120fish": 5263, "\u0120diss": 5264, "\u0120mentally": 5265, "\u0120barcelona": 5266, "\u0120ik": 5267, "\u0120fears": 5268, "reading": 5269, "mony": 5270, "\u0120trigger": 5271, "akers": 5272, "\u0120alarm": 5273, "\u0120profile": 5274, "\u0120french": 5275, "\u0120drug": 5276, "\u0120perhaps": 5277, "atar": 5278, "\u0120inspiring": 5279, "music": 5280, "\u0120ira": 5281, "\u0120grant": 5282, "\u0120souls": 5283, "\u0120fml": 5284, "\u0120doors": 5285, "\u0120frm": 5286, "check": 5287, "05": 5288, "cur": 5289, "\u0120uses": 5290, "\u0120launch": 5291, "\u0120honesty": 5292, "\u0120succeed": 5293, "\u0120math": 5294, "\u0120narr": 5295, "\u0120disaster": 5296, "\u0120holidays": 5297, "\u0120dignity": 5298, "\u0120defeat": 5299, "\u0120painful": 5300, "\u0120outr": 5301, "\u0120october": 5302, "\u0120gam": 5303, "\u0120tht": 5304, "\u0120vill": 5305, "\u0120nazi": 5306, "\u0120rough": 5307, "iveness": 5308, "\u0120unfollow": 5309, "\u0120dating": 5310, "\u0120buck": 5311, "\u0120arrived": 5312, "tom": 5313, "\u0120lapt": 5314, "\u0120nail": 5315, "ression": 5316, "nie": 5317, "remac": 5318, "\u0120tend": 5319, "\u0120batter": 5320, "went": 5321, "iles": 5322, "ilities": 5323, "\u0120tune": 5324, "\u0120domestic": 5325, "\u0120animal": 5326, "better": 5327, "cer": 5328, "\u0120rd": 5329, "\u0120charged": 5330, "\u0120kitchen": 5331, "\u0120prefer": 5332, "\u0120cud": 5333, "\u0120believes": 5334, "lor": 5335, "\u0120cats": 5336, "also": 5337, "\u0120aka": 5338, "\u0120limit": 5339, "\u0120meal": 5340, "\u0120gross": 5341, "\u0120insult": 5342, "\u0120harm": 5343, "abs": 5344, "lymp": 5345, "\u0120announce": 5346, "\u0120nar": 5347, "\u0120beast": 5348, "\u0120surgery": 5349, "\u0120possibly": 5350, "\u0120restaur": 5351, "whel": 5352, "\u0120counter": 5353, "\u0120asshole": 5354, "\u0120shad": 5355, "\u0120strate": 5356, "\u0120finals": 5357, "\u0120medic": 5358, "\u0120sisters": 5359, "baby": 5360, "bad": 5361, "\u0120sessions": 5362, "\u0120dent": 5363, "isa": 5364, "\u0120famous": 5365, "fits": 5366, "\u0120hou": 5367, "\u0120fu": 5368, "\u0120rally": 5369, "\u0120mam": 5370, "urt": 5371, "\u0120display": 5372, "\u0120charity": 5373, "take": 5374, "\u0120rog": 5375, "\u0120korea": 5376, "\u0120voc": 5377, "\u0120goodmorning": 5378, "estyle": 5379, "\u0120veh": 5380, "\u0120para": 5381, "\u0120distur": 5382, "won": 5383, "80": 5384, "rid": 5385, "agement": 5386, "soci": 5387, "cape": 5388, "\u0120immediately": 5389, "\u0120thom": 5390, "athers": 5391, "\u0120creating": 5392, "\u0120lyr": 5393, "\u0120shake": 5394, "\u0120zone": 5395, "\u0120shairi": 5396, "\u0120medical": 5397, "\u0120award": 5398, "\u0120boxing": 5399, "\u0120fle": 5400, "\u0120kidding": 5401, "\u0120glor": 5402, "\u0120drivers": 5403, "bey": 5404, "\u0120florida": 5405, "\u0120industry": 5406, "\u0120multiple": 5407, "\u0120stands": 5408, "\u0120neighbor": 5409, "\u0120libr": 5410, "story": 5411, "\u0120scen": 5412, "\u0120schools": 5413, "\u0120ads": 5414, "\u0120steve": 5415, "\u0120unfortunately": 5416, "\u0120fruit": 5417, "fear": 5418, "\u0120fought": 5419, "ili": 5420, "\u0120300": 5421, "\u0120accounts": 5422, "\u0120blank": 5423, "greg": 5424, "bir": 5425, "dad": 5426, "\u0120tay": 5427, "getting": 5428, "\u0120killer": 5429, "bec": 5430, "\u0120herself": 5431, "cd": 5432, "\u0120propag": 5433, "ef": 5434, "inter": 5435, "\u0120harry": 5436, "\u0120tort": 5437, "congr": 5438, "\u0120vile": 5439, "\u0120disney": 5440, "\u0120contro": 5441, "\u0120reminds": 5442, "\u0120reporting": 5443, "onsense": 5444, "\u0120levels": 5445, "america": 5446, "\u0120tragedy": 5447, "\u0120cards": 5448, "\u0120episodes": 5449, "\u0120screaming": 5450, "\u0120wil": 5451, "\u0120opposite": 5452, "\u0120cabin": 5453, "abe": 5454, "ahh": 5455, "\u0120senate": 5456, "\u0120isa": 5457, "ander": 5458, "\u0120alot": 5459, "\u0120partner": 5460, "thinking": 5461, "\u0120ga": 5462, "need": 5463, "\u0120condition": 5464, "\u0120smiles": 5465, "\u0120gentle": 5466, "reg": 5467, "aham": 5468, "\u0120norm": 5469, "\u0120signs": 5470, "\u0120employees": 5471, "\u0120acknow": 5472, "\u0120atm": 5473, "\u0120badly": 5474, "\u0120concerned": 5475, "\u0120mary": 5476, "\u0120thx": 5477, "\u0120wide": 5478, "\u0120whilst": 5479, "\u0120passing": 5480, "cohol": 5481, "\u0120destiny": 5482, "antly": 5483, "\u0120altern": 5484, "\u0120awareness": 5485, "\u0120renew": 5486, "gi": 5487, "oned": 5488, "\u0120cruel": 5489, "ophy": 5490, "\u0120regardless": 5491, "\u0120tight": 5492, "\u0120greed": 5493, "\u0120miser": 5494, "\u0120dod": 5495, "\u0120faithful": 5496, "99": 5497, "\u0120il": 5498, "alert": 5499, "\u0120tra": 5500, "\u0120skills": 5501, "\u0120hanging": 5502, "\u0120scifi": 5503, "\u0120suppose": 5504, "aint": 5505, "ua": 5506, "\u0120stood": 5507, "seriously": 5508, "\u0120platform": 5509, "\u0120object": 5510, "\u0120hurting": 5511, "\u0120fbi": 5512, "\u0120necessary": 5513, "\u0120bug": 5514, "\u0120related": 5515, "\u0120contract": 5516, "\u0120captain": 5517, "\u0120tear": 5518, "russia": 5519, "\u0120whites": 5520, "ghan": 5521, "\u0120stops": 5522, "\u0120tweeted": 5523, "55": 5524, "itar": 5525, "aware": 5526, "\u0120kingdom": 5527, "\u0120equal": 5528, "iron": 5529, "68": 5530, "\u0120sr": 5531, "ieved": 5532, "\u0120whenever": 5533, "\u0120collect": 5534, "02": 5535, "\u0120reports": 5536, "\u0120nu": 5537, "\u0120faces": 5538, "\u0120cell": 5539, "\u0120therapy": 5540, "\u0120basic": 5541, "\u0120thursdaythoughts": 5542, "\u0120condemn": 5543, "\u0120cc": 5544, "\u0120poem": 5545, "\u0120buff": 5546, "\u0120prover": 5547, "\u0120prevent": 5548, "hrs": 5549, "put": 5550, "\u0120ages": 5551, "\u0120assist": 5552, "\u0120budget": 5553, "\u0120fulfill": 5554, "57": 5555, "\u0120basketball": 5556, "\u0120reflect": 5557, "mys": 5558, "\u0120pee": 5559, "\u0120listened": 5560, "\u0120bills": 5561, "\u0120average": 5562, "\u0120silly": 5563, "pective": 5564, "\u0120capt": 5565, "\u0120arrested": 5566, "char": 5567, "conf": 5568, "\u0120labour": 5569, "\u0120hen": 5570, "usive": 5571, "\u0120core": 5572, "vd": 5573, "\u0120chest": 5574, "\u0120goodnight": 5575, "shout": 5576, "\u0120causes": 5577, "\u0120dict": 5578, "\u0120__": 5579, "\u0120domin": 5580, "\u0120rum": 5581, "\u0120prime": 5582, "\u0120mater": 5583, "\u0120finger": 5584, "oms": 5585, "\u0120impeachtrump": 5586, "\u0120sacrifice": 5587, "\u0120mand": 5588, "\u0120uh": 5589, "\u0120caring": 5590, "\u0120laptop": 5591, "nbc": 5592, "\u0120nick": 5593, "omn": 5594, "\u0120japan": 5595, "\u0120chaos": 5596, "\u0120spons": 5597, "\u0120phones": 5598, "\u0120karma": 5599, "\u0120promote": 5600, "\u0120germany": 5601, "\u0120whoever": 5602, "apping": 5603, "\u0120mobile": 5604, "28": 5605, "\u0120bum": 5606, "\u0120dt": 5607, "elove": 5608, "ulting": 5609, "\u0120expecting": 5610, "\u0120describe": 5611, "\u0120unable": 5612, "aries": 5613, "those": 5614, "\u0120mondaymotivation": 5615, "\u0120embrace": 5616, "\u0120aa": 5617, "\u0120checked": 5618, "\u0120ig": 5619, "loss": 5620, "\u0120clock": 5621, "train": 5622, "\u0120pock": 5623, "\u0120prepared": 5624, "pting": 5625, "\u0120era": 5626, "\u0120wednesdaywisdom": 5627, "\u0120hashtag": 5628, "log": 5629, "\u0120monster": 5630, "hill": 5631, "mate": 5632, "\u0120named": 5633, "\u0120upload": 5634, "\u0120nowhere": 5635, "\u0120resol": 5636, "boys": 5637, "power": 5638, "\u0120suit": 5639, "\u0120covered": 5640, "\u0120ss": 5641, "\u0120shine": 5642, "ager": 5643, "\u0120os": 5644, "\u0120mostly": 5645, "\u0120opinions": 5646, "\u0120prosper": 5647, "\u0120document": 5648, "met": 5649, "\u0120ship": 5650, "\u0120petty": 5651, "strong": 5652, "\u0120martin": 5653, "\u0120bay": 5654, "\u0120hiding": 5655, "\u0120alt": 5656, "\u0120alert": 5657, "iversary": 5658, "\u0120hid": 5659, "\u0120depl": 5660, "\u0120lyrics": 5661, "\u0120alcohol": 5662, "\u0120virgin": 5663, "\u0120stone": 5664, "\u0120definition": 5665, "\u0120bullying": 5666, "movie": 5667, "\u0120pair": 5668, "\u0120autom": 5669, "\u0120sigh": 5670, "\u0120prayfor": 5671, "wich": 5672, "\u0120gi": 5673, "\u0120conqu": 5674, "listening": 5675, "\u0120parking": 5676, "\u0120consum": 5677, "\u0120confir": 5678, "\u0120rs": 5679, "\u0120chair": 5680, "\u0120sadness": 5681, "ancy": 5682, "\u0120schedule": 5683, "\u0120fame": 5684, "\u0120fallen": 5685, "\u0120embarrassed": 5686, "\u0120:'": 5687, "\u0120mock": 5688, "\u0120products": 5689, "\u0120circumstances": 5690, "eal": 5691, "ios": 5692, "\u0120bast": 5693, "\u0120reject": 5694, "ounce": 5695, "athon": 5696, "\u0120incompet": 5697, "\u0120rant": 5698, "fire": 5699, "town": 5700, "\u0120publ": 5701, "iders": 5702, "\u0120overwhel": 5703, "trust": 5704, "\u0120cheat": 5705, "\u0120equality": 5706, "\u0120suspect": 5707, "\u0120parts": 5708, "\u0120josh": 5709, "ashmir": 5710, "lol": 5711, "\u0120stun": 5712, "\u0120ups": 5713, "ata": 5714, "\u0120satan": 5715, "\u0120homeless": 5716, "\u0120mile": 5717, "thes": 5718, "\u0120irr": 5719, "\u0120arsenal": 5720, "bury": 5721, "acare": 5722, "\u0120crisis": 5723, "raft": 5724, "\u0120entrepreneur": 5725, "\u0120feat": 5726, "oric": 5727, "friends": 5728, "\u0120unbelievable": 5729, "\u0120pill": 5730, "\u0120idol": 5731, "\u0120apply": 5732, "\u0120assault": 5733, "\u0120added": 5734, "bowl": 5735, "\u0120pushing": 5736, "\u0120myster": 5737, "fly": 5738, "\u0120uber": 5739, "\u0120notmy": 5740, "\u0120goodbye": 5741, "\u0120engine": 5742, "oper": 5743, "\u0120download": 5744, "gar": 5745, "\u0120jus": 5746, "\u0120trailer": 5747, "\u0120hockey": 5748, "\u0120australia": 5749, "place": 5750, "\u0120pieces": 5751, "\u0120bell": 5752, "\u0120flood": 5753, "\u0120ay": 5754, "\u0120hilar": 5755, "\u0120rejo": 5756, "\u0120emo": 5757, "\u0120fingers": 5758, "control": 5759, "cut": 5760, "lay": 5761, "\u0120sake": 5762, "\u0120nations": 5763, "\u0120chem": 5764, "ception": 5765, "lies": 5766, "\u0120wars": 5767, "\u0120hated": 5768, "\u0120hating": 5769, "\u0120honey": 5770, "lear": 5771, "\u0120deserved": 5772, "\u0120streets": 5773, "saw": 5774, "oston": 5775, "\u0120guide": 5776, "\u0120react": 5777, "\u0120aff": 5778, "\u0120allowing": 5779, "pir": 5780, "\u0120fel": 5781, "\u0120olymp": 5782, "\u0120grief": 5783, "\u0120depart": 5784, "\u0120plant": 5785, "\u0120click": 5786, "\u0120confirm": 5787, "cor": 5788, "\u0120ire": 5789, "\u0120poke": 5790, "\u0120kicked": 5791, "\u0120jay": 5792, "\u0120highly": 5793, "\u0120boycott": 5794, "\u0120destroyed": 5795, "\u0120vul": 5796, "\u0120stranger": 5797, "\u0120empower": 5798, "idency": 5799, "\u0120setting": 5800, "\u0120antifa": 5801, "\u0120wifi": 5802, "\u0120biz": 5803, "\u0120cart": 5804, "\u0120xmas": 5805, "\u0120desk": 5806, "\u0120atl": 5807, "abia": 5808, "\u0120charlie": 5809, "dep": 5810, "\u0120justin": 5811, "\u0120therefore": 5812, "\u0120ew": 5813, "prom": 5814, "\u0120diet": 5815, "uma": 5816, "\u0120bush": 5817, "suit": 5818, "cas": 5819, "\u0120wk": 5820, "birth": 5821, "spe": 5822, "\u0120bump": 5823, "ils": 5824, "ples": 5825, "\u0120minister": 5826, "\u0120nuc": 5827, "\u0120reaction": 5828, "\u0120tips": 5829, "\u0120cleaning": 5830, "\u0120houston": 5831, "\u0120ilove": 5832, "iling": 5833, "\u0120upgr": 5834, "child": 5835, "india": 5836, "owers": 5837, "\u0120alm": 5838, "\u0120scam": 5839, "\u0120shoulder": 5840, "\u0120hardest": 5841, "bro": 5842, "\u0120porn": 5843, "\u0120jers": 5844, "guys": 5845, "\u0120button": 5846, "star": 5847, "ormo": 5848, "\u0120forgotten": 5849, "\u0120survive": 5850, "\u0120migr": 5851, "agn": 5852, "\u0120optim": 5853, "\u0120bound": 5854, "\u0120relief": 5855, "\u0120distract": 5856, "\u0120companies": 5857, "33": 5858, "woke": 5859, "\u0120doctors": 5860, "\u0120chelse": 5861, "fan": 5862, "\u0120clar": 5863, "\u0120adults": 5864, "\u0120windows": 5865, "ointing": 5866, "\u0120endless": 5867, "\u0120dnt": 5868, "ula": 5869, "\u0120flash": 5870, "\u0120edit": 5871, "verse": 5872, "ummy": 5873, "\u0120congratulations": 5874, "would": 5875, "\u0120claims": 5876, "\u0120disagree": 5877, "\u0120ic": 5878, "\u0120spoon": 5879, "\u0120locked": 5880, "\u0120hous": 5881, "\u0120warning": 5882, "ugh": 5883, "\u0120trick": 5884, "undred": 5885, "feel": 5886, "\u0120affected": 5887, "\u0120topic": 5888, "\u0120supporter": 5889, "\u0120chapter": 5890, "net": 5891, "\u0120virt": 5892, "bert": 5893, "break": 5894, "rick": 5895, "\u0120vet": 5896, "\u0120cuts": 5897, "\u00e0\u00b8": 5898, "\u0120bpd": 5899, "\u0120spider": 5900, "\u0120twitch": 5901, "\u0120excuses": 5902, "\u0120slowly": 5903, "\u0120delete": 5904, "dead": 5905, "\u0120iam": 5906, "\u0120bern": 5907, "\u0120horrormo": 5908, "arant": 5909, "\u012033": 5910, "\u0120scott": 5911, "\u0120peaceful": 5912, "\u0120similar": 5913, "\u0120saving": 5914, "\u0120nam": 5915, "67": 5916, "vest": 5917, "53": 5918, "\u0120butter": 5919, "made": 5920, "\u0120emerg": 5921, "\u0120damage": 5922, "\u0120haw": 5923, "funny": 5924, "\u0120tf": 5925, "\u0120promot": 5926, "\u0120begins": 5927, "\u0120violent": 5928, "\u0120couch": 5929, "\u0120ros": 5930, "\u0120moves": 5931, "\u0120embarrassment": 5932, "\u0120removed": 5933, "\u0120bub": 5934, "\u0120todd": 5935, "\u0120deg": 5936, "\u0120image": 5937, "\u0120candidate": 5938, "\u0120pp": 5939, "\u0120trumprussia": 5940, "\u0120contrib": 5941, "\u0120obsessed": 5942, "\u0120lifetime": 5943, "bi": 5944, "\u0120sla": 5945, "works": 5946, "\u0120moral": 5947, "\u0120committed": 5948, "\u0120accomplish": 5949, "\u0120youn": 5950, "\u0120golden": 5951, "\u0120intelligence": 5952, "\u0120rent": 5953, "ola": 5954, "\u0120nuclear": 5955, "inch": 5956, "\u0120democrat": 5957, "reme": 5958, "\u0120enemies": 5959, "\u0120wing": 5960, "\u0120laughter": 5961, "\u0120disabled": 5962, "\u0120auspol": 5963, "49": 5964, "inth": 5965, "\u0120firm": 5966, "ights": 5967, "\u0120swed": 5968, "\u0120accepted": 5969, "\u0120zombie": 5970, "\u0120gaming": 5971, "\u0120hitting": 5972, "\u0120yep": 5973, "ables": 5974, "\u0120qatar": 5975, "\u0120fridayfeeling": 5976, "\u0120saudi": 5977, "\u0120propaganda": 5978, "omnia": 5979, "\u0120perspective": 5980, "\u0120traitor": 5981, "\u0120nov": 5982, "\u0120mission": 5983, "nat": 5984, "\u0120hundred": 5985, "\u012048": 5986, "\u0120curious": 5987, "\u0120airl": 5988, "\u0120luke": 5989, "51": 5990, "\u0120gifts": 5991, "ette": 5992, "\u0120certainly": 5993, "\u0120typical": 5994, "ris": 5995, "\u0120theat": 5996, "ccer": 5997, "bridge": 5998, "\u0120patriot": 5999, "\u0120september": 6000, "\u0120obamacare": 6001, "vibes": 6002, "\u0120island": 6003, "\u0120nonsense": 6004, "\u0120anniversary": 6005, "\u0120believed": 6006, "\u0120symp": 6007, "\u0120reminder": 6008, "alty": 6009, "assho": 6010, "\u0120bold": 6011, "\u0120strike": 6012, "\u0120ears": 6013, "\u0120classes": 6014, "\u0120environ": 6015, "wel": 6016, "\u0120ct": 6017, "\u0120kashmir": 6018, "\u0120bigly": 6019, "sequ": 6020, "\u0120apology": 6021, "\u0120deny": 6022, "\u0120logic": 6023, "\u0120bags": 6024, "\u0120citizen": 6025, "tonight": 6026, "acon": 6027, "\u0120africa": 6028, "\u0120hilarious": 6029, "\u0120tak": 6030, "anx": 6031, "\u0120jones": 6032, "\u0120confl": 6033, "\u0120paran": 6034, "\u0120sym": 6035, "\u0120sink": 6036, "\u0120meat": 6037, "quest": 6038, "\u0120scot": 6039, "rupt": 6040, "reck": 6041, "\u0120cum": 6042, "\u0120funding": 6043, "\u0120bird": 6044, "\u0120199": 6045, "\u0120walks": 6046, "\u0120harass": 6047, "\u0120soldiers": 6048, "\u0120gate": 6049, "\u0120childhood": 6050, "\u0120centre": 6051, "78": 6052, "\u0120boston": 6053, "\u0120agent": 6054, "\u0120bh": 6055, "\u0120bia": 6056, "\u0120celebrating": 6057, "za": 6058, "\u0120tact": 6059, "\u0120pence": 6060, "\u0120although": 6061, "\u0120disease": 6062, "ura": 6063, "peace": 6064, "\u0120christianity": 6065, "girls": 6066, "\u0120afghan": 6067, "\u0120privile": 6068, "\u0120duty": 6069, "bus": 6070, "\u0120ray": 6071, "\u0120jeff": 6072, "tar": 6073, "\u0120ali": 6074, "\u0120lifestyle": 6075, "\u0120restaurant": 6076, "\u0120injury": 6077, "exc": 6078, "\u0120nails": 6079, "front": 6080, "\u0120yea": 6081, "\u0120audience": 6082, "\u0120impressed": 6083, "\u0120sack": 6084, "owing": 6085, "\u0120jon": 6086, "\u0120nove": 6087, "\u0120sugar": 6088, "american": 6089, "ogy": 6090, "\u0120romans": 6091, "\u0120kl": 6092, "\u0120retire": 6093, "\u0120turkey": 6094, "\u0120individual": 6095, "29": 6096, "\u0120tries": 6097, "agic": 6098, "\u0120femin": 6099, "\u0120boot": 6100, "\u0120tie": 6101, "\u0120mp": 6102, "outs": 6103, "\u0120pink": 6104, "\u0120odd": 6105, "class": 6106, "antic": 6107, "\u0120blah": 6108, "\u0120cher": 6109, "anced": 6110, "70": 6111, "\u0120package": 6112, "\u0120dey": 6113, "ibr": 6114, "\u0120movement": 6115, "\u0120properly": 6116, "\u0120subst": 6117, "\u0120msnbc": 6118, "\u0120dies": 6119, "\u0120oce": 6120, "\u0120budd": 6121, "\u0120var": 6122, "\u0120presidency": 6123, "\u0120ted": 6124, "then": 6125, "mers": 6126, "\u0120gur": 6127, "iber": 6128, "\u0120drain": 6129, "\u0120worrying": 6130, "\u0120spreading": 6131, "gg": 6132, "\u0120picking": 6133, "\u0120attract": 6134, "gment": 6135, "ths": 6136, "\u0120miserable": 6137, "\u0120gm": 6138, "\u0120dope": 6139, "ched": 6140, "\u0120shots": 6141, "pper": 6142, "\u012001": 6143, "izes": 6144, "\u0120pero": 6145, "\u0120horse": 6146, "\u0120heading": 6147, "\u0120screw": 6148, "breaking": 6149, "\u0120location": 6150, "\u0120alle": 6151, "\u0120roof": 6152, "\u0120degree": 6153, "\u0120troll": 6154, "rets": 6155, "unes": 6156, "\u0120craw": 6157, "watched": 6158, "\u0120brut": 6159, "\u0120shocking": 6160, "\u0120scare": 6161, "\u0120escape": 6162, "\u0120environment": 6163, "\u0120liars": 6164, "\u0120label": 6165, "\u0120nazis": 6166, "inely": 6167, "\u0120cousin": 6168, "imag": 6169, "\u0120slight": 6170, "\u0120trusting": 6171, "\u0120transfer": 6172, "\u0120hypocrite": 6173, "\u0120encourage": 6174, "\u0120nhs": 6175, "\u0120holds": 6176, "brews": 6177, "\u0120management": 6178, "cm": 6179, "dream": 6180, "ups": 6181, "\u0120beliefs": 6182, "\u0120hateful": 6183, "gypt": 6184, "\u0120competition": 6185, "\u0120patriots": 6186, "\u0120sel": 6187, "\u0120dip": 6188, "\u0120branch": 6189, "azing": 6190, "\u0120cutting": 6191, "\u0120arrog": 6192, "john": 6193, "bie": 6194, "\u0120nurs": 6195, "etr": 6196, "acc": 6197, "\u0120exhausted": 6198, "\u0120outta": 6199, "\u0120uncle": 6200, "\u0120aca": 6201, "\u0120unique": 6202, "\u0120sore": 6203, "\u0120divine": 6204, "\u0120genuine": 6205, "\u0120gender": 6206, "\u0120rare": 6207, "\u0120span": 6208, "\u0120productive": 6209, "\u0120bom": 6210, "\u0120pil": 6211, "\u0120client": 6212, "\u0120superbowl": 6213, "\u0120dollars": 6214, "75": 6215, "zer": 6216, "otd": 6217, "\u0120clim": 6218, "\u0120mexico": 6219, "\u0120presidential": 6220, "\u0120thomas": 6221, "\u0120bod": 6222, "\u0120notsorry": 6223, "\u0120workers": 6224, "\u0120stayed": 6225, "\u0120iraq": 6226, "since": 6227, "\u0120warn": 6228, "\u0120shape": 6229, "\u0120associ": 6230, "\u0120guarant": 6231, "\u0120discip": 6232, "\u0120elder": 6233, "\u0120bak": 6234, "ibe": 6235, "\u0120mighty": 6236, "women": 6237, "\u0120aj": 6238, "\u0120foundation": 6239, "\u0120bannon": 6240, "\u0120narc": 6241, "03": 6242, "\u0120witch": 6243, "\u0120preach": 6244, "uj": 6245, "\u0120plenty": 6246, "\u0120appointment": 6247, "\u0120toward": 6248, "ashing": 6249, "\u0120predict": 6250, "working": 6251, "\u0120empathy": 6252, "season": 6253, "\u0120bridge": 6254, "\u0120economy": 6255, "\u0120cs": 6256, "\u0120follows": 6257, "\u0120sunny": 6258, "\u0120capital": 6259, "\u0120cure": 6260, "\u0120thro": 6261, "\u0120harvey": 6262, "two": 6263, "\u0120mak": 6264, "\u012032": 6265, "icit": 6266, "haw": 6267, "\u0120xbox": 6268, "\u0120robert": 6269, "uals": 6270, "ini": 6271, "\u0120asap": 6272, "\u0120resc": 6273, "ania": 6274, "weather": 6275, "\u0120benefit": 6276, "make": 6277, "\u0120precious": 6278, "\u0120buzz": 6279, "\u0120contest": 6280, "\u0120stalk": 6281, "phones": 6282, "\u0120mentalillness": 6283, "\u0120debt": 6284, "\u0120recognize": 6285, "\u0120youre": 6286, "uced": 6287, "\u0120division": 6288, "\u0120mama": 6289, "\u0120messed": 6290, "nis": 6291, "\u0120thee": 6292, "\u0120insomnia": 6293, "\u0120facing": 6294, "\u0120canadian": 6295, "\u0120careful": 6296, "rum": 6297, "\u0120weed": 6298, "\u0120divide": 6299, "final": 6300, "\u0120returns": 6301, "\u0120senior": 6302, "\u0120organization": 6303, "eng": 6304, "\u0120rage": 6305, "\u0120heck": 6306, "\u0120owner": 6307, "dles": 6308, "yi": 6309, "icing": 6310, "\u0120remembered": 6311, "\u0120hopes": 6312, "ially": 6313, "ifest": 6314, "\u0120mn": 6315, "\u0120rot": 6316, "\u0120highlight": 6317, "\u0120disrespectful": 6318, "fu": 6319, "iat": 6320, "aces": 6321, "\u0120org": 6322, "\u0120egypt": 6323, "\u0120ahh": 6324, "\u0120library": 6325, "\u0120effective": 6326, "maybe": 6327, "\u0120bust": 6328, "\u0120reached": 6329, "\u0120seeking": 6330, "gia": 6331, "\u0120tan": 6332, "\u0120trumpcare": 6333, "\u0120bread": 6334, "\u0120drinks": 6335, "\u0120attacked": 6336, "\u0120tack": 6337, "\u0120hust": 6338, "\u0120kay": 6339, "\u0120smoking": 6340, "tin": 6341, "\u0120bj": 6342, "\u0120reven": 6343, "azz": 6344, "\u0120causing": 6345, "\u0120ignored": 6346, "\u0120officer": 6347, "\u0120fools": 6348, "\u0120sigalert": 6349, "bal": 6350, "jud": 6351, "iece": 6352, "\u0120advance": 6353, "\u0120experienced": 6354, "\u0120ou": 6355, "\u0120friendly": 6356, "agon": 6357, "arts": 6358, "\u0120moms": 6359, "\u0120mort": 6360, "ropri": 6361, "\u0120genius": 6362, "\u0120considered": 6363, "\u0120veterans": 6364, "\u0120finan": 6365, "\u0120recover": 6366, "olen": 6367, "\u0120hypocrisy": 6368, "idering": 6369, "\u0120spoken": 6370, "kids": 6371, "mic": 6372, "igma": 6373, "\u0120matthew": 6374, "\u0120repeal": 6375, "\u0120weapons": 6376, "\u0120agreed": 6377, "matter": 6378, "pret": 6379, "oll": 6380, "\u0120personally": 6381, "city": 6382, "lock": 6383, "pass": 6384, "\u0120tele": 6385, "\u0120esc": 6386, "\u0120miracle": 6387, "\u0120emergency": 6388, "\u0120hm": 6389, "avs": 6390, "\u0120solo": 6391, "\u0120betray": 6392, "\u0120standard": 6393, "\u0120soccer": 6394, "\u0120defending": 6395, "\u0120lessons": 6396, "\u0120sd": 6397, "\u0120everytime": 6398, "\u0120grew": 6399, "\u0120counting": 6400, "\u012036": 6401, "\u0120auto": 6402, "\u0120edge": 6403, "\u0120corpor": 6404, "\u0120jersey": 6405, "bor": 6406, "\u0120thou": 6407, "\u0120legacy": 6408, "\u0120checking": 6409, "\u0120complaining": 6410, "\u0120beating": 6411, "\u0120hurry": 6412, "kins": 6413, "\u0120dnc": 6414, "expect": 6415, "\u0120arrive": 6416, "\u0120198": 6417, "onc": 6418, "kill": 6419, "money": 6420, "attacks": 6421, "\u0120activity": 6422, "\u0120serving": 6423, "\u0120estab": 6424, "\u0120naked": 6425, "\u0120boom": 6426, "\u0120treason": 6427, "\u0120eternal": 6428, "hs": 6429, "hat": 6430, "\u0120pad": 6431, "\u0120forces": 6432, "\u0120transform": 6433, "\u0120approval": 6434, "\u0120paypig": 6435, "\u0120fathers": 6436, "force": 6437, "\u0120birds": 6438, "ibl": 6439, "\u0120continu": 6440, "\u0120regarding": 6441, "\u0120tory": 6442, "aca": 6443, "\u0120econom": 6444, "\u0120shared": 6445, "\u0120delus": 6446, "ju": 6447, "\u0120offered": 6448, "\u0120humor": 6449, "\u0120loveis": 6450, "\u0120resident": 6451, "esa": 6452, "\u0120appears": 6453, "\u0120artists": 6454, "\u0120weakness": 6455, "icles": 6456, "\u0120godbless": 6457, "roll": 6458, "\u0120convinc": 6459, "\u0120benefits": 6460, "done": 6461, "orial": 6462, "\u0120pastor": 6463, "\u0120ult": 6464, "\u0120hw": 6465, "\u0120notes": 6466, "\u0120passen": 6467, "crimin": 6468, "ological": 6469, "\u0120midnight": 6470, "\u0120bias": 6471, "\u0120wheel": 6472, "yl": 6473, "04": 6474, "\u0120served": 6475, "healthday": 6476, "\u0120ren": 6477, "\u0120crimes": 6478, "\u0120isnt": 6479, "horr": 6480, "lad": 6481, "\u0120dust": 6482, "acity": 6483, "\u0120burning": 6484, "mission": 6485, "\u0120refugees": 6486, "\u0120tong": 6487, "\u0120ot": 6488, "itate": 6489, "\u0120assume": 6490, "\u0120extreme": 6491, "\u0120slept": 6492, "\u0120rank": 6493, "\u0120yourselves": 6494, "byn": 6495, "\u0120iron": 6496, "\u0120error": 6497, "\u0120unhappy": 6498, "\u0120profit": 6499, "males": 6500, "\u0120surviv": 6501, "\u0120\u00e2\u0122": 6502, "\u0120sympt": 6503, "school": 6504, "\u0120proph": 6505, "\u0120una": 6506, "\u0120proven": 6507, "\u0120chelsea": 6508, "bish": 6509, "\u0120devast": 6510, "\u0120jio": 6511, "\u0120valid": 6512, "foot": 6513, "\u0120hubby": 6514, "\u0120lic": 6515, "\u0120worries": 6516, "edge": 6517, "\u0120university": 6518, "\u0120urself": 6519, "\u0120repor": 6520, "\u0120sorrow": 6521, "\u0120ft": 6522, "par": 6523, "vis": 6524, "\u0120beats": 6525, "inese": 6526, "\u0120marketing": 6527, "called": 6528, "sure": 6529, "\u0120obser": 6530, "\u0120cooking": 6531, "\u0120mrs": 6532, "ican": 6533, "\u0120elimin": 6534, "twitter": 6535, "\u0120bigotry": 6536, "\u0120thousands": 6537, "\u0120proverbs": 6538, "rent": 6539, "\u0120smith": 6540, "06": 6541, "\u0120parenting": 6542, "\u0120conservative": 6543, "\u0120influence": 6544, "\u0120theme": 6545, "\u0120falls": 6546, "viour": 6547, "\u0120apartment": 6548, "illa": 6549, "\u0120dot": 6550, "istry": 6551, "\u0120ceo": 6552, "hy": 6553, "\u0120tac": 6554, "\u0120vent": 6555, "\u012037": 6556, "yer": 6557, "\u0120orders": 6558, "\u0120fave": 6559, "pro": 6560, "36": 6561, "pat": 6562, "accept": 6563, "\u0120plot": 6564, "\u0120thrown": 6565, "anka": 6566, "\u0120circle": 6567, "\u0120border": 6568, "\u0120intention": 6569, "\u0120mumb": 6570, "\u0120oops": 6571, "obs": 6572, "\u0120realised": 6573, "words": 6574, "\u0120comfortable": 6575, "top": 6576, "\u0120pac": 6577, "antage": 6578, "\u0120timing": 6579, "\u0120scand": 6580, "\u0120hood": 6581, "ches": 6582, "\u0120blaming": 6583, "\u0120scum": 6584, "next": 6585, "\u0120irish": 6586, "\u0120whis": 6587, "\u0120lee": 6588, "\u0120squad": 6589, "\u0120younger": 6590, "\u0120rug": 6591, "\u0120buddy": 6592, "mi": 6593, "\u0120chase": 6594, "orders": 6595, "\u0120mountain": 6596, "fight": 6597, "rey": 6598, "\u0120stor": 6599, "\u0120greatness": 6600, "worth": 6601, "\u0120solve": 6602, "\u0120ultimate": 6603, "tv": 6604, "vent": 6605, "\u0120jun": 6606, "\u0120peop": 6607, "\u0120officers": 6608, "\u0120unfair": 6609, "road": 6610, "\u0120existence": 6611, "alian": 6612, "\u0120terms": 6613, "\u0120sons": 6614, "\u0120eve": 6615, "\u0120pub": 6616, "\u0120eid": 6617, "quotes": 6618, "honest": 6619, "anxiety": 6620, "\u0120below": 6621, "\u0120parties": 6622, "cil": 6623, "\u0120morn": 6624, "\u0120reported": 6625, "\u0120investigation": 6626, "\u0120tx": 6627, "\u0120ell": 6628, "\u0120wester": 6629, "\u0120ord": 6630, "\u0120fins": 6631, "\u0120wb": 6632, "\u0120wire": 6633, "\u0120nep": 6634, "\u0120deeply": 6635, "\u0120donaldtrump": 6636, "\u0120bio": 6637, "\u0120abc": 6638, "\u0120cru": 6639, "\u0120resistance": 6640, "\u0120wth": 6641, "\u0120chuck": 6642, "\u0120celebrities": 6643, "\u0120valentines": 6644, "jv": 6645, "\u0120candy": 6646, "\u0120seed": 6647, "unders": 6648, "\u0120expensive": 6649, "luck": 6650, "\u0120seasons": 6651, "\u0120snowfl": 6652, "wen": 6653, "ously": 6654, "\u0120harmony": 6655, "\u0120disgusted": 6656, "onto": 6657, "isc": 6658, "\u0120reli": 6659, "aughters": 6660, "\u0120cinem": 6661, "\u0120background": 6662, "\u0120patients": 6663, "\u0120err": 6664, "\u0120homes": 6665, "\u0120tribute": 6666, "ni": 6667, "\u0120supports": 6668, "everything": 6669, "\u0120festival": 6670, "\u0120narciss": 6671, "dess": 6672, "\u0120giant": 6673, "\u0120espn": 6674, "\u0120cough": 6675, "\u0120lean": 6676, "\u0120ideology": 6677, "\u0120november": 6678, "mc": 6679, "\u0120corn": 6680, "\u0120shr": 6681, "\u0120constitution": 6682, "100": 6683, "\u0120mall": 6684, "\u0120bond": 6685, "\u0120reign": 6686, "\u0120thin": 6687, "\u0120loads": 6688, "\u0120washington": 6689, "\u0120items": 6690, "\u0120victor": 6691, "\u0120gig": 6692, "\u0120acce": 6693, "\u0120discovered": 6694, "\u0120wolf": 6695, "\u0120clients": 6696, "\u0120challenges": 6697, "\u0120vehicle": 6698, "bled": 6699, "\u0120tcot": 6700, "\u0120hire": 6701, "\u0120fi": 6702, "\u0120updates": 6703, "\u0120ffs": 6704, "\u0120coast": 6705, "\u0120flip": 6706, "\u0120forgiveness": 6707, "\u0120rejoice": 6708, "\u0120jason": 6709, "\u0120glt": 6710, "\u0120trending": 6711, "\u0120az": 6712, "\u0120blown": 6713, "\u0120settle": 6714, "\u0120reminded": 6715, "mine": 6716, "\u0120sor": 6717, "\u0120hats": 6718, "\u0120technology": 6719, "\u0120tha": 6720, "\u0120sos": 6721, "\u0120bol": 6722, "\u0120unlike": 6723, "\u0120adop": 6724, "\u0120fails": 6725, "\u0120tuned": 6726, "allas": 6727, "\u0120championship": 6728, "call": 6729, "\u0120reh": 6730, "\u0120dropping": 6731, "attle": 6732, "\u0120efforts": 6733, "lan": 6734, "\u0120bk": 6735, "\u012006": 6736, "\u0120suicid": 6737, "\u0120outrage": 6738, "\u0120stole": 6739, "\u0120conscious": 6740, "\u0120inspirational": 6741, "\u0120answered": 6742, "\u0120kicking": 6743, "pan": 6744, "\u0120rio": 6745, "ighty": 6746, "\u0120cra": 6747, "holy": 6748, "\u0120sandwich": 6749, "alley": 6750, "\u0120chinese": 6751, "born": 6752, "cles": 6753, "\u0120liver": 6754, "\u0120function": 6755, "\u0120basis": 6756, "\u0120previous": 6757, "mates": 6758, "\u0120bin": 6759, "\u0120micr": 6760, "aj": 6761, "\u0120ts": 6762, "\u0120lm": 6763, "\u0120kings": 6764, "\u0120select": 6765, "comfort": 6766, "38": 6767, "\u0120hebrews": 6768, "\u0120murdered": 6769, "\u0120particip": 6770, "turn": 6771, "inging": 6772, "\u0120argument": 6773, "birthday": 6774, "\u0120dudes": 6775, "\u0120appl": 6776, "\u0120trains": 6777, "\u0120prepare": 6778, "bon": 6779, "\u0120policies": 6780, "rated": 6781, "\u0120chances": 6782, "\u0120msg": 6783, "\u0120manifest": 6784, "icking": 6785, "\u0120attacking": 6786, "\u0120catching": 6787, "\u0120strategy": 6788, "rep": 6789, "aded": 6790, "\u0120abund": 6791, "\u0120egg": 6792, "nation": 6793, "eness": 6794, "\u0120pages": 6795, "\u0120yu": 6796, "\u0120stolen": 6797, "\u0120hahahaha": 6798, "\u0120complaint": 6799, "\u0120accidentally": 6800, "\u0120bun": 6801, "\u0120drops": 6802, "render": 6803, "\u0120tolerance": 6804, "ila": 6805, "ulate": 6806, "\u0120considering": 6807, "\u0120quoteoftheday": 6808, "wide": 6809, "oker": 6810, "instein": 6811, "\u0120spir": 6812, "cup": 6813, "gassho": 6814, "\u0120nether": 6815, "isn": 6816, "alms": 6817, "berg": 6818, "\u0120finale": 6819, "gb": 6820, "\u0120depends": 6821, "\u0120mlb": 6822, "dont": 6823, "cription": 6824, "\u0120ocean": 6825, "awareness": 6826, "\u0120lag": 6827, "osen": 6828, "\u0120crooked": 6829, "\u0120cabinet": 6830, "\u0120rapp": 6831, "\u0120breathing": 6832, "\u0120heroes": 6833, "ru": 6834, "\u0120obey": 6835, "\u0120peeps": 6836, "\u0120helpful": 6837, "\u0120dollar": 6838, "\u0120:'(": 6839, "\u0120hs": 6840, "nell": 6841, "\u0120placed": 6842, "\u0120init": 6843, "ota": 6844, "\u0120relevant": 6845, "\u0120sham": 6846, "\u0120godislove": 6847, "esy": 6848, "illion": 6849, "\u0120wasting": 6850, "\u0120personality": 6851, "\u0120honour": 6852, "\u0120gltchurch": 6853, "iy": 6854, "\u0120indie": 6855, "\u0120deleted": 6856, "tte": 6857, "\u0120include": 6858, "itis": 6859, "\u0120doc": 6860, "\u0120spain": 6861, "true": 6862, "\u0120situations": 6863, "js": 6864, "sitting": 6865, "ressed": 6866, "\u0120sins": 6867, "\u0120acknowledge": 6868, "\u0120tank": 6869, "state": 6870, "\u0120manip": 6871, "\u0120drove": 6872, "\u0120`": 6873, "\u0120brief": 6874, "\u0120severe": 6875, "\u0120wreck": 6876, "\u0120bah": 6877, "\u0120sentence": 6878, "\u0120communication": 6879, "\u0120elections": 6880, "erto": 6881, "\u0120whit": 6882, "\u0120plain": 6883, "\u0120material": 6884, "\u0120wings": 6885, "hew": 6886, "\u0120task": 6887, "alone": 6888, "\u0120proves": 6889, "\u0120marry": 6890, "\u0120adventure": 6891, "79": 6892, "\u0120delusional": 6893, "ete": 6894, "\u0120worthless": 6895, "\u0120sett": 6896, "\u0120greet": 6897, "\u0120acceptable": 6898, "\u0120closing": 6899, "gregor": 6900, "\u0120isaiah": 6901, "\u0120opens": 6902, "\u0120disappointing": 6903, "\u0120screwed": 6904, "\u0120particular": 6905, "\u0120perfectly": 6906, "\u0120entertainment": 6907, "bucks": 6908, "\u0120mayor": 6909, "\u0120irre": 6910, "\u0120warriors": 6911, "arks": 6912, "\u0120confirmed": 6913, "\u0120(:": 6914, "aws": 6915, "\u0120silver": 6916, "\u0120flights": 6917, "\u0120shel": 6918, "\u0120feature": 6919, "\u0120400": 6920, "\u0120homework": 6921, "\u0120options": 6922, "ooth": 6923, "\u0120thus": 6924, "aper": 6925, "\u0120yellow": 6926, "\u0120medicine": 6927, "fest": 6928, "ography": 6929, "\u0120afghanistan": 6930, "gie": 6931, "utions": 6932, "\u0120goin": 6933, "imum": 6934, "\u0120print": 6935, "\u0120females": 6936, "\u0120sweden": 6937, "pop": 6938, "icable": 6939, "\u0120oscars": 6940, "\u0120nuts": 6941, "ends": 6942, "\u0120babe": 6943, "\u0120absence": 6944, "tomorrow": 6945, "58": 6946, "\u0120invite": 6947, "\u0120alien": 6948, "\u0120owners": 6949, "\u0120assign": 6950, "\u0120paint": 6951, "\u0120eventually": 6952, "\u0120mm": 6953, "\u0120aband": 6954, "\u0120intent": 6955, "\u0120horrormovies": 6956, "acting": 6957, "\u0120stret": 6958, "unte": 6959, "feeding": 6960, "\u0120finds": 6961, "\u0120liking": 6962, "sy": 6963, "\u0120lip": 6964, "\u0120refused": 6965, "itional": 6966, "\u0120shadow": 6967, "\u0120knife": 6968, "earing": 6969, "\u0120cheers": 6970, "\u0120jihad": 6971, "\u0120yan": 6972, "\u0120outcome": 6973, "\u0120und": 6974, "\u0120unite": 6975, "comes": 6976, "\u0120genuinely": 6977, "\u0120wave": 6978, "ading": 6979, "\u0120sheep": 6980, "\u0120laying": 6981, "iana": 6982, "bron": 6983, "\u0120obed": 6984, "\u0120daughters": 6985, "\u0120tooth": 6986, "\u0120flo": 6987, "\u0120tories": 6988, "\u0120aside": 6989, "\u0120experiences": 6990, "sters": 6991, "\u0120):": 6992, "\u0120mixed": 6993, "\u0120cheating": 6994, "\u0120century": 6995, "\u0120biased": 6996, "\u0120punish": 6997, "\u0120playoffs": 6998, "\u0120alternative": 6999, "imagine": 7000, "\u0120tam": 7001, "\u0120faster": 7002, "tood": 7003, "\u0120supported": 7004, "\u0120subscrib": 7005, "\u0120louis": 7006, "oot": 7007, "\u0120lips": 7008, "open": 7009, "\u0120meth": 7010, "\u0120autism": 7011, "\u0120tattoo": 7012, "\u0120len": 7013, "\u0120vibes": 7014, "\u012075": 7015, "\u0120hype": 7016, "\u0120pulling": 7017, "\u0120trem": 7018, "ativity": 7019, "\u0120champions": 7020, "\u0120insecure": 7021, "\u0120mentioned": 7022, "soo": 7023, "\u0120attem": 7024, "\u0120cleared": 7025, "\u0120supremac": 7026, "\u0120bot": 7027, "\u0120ocd": 7028, "\u0120une": 7029, "\u012034": 7030, "\u0120flu": 7031, "\u0120laughed": 7032, "\u0120miracles": 7033, "\u0120william": 7034, "\u0120mour": 7035, "\u0120dub": 7036, "\u0120nk": 7037, "\u0120groc": 7038, "gon": 7039, "\u0120ox": 7040, "asion": 7041, "\u0120spic": 7042, "\u0120december": 7043, "lets": 7044, "\u0120marathon": 7045, "cks": 7046, "eph": 7047, "\u012055": 7048, "\u0120refs": 7049, "\u0120purchase": 7050, "hand": 7051, "\u0120rely": 7052, "adium": 7053, "\u0120african": 7054, "\u0120item": 7055, "uted": 7056, "\u0120trial": 7057, "\u0120guts": 7058, "\u0120drown": 7059, "ophobia": 7060, "\u0120peoples": 7061, "31": 7062, "aire": 7063, "\u0120bts": 7064, "\u0120dil": 7065, "spirit": 7066, "\u0120celebrity": 7067, "\u0120advantage": 7068, "fall": 7069, "\u0120chip": 7070, "\u0120beloved": 7071, "\u0120colour": 7072, "\u0120mask": 7073, "\u0120folk": 7074, "\u0120introd": 7075, "\u0120vulner": 7076, "\u0120mun": 7077, "\u0120concept": 7078, "\u0120immigrants": 7079, "\u0120hidden": 7080, "\u0120cig": 7081, "\u0120lap": 7082, "\u0120luc": 7083, "\u0120qb": 7084, "\u0120flowers": 7085, "\u0120frustrating": 7086, "run": 7087, "\u0120beings": 7088, "\u0120weightloss": 7089, "\u0120netherlands": 7090, "\u0120tt": 7091, "\u0120sets": 7092, "\u0120mini": 7093, "\u0120motivated": 7094, "\u0120divor": 7095, "\u0120identity": 7096, "\u0120weapon": 7097, "64": 7098, "\u0120rico": 7099, "\u0120forth": 7100, "allow": 7101, "igan": 7102, "guy": 7103, "\u0120neighbors": 7104, "\u0120cm": 7105, "\u0120creativity": 7106, "blog": 7107, "\u0120massage": 7108, "\u0120commitment": 7109, "52": 7110, "\u0120aunt": 7111, "\u0120cable": 7112, "umble": 7113, "\u0120dia": 7114, "\u0120admire": 7115, "\u0120elderly": 7116, "upp": 7117, "\u0120nw": 7118, "stream": 7119, "\u0120womens": 7120, "\u0120limited": 7121, "\u0120cou": 7122, "\u0120delight": 7123, "\u0120deaths": 7124, "\u0120cust": 7125, "\u0120stan": 7126, "\u0120alright": 7127, "iforn": 7128, "encing": 7129, "\u0120comeback": 7130, "\u0120threats": 7131, "\u0120banned": 7132, "ela": 7133, "\u0120coaching": 7134, "\u0120discrimin": 7135, "\u0120directly": 7136, "wonder": 7137, "\u0120aid": 7138, "acks": 7139, "\u0120command": 7140, "\u0120pursuit": 7141, "\u0120djt": 7142, "\u0120tn": 7143, "lines": 7144, "\u0120tryna": 7145, "\u0120dread": 7146, "\u0120concl": 7147, "\u0120consequ": 7148, "\u0120rubbish": 7149, "\u0120allows": 7150, "years": 7151, "\u0120shining": 7152, "uled": 7153, "\u0120trusted": 7154, "\u0120hitler": 7155, "\u0120rates": 7156, "\u0120prince": 7157, "\u0120poison": 7158, "\u0120destroying": 7159, "rant": 7160, "\u0120dallas": 7161, "isation": 7162, "\u0120texts": 7163, "\u0120lover": 7164, "aze": 7165, "\u0120indians": 7166, "\u0120loses": 7167, "\u0120director": 7168, "\u0120taylor": 7169, "cience": 7170, "dest": 7171, "\u0120stink": 7172, "\u0120jess": 7173, "\u0120sarah": 7174, "63": 7175, "case": 7176, "\u0120brady": 7177, "\u0120grave": 7178, "\u0120torn": 7179, "\u0120tri": 7180, "\u0120adam": 7181, "\u0120addiction": 7182, "\u0120angels": 7183, "\u0120immigration": 7184, "gt": 7185, "\u0120wip": 7186, "cials": 7187, "\u0120require": 7188, "standing": 7189, "ropriate": 7190, "osis": 7191, "cha": 7192, "\u0120keys": 7193, "\u0120route": 7194, "erve": 7195, "\u0120lake": 7196, "\u0120goddess": 7197, "\u0120intense": 7198, "find": 7199, "\u0120cbb": 7200, "\u0120throughout": 7201, "\u0120register": 7202, "sat": 7203, "\u0120ouch": 7204, "\u0120glo": 7205, "\u0120hab": 7206, "irts": 7207, "urse": 7208, "ortion": 7209, "\u0120requires": 7210, "\u0120scenes": 7211, "\u0120comic": 7212, "uper": 7213, "\u0120surrender": 7214, "\u0120annoyed": 7215, "\u0120writerslife": 7216, "bd": 7217, "yester": 7218, "stalk": 7219, "\u0120studio": 7220, "congrats": 7221, "\u0120western": 7222, "custom": 7223, "aints": 7224, "\u0120owe": 7225, "acing": 7226, "udos": 7227, "poli": 7228, "\u0120fabulous": 7229, "\u0120mystery": 7230, "\u0120studying": 7231, "abbing": 7232, "\u0120volunte": 7233, "\u0120occur": 7234, "\u0120boost": 7235, "\u0120costs": 7236, "\u0120employee": 7237, "erts": 7238, "andhi": 7239, "\u0120mont": 7240, "\u0120accused": 7241, "found": 7242, "\u0120ipl": 7243, "\u0120distance": 7244, "\u0120flynn": 7245, "\u0120almighty": 7246, "mod": 7247, "\u0120thn": 7248, "kel": 7249, "minster": 7250, "\u0120theatre": 7251, "56": 7252, "\u0120anth": 7253, "\u0120remains": 7254, "\u0120carr": 7255, "\u0120momlife": 7256, "\u0120grandma": 7257, "learn": 7258, "\u0120grey": 7259, "\u0120tempor": 7260, "\u0120righteousness": 7261, "should": 7262, "\u0120appreciated": 7263, "\u0120digital": 7264, "\u0120jews": 7265, "\u0120streaming": 7266, "\u0120electric": 7267, "\u0120tbh": 7268, "\u0120excl": 7269, "\u0120fuel": 7270, "eter": 7271, "fell": 7272, "monday": 7273, "eb": 7274, "\u0120scient": 7275, "beat": 7276, "\u0120incredibly": 7277, "\u0120unfit": 7278, "\u0120humility": 7279, "pos": 7280, "\u0120hook": 7281, "\u0120shooter": 7282, "jam": 7283, "\u0120spell": 7284, "\u0120fights": 7285, "ika": 7286, "could": 7287, "\u0120goat": 7288, "\u0120compared": 7289, "\u0120blacks": 7290, "col": 7291, "\u0120kab": 7292, "\u0120joint": 7293, "\u0120respected": 7294, "waiting": 7295, "\u0120broadcast": 7296, "date": 7297, "agues": 7298, "\u0120xd": 7299, "\u0120starbucks": 7300, "\u0120required": 7301, "matters": 7302, "\u0120bha": 7303, "alt": 7304, "\u0120sha": 7305, "\u0120vod": 7306, "\u0120resour": 7307, "othing": 7308, "yesterday": 7309, "\u0120celt": 7310, "\u0120exists": 7311, "\u0120proved": 7312, "\u0120colors": 7313, "\u0120priority": 7314, "\u0120qotd": 7315, "\u01202015": 7316, "\u0120kikme": 7317, "\u0120ethics": 7318, "enight": 7319, "\u0120unreal": 7320, "aste": 7321, "\u0120sms": 7322, "\u0120wakeup": 7323, "\u0120depressing": 7324, "\u0120tony": 7325, "32": 7326, "\u0120melt": 7327, "\u0120tragic": 7328, "\u0120thisis": 7329, "\u0120boat": 7330, "expected": 7331, "lers": 7332, "\u0120cope": 7333, "inger": 7334, "\u0120fee": 7335, "resp": 7336, "nee": 7337, "undry": 7338, "\u0120socialmedia": 7339, "\u0120cowork": 7340, "\u0120opportunities": 7341, "vah": 7342, "\u0120ck": 7343, "amazing": 7344, "ept": 7345, "\u0120pover": 7346, "\u0120authority": 7347, "\u0120wicked": 7348, "\u0120nan": 7349, "person": 7350, "\u0120yard": 7351, "\u0120lion": 7352, "endment": 7353, "\u0120development": 7354, "61": 7355, "lives": 7356, "\u0120payment": 7357, "\u0120ignoring": 7358, "\u0120matches": 7359, "\u0120hunt": 7360, "\u0120stadium": 7361, "\u0120treating": 7362, "\u0120godisgood": 7363, "bull": 7364, "father": 7365, "adem": 7366, "\u0120vid": 7367, "\u0120quarter": 7368, "\u0120negativity": 7369, "making": 7370, "rob": 7371, "arily": 7372, "shock": 7373, "apparently": 7374, "\u0120salad": 7375, "\u0120critical": 7376, "\u0120financial": 7377, "fre": 7378, "\u0120hugs": 7379, "prof": 7380, "\u0120headache": 7381, "\u0120blowing": 7382, "\u0120conquer": 7383, "\u0120(<": 7384, "bell": 7385, "\u0120awards": 7386, "\u0120intim": 7387, "food": 7388, "\u0120tum": 7389, "\u0120cp": 7390, "\u0120hardwork": 7391, "\u0120puppy": 7392, "\u0120pocket": 7393, "excited": 7394, "\u0120diversity": 7395, "\u0120obl": 7396, "\u0120ff": 7397, "justice": 7398, "\u0120swamp": 7399, "\u0120discussion": 7400, "\u0120illeg": 7401, "\u0120upgrade": 7402, "\u0120sno": 7403, "\u0120cod": 7404, "\u0120ron": 7405, "\u0120habit": 7406, "\u0120remo": 7407, "\u0120connected": 7408, "\u0120pushed": 7409, "\u0120stunning": 7410, "ching": 7411, "\u0120section": 7412, "\u0120plate": 7413, "\u0120incompetent": 7414, "\u0120convinced": 7415, "\u0120poverty": 7416, "living": 7417, "\u0120exams": 7418, "\u0120persever": 7419, "\u0120mais": 7420, "\u0120penalty": 7421, "34": 7422, "count": 7423, "\u0120astr": 7424, "\u0120drives": 7425, "\u0120ako": 7426, "\u0120cann": 7427, "woman": 7428, "\u0120grammys": 7429, "\u0120determined": 7430, "\u0120ireland": 7431, "du": 7432, "\u0120californ": 7433, "ueless": 7434, "\u0120101": 7435, "\u0120charges": 7436, "\u0120walls": 7437, "\u0120officials": 7438, "\u0120princip": 7439, "\u0120measure": 7440, "atory": 7441, "\u0120dur": 7442, "lee": 7443, "\u0120modi": 7444, "oured": 7445, "\u0120dal": 7446, "\u0120taxpay": 7447, "\u0120physically": 7448, "\u0120supers": 7449, "\u0120mich": 7450, "\u0120disorder": 7451, "human": 7452, "\u0120cycle": 7453, "\u0120intelligent": 7454, "ique": 7455, "heard": 7456, "\u0120compare": 7457, "\u0120liberty": 7458, "through": 7459, "die": 7460, "lected": 7461, "\u0120trustgod": 7462, "\u0120riding": 7463, "honestly": 7464, "ran": 7465, "\u0120aap": 7466, "\u0120lind": 7467, "\u0120condol": 7468, "\u0120destruction": 7469, "\u0120athletes": 7470, "\u0120nod": 7471, "\u0120stopping": 7472, "ancis": 7473, "mail": 7474, "\u0120creator": 7475, "blessed": 7476, "\u0120valentine": 7477, "enom": 7478, "\u0120offended": 7479, "iano": 7480, "\u0120pays": 7481, "\u0120dentist": 7482, "craft": 7483, "\u0120cere": 7484, "educ": 7485, "\u0120eag": 7486, "\u0120haun": 7487, "build": 7488, "\u0120jk": 7489, "\u0120brag": 7490, "\u0120realizing": 7491, "\u0120roads": 7492, "\u0120awe": 7493, "\u0120justify": 7494, "\u0120argu": 7495, "\u0120dislike": 7496, "\u0120booking": 7497, "\u0120hopeless": 7498, "\u0120central": 7499, "\u0120bite": 7500, "\u0120vamp": 7501, "\u0120hardly": 7502, "\u0120figured": 7503, "rain": 7504, "inct": 7505, "\u0120mere": 7506, "\u0120chosen": 7507, "\u0120brush": 7508, "\u0120slap": 7509, "\u0120secure": 7510, "\u0120selflove": 7511, "\u0120symptoms": 7512, "\u0120map": 7513, "army": 7514, "\u0120vom": 7515, "\u0120corbyn": 7516, "\u0120foolish": 7517, "\u0120replacement": 7518, "di": 7519, "\u0120nc": 7520, "rights": 7521, "\u0120nhl": 7522, "ken": 7523, "\u0120puppet": 7524, "yc": 7525, "onym": 7526, "\u0120hoe": 7527, "\u0120skill": 7528, "\u0120motor": 7529, "iac": 7530, "\u0120ale": 7531, "eme": 7532, "\u0120actress": 7533, "ordan": 7534, "iku": 7535, "\u0120editing": 7536, "\u0120bothered": 7537, "\u0120mccain": 7538, "\u0120wee": 7539, "\u0120brav": 7540, "ointed": 7541, "\u0120tall": 7542, "azi": 7543, "\u0120decades": 7544, "clip": 7545, "\u0120foxnews": 7546, "\u0120ec": 7547, "goals": 7548, "\u0120produce": 7549, "\u0120decides": 7550, "ormal": 7551, "\u0120rugby": 7552, "\u0120conditions": 7553, "\u0120protection": 7554, "\u0120documentary": 7555, "because": 7556, "\u0120bjp": 7557, "\u0120jere": 7558, "ste": 7559, "\u0120univers": 7560, "\u0120blm": 7561, "\u0120tg": 7562, "\u0120chips": 7563, "\u0120funeral": 7564, "\u0120promoting": 7565, "\u0120pretending": 7566, "nel": 7567, "och": 7568, "inated": 7569, "oster": 7570, "\u0120prez": 7571, "\u0120singer": 7572, "\u0120pens": 7573, "\u0120adding": 7574, "\u0120voices": 7575, "\u0120capable": 7576, "uzz": 7577, "\u0120toronto": 7578, "fi": 7579, "xic": 7580, "\u0120anal": 7581, "\u0120como": 7582, "\u0120clueless": 7583, "\u0120narrative": 7584, "hovah": 7585, "\u0120judges": 7586, "\u0120throat": 7587, "\u0120yah": 7588, "acre": 7589, "\u0120wound": 7590, "\u0120woo": 7591, "\u0120hob": 7592, "chang": 7593, "\u0120savior": 7594, "\u0120thunder": 7595, "\u0120chasing": 7596, "hello": 7597, "\u0120creates": 7598, "film": 7599, "\u0120staring": 7600, "oute": 7601, "\u0120shes": 7602, "ofthe": 7603, "\u0120simpl": 7604, "\u0120trees": 7605, "black": 7606, "\u0120coaches": 7607, "\u0120property": 7608, "\u0120besides": 7609, "90": 7610, "facts": 7611, "\u0120lah": 7612, "itating": 7613, "forget": 7614, "\u0120racing": 7615, "\u0120channels": 7616, "\u0120dishon": 7617, "feedingjoy": 7618, "usa": 7619, "\u0120attach": 7620, "\u0120amazed": 7621, "\u0120laid": 7622, "\u0120maintain": 7623, "71": 7624, "bitch": 7625, "\u0120thread": 7626, "adays": 7627, "\u0120offense": 7628, "\u0120define": 7629, "\u0120entit": 7630, "oe": 7631, "\u0120fiction": 7632, "\u0120pity": 7633, "\u0120sean": 7634, "\u0120happiest": 7635, "before": 7636, "\u0120aww": 7637, "\u0120westminster": 7638, "\u0120journalism": 7639, "long": 7640, "\u0120dirt": 7641, "aron": 7642, "\u0120brad": 7643, "\u0120worldhealthday": 7644, "\u0120slam": 7645, "\u0120slave": 7646, "\u0120raising": 7647, "\u0120knees": 7648, "\u0120rhet": 7649, "\u0120umm": 7650, "\u0120prices": 7651, "abbed": 7652, "hd": 7653, "\u0120spect": 7654, "\u0120santa": 7655, "itement": 7656, "aya": 7657, "otic": 7658, "\u0120sole": 7659, "\u0120unif": 7660, "\u0120sends": 7661, "\u0120effects": 7662, "\u0120philos": 7663, "\u0120timeline": 7664, "\u0120repent": 7665, "\u012009": 7666, "\u0120hustle": 7667, "\u0120seven": 7668, "\u012038": 7669, "believe": 7670, "\u0120smells": 7671, "\u0120noo": 7672, "\u0120passes": 7673, "\u0120judgement": 7674, "ieving": 7675, "inder": 7676, "\u0120scored": 7677, "hecy": 7678, "\u0120vegan": 7679, "playing": 7680, "\u0120gutted": 7681, "natural": 7682, "\u0120mf": 7683, "utive": 7684, "\u0120creation": 7685, "reh": 7686, "entic": 7687, "\u0120poop": 7688, "\u012003": 7689, "\u0120genre": 7690, "\u0120shameful": 7691, "\u0120bench": 7692, "\u0120privilege": 7693, "clipse": 7694, "fra": 7695, "ih": 7696, "\u0120endure": 7697, "\u0120delhi": 7698, "gasshooting": 7699, "\u0120union": 7700, "\u0120ours": 7701, "conne": 7702, "\u0120princess": 7703, "76": 7704, "\u0120bff": 7705, "\u0120ish": 7706, "\u0120arse": 7707, "\u0120driven": 7708, "\u0120sleepy": 7709, "cul": 7710, "\u0120upcoming": 7711, "\u0120charles": 7712, "\u0120mcdonald": 7713, "mes": 7714, "\u0120duck": 7715, "\u0120revel": 7716, "ido": 7717, "uber": 7718, "\u012091": 7719, "\u0120scotland": 7720, "\u0120bone": 7721, "\u0120ease": 7722, "\u012007": 7723, "\u0120signal": 7724, "\u0120sanct": 7725, "\u0120granted": 7726, "\u0120remote": 7727, "\u0120ruining": 7728, "\u0120diagn": 7729, "\u0120dressed": 7730, "\u0120warrior": 7731, "gate": 7732, "istance": 7733, "\u0120kno": 7734, "\u0120armed": 7735, "\u0120standards": 7736, "\u0120trolls": 7737, "horror": 7738, "\u0120tongue": 7739, "\u0120bliss": 7740, "\u0120spam": 7741, "\u0120polls": 7742, "\u0120smooth": 7743, "awa": 7744, "\u0120conspir": 7745, "\u0120steel": 7746, "\u0120dete": 7747, "\u0120battery": 7748, "\u0120spoonie": 7749, "\u0120abr": 7750, "\u012049": 7751, "\u0120racists": 7752, "\u0120spanish": 7753, "\u0120ios": 7754, "eto": 7755, "\u0120sher": 7756, "\u0120grass": 7757, "\u0120collection": 7758, "mass": 7759, "\u0120icon": 7760, "\u0120offensive": 7761, "ogue": 7762, "\u0120funds": 7763, "\u0120termin": 7764, "\u0120jesuschrist": 7765, "\u0120russians": 7766, "\u0120notmypresident": 7767, "\u0120toddler": 7768, "54": 7769, "\u0120chester": 7770, "\u0120rolling": 7771, "\u0120await": 7772, "\u0120stores": 7773, "\u0120puerto": 7774, "\u0120california": 7775, "\u0120signific": 7776, "\u0120relate": 7777, "gott": 7778, "jab": 7779, "\u0120ti": 7780, "ede": 7781, "beaut": 7782, "\u0120classy": 7783, "ifications": 7784, "\u0120glasses": 7785, "\u0120thriller": 7786, "\u0120cinema": 7787, "aid": 7788, "white": 7789, "\u0120stupidity": 7790, "ben": 7791, "note": 7792, "\u0120coy": 7793, "ppl": 7794, "\u0120morals": 7795, "isible": 7796, "\u0120sexist": 7797, "\u0120spirituality": 7798, "\u0120accepting": 7799, ">>": 7800, "angel": 7801, "\u0120compliment": 7802, "\u0120senator": 7803, "\u0120repeated": 7804, "\u0120signing": 7805, "69": 7806, "iser": 7807, "alo": 7808, "\u0120deals": 7809, "much": 7810, "\u0120gather": 7811, "truth": 7812, "\u0120reduce": 7813, "\u0120jimmy": 7814, "\u0120torture": 7815, "mr": 7816, "isl": 7817, "oler": 7818, "\u0120childish": 7819, "blue": 7820, "\u0120cub": 7821, "\u0120types": 7822, "\u0120bor": 7823, "\u0120county": 7824, "\u0120invited": 7825, "\u0120independent": 7826, "\u0120prosperity": 7827, "iqu": 7828, "\u0120fer": 7829, "asa": 7830, "thep": 7831, "\u0120handed": 7832, "ava": 7833, "\u0120reflection": 7834, "\u0120merry": 7835, "\u0120khan": 7836, "factor": 7837, "cool": 7838, "inn": 7839, "\u0120shed": 7840, "\u0120mes": 7841, "\u0120yelling": 7842, "\u0120raining": 7843, "\u0120clowns": 7844, "sur": 7845, "\u0120cities": 7846, "\u0120mommy": 7847, "\u0120magn": 7848, "\u0120props": 7849, "\u0120celebration": 7850, "\u0120credibility": 7851, "\u0120german": 7852, "rip": 7853, "\u0120lfc": 7854, "\u0120growup": 7855, "\u0120faced": 7856, "\u0120scratch": 7857, "\u0120tons": 7858, "\u0120dh": 7859, "liament": 7860, "\u0120revenge": 7861, "73": 7862, "\u0120gandhi": 7863, "\u0120beef": 7864, "\u0120clin": 7865, "\u0120insta": 7866, "\u0120nerve": 7867, "\u0120independence": 7868, "west": 7869, "\u0120punk": 7870, "\u0120gren": 7871, "\u0120unexpected": 7872, "lik": 7873, "\u0120hoes": 7874, "\u0120receiving": 7875, "\u0120packed": 7876, "\u0120liverpool": 7877, "\u0120eph": 7878, "roc": 7879, "\u0120cunt": 7880, "uls": 7881, "\u0120perpet": 7882, "\u0120horrific": 7883, "\u0120covering": 7884, "\u0120bhi": 7885, "\u0120toss": 7886, "\u0120coal": 7887, "seeing": 7888, "umer": 7889, "\u0120persist": 7890, "\u0120complex": 7891, "grees": 7892, "\u0120hallel": 7893, "\u0120tone": 7894, "\u0120aust": 7895, "\u0120phr": 7896, "\u0120touched": 7897, "\u0120convince": 7898, "catch": 7899, "\u0120soldier": 7900, "\u0120disturbing": 7901, "\u0120premier": 7902, "acceptable": 7903, "\u0120fc": 7904, "ulty": 7905, "\u0120humili": 7906, "isher": 7907, "\u0120rod": 7908, "\u0120kjv": 7909, "stay": 7910, "\u0120spurs": 7911, "\u0120zoo": 7912, "\u0120behaviour": 7913, "\u0120whitesup": 7914, "\u0120tant": 7915, "\u0120ties": 7916, "akh": 7917, "\u0120educated": 7918, "inthians": 7919, "\u0120ward": 7920, "\u0120inno": 7921, "\u0120mans": 7922, "\u0120privacy": 7923, "\u0120psychology": 7924, "ocks": 7925, "\u0120relaxing": 7926, "\u0120cubs": 7927, "ati": 7928, "\u0120jos": 7929, "\u0120noth": 7930, "\u012041": 7931, "\u0120skip": 7932, "nice": 7933, "\u0120wt": 7934, "umn": 7935, "\u0120vlog": 7936, "\u0120supre": 7937, "\u0120lebron": 7938, "\u0120aggress": 7939, "\u0120scripture": 7940, "del": 7941, "\u0120eric": 7942, "\u0120td": 7943, "\u0120fif": 7944, "\u0120forms": 7945, "pot": 7946, "\u0120binge": 7947, "\u0120reviews": 7948, "\u0120impl": 7949, "\u0120fighter": 7950, "\u0120psalms": 7951, "\u0120generations": 7952, "\u0120jackson": 7953, "yeah": 7954, "\u0120eggs": 7955, "icient": 7956, "shire": 7957, "\u0120oppon": 7958, "\u0120mountains": 7959, "\u0120olympics": 7960, "\u0120lam": 7961, "acle": 7962, "\u0120sauce": 7963, "\u0120population": 7964, "\u0120announced": 7965, "\u0120normally": 7966, "\u0120dictator": 7967, "mans": 7968, "\u0120anytime": 7969, "\u0120offers": 7970, "\u0120guilt": 7971, "ission": 7972, "\u0120convo": 7973, "coach": 7974, "\u0120johnson": 7975, "\u0120bae": 7976, "\u0120blew": 7977, "walking": 7978, "\u0120brutal": 7979, "\u0120condolences": 7980, "kid": 7981, "mother": 7982, "\u0120politician": 7983, "rump": 7984, "imony": 7985, "\u0120separate": 7986, "\u0120bernie": 7987, "59": 7988, "name": 7989, "\u0120kit": 7990, "appy": 7991, "\u0120bars": 7992, "\u0120dim": 7993, "\u0120guitar": 7994, "\u0120irony": 7995, "\u0120feedback": 7996, "\u0120despicable": 7997, "korea": 7998, "\u0120ii": 7999, "\u0120strangers": 8000, "\u0120behalf": 8001, "\u0120profession": 8002, "\u0120labor": 8003, "\u0120zombies": 8004, "\u0120essential": 8005, "ethe": 8006, "urning": 8007, "\u0120ima": 8008, "\u0120sang": 8009, "aning": 8010, "\u0120gc": 8011, "step": 8012, "enders": 8013, "\u0120spa": 8014, "\u0120advoc": 8015, "\u0120romance": 8016, "mel": 8017, "zing": 8018, "\u0120pd": 8019, "\u0120offering": 8020, "\u0120factor": 8021, "\u0120hann": 8022, "orse": 8023, "\u0120dang": 8024, "\u0120lect": 8025, "\u0120kevin": 8026, "\u0120tower": 8027, "worthy": 8028, "ancer": 8029, "weekend": 8030, "\u0120supreme": 8031, "\u0120pard": 8032, "\u0120areas": 8033, "\u0120owned": 8034, "\u0120suffered": 8035, "39": 8036, "\u0120tape": 8037, "\u0120theb": 8038, "\u0120returned": 8039, "\u0120replaced": 8040, "\u0120deplorable": 8041, "\u0120scandal": 8042, "\u0120yanke": 8043, "cre": 8044, "\u0120rail": 8045, "\u012044": 8046, "\u0120atheism": 8047, "hour": 8048, "\u0120ank": 8049, "jection": 8050, "\u0120temper": 8051, "\u0120triggered": 8052, "\u0120nl": 8053, "\u0120jst": 8054, "urd": 8055, "iled": 8056, "\u0120democratic": 8057, "\u0120dates": 8058, "\u0120pier": 8059, "\u0120shy": 8060, "\u0120grac": 8061, "\u0120medi": 8062, "\u0120vets": 8063, "\u0120jehovah": 8064, "\u0120misogy": 8065, "\u0120disappointment": 8066, "\u0120conflict": 8067, "jour": 8068, "water": 8069, "\u0120thes": 8070, "lement": 8071, "\u0120shorts": 8072, "\u0120smack": 8073, "\u0120cheated": 8074, "\u0120parcel": 8075, "\u0120guncontrol": 8076, "\u0120fridge": 8077, "\u0120understood": 8078, "\u0120speaker": 8079, "saying": 8080, "\u0120bodies": 8081, "\u0120obedience": 8082, "\u0120isol": 8083, "\u0120perfection": 8084, "\u0120engaged": 8085, "goti": 8086, "\u0120geor": 8087, "\u0120nbc": 8088, "cont": 8089, "\u0120nurse": 8090, "\u0120serial": 8091, "\u0120expert": 8092, "\u0120encoun": 8093, "\u0120jumping": 8094, "\u0120irrelevant": 8095, "\u0120ws": 8096, "berry": 8097, "\u0120follower": 8098, "\u0120apps": 8099, "taking": 8100, "thus": 8101, "\u0120knw": 8102, "plan": 8103, "\u0120muscle": 8104, "\u0120morons": 8105, "\u0120regime": 8106, "\u0120expectations": 8107, "\u0120begging": 8108, "\u0120devot": 8109, "\u0120yup": 8110, "thel": 8111, "\u0120rising": 8112, "\u0120ripped": 8113, "\u01202013": 8114, "\u0120britain": 8115, "oop": 8116, "\u0120sli": 8117, "\u01202014": 8118, "\u0120traveling": 8119, "\u0120split": 8120, "\u0120ordinary": 8121, "\u0120rhetoric": 8122, "\u0120andrew": 8123, "\u0120joined": 8124, "erate": 8125, "\u0120vp": 8126, "\u0120irma": 8127, "\u0120carrying": 8128, "jack": 8129, "\u0120heb": 8130, "olo": 8131, "\u0120letsel": 8132, "\u0120sincer": 8133, "\u0120excitement": 8134, "\u0120greedy": 8135, "without": 8136, "\u0120burger": 8137, "\u0120cowards": 8138, "\u0120informed": 8139, "\u0120unacceptable": 8140, "\u0120stays": 8141, "\u0120shoutout": 8142, "belief": 8143, "\u0120texting": 8144, "inchief": 8145, "\u0120stir": 8146, "llect": 8147, "\u0120wrestling": 8148, "\u0120twisted": 8149, "\u0120substance": 8150, "ti": 8151, "\u0120gall": 8152, "esty": 8153, "soff": 8154, "avor": 8155, "\u0120choosing": 8156, "\u0120metal": 8157, "\u0120verse": 8158, "casm": 8159, "hur": 8160, "uded": 8161, "ujah": 8162, "\u0120survivor": 8163, "\u0120sty": 8164, "\u0120degrees": 8165, "geon": 8166, "\u0120mug": 8167, "\u0120mufc": 8168, "\u0120sf": 8169, "\u0120trap": 8170, "uries": 8171, "\u0120musical": 8172, "\u0120jewish": 8173, "\u0120valu": 8174, "\u0120hacked": 8175, "\u0120infin": 8176, "worst": 8177, "\u0120purs": 8178, "\u0120rick": 8179, "\u0120aspect": 8180, "\u0120academ": 8181, "\u0120150": 8182, "\u0120dedication": 8183, "\u0120nav": 8184, "\u0120startup": 8185, "\u0120memorial": 8186, "\u0120denial": 8187, "\u0120camer": 8188, "oetry": 8189, "\u0120pel": 8190, "\u0120lewis": 8191, "\u0120seemed": 8192, "\u0120perman": 8193, "\u0120delays": 8194, "\u0120specific": 8195, "\u0120dup": 8196, "etch": 8197, "\u0120recording": 8198, "\u0120toe": 8199, "vet": 8200, "\u0120rarely": 8201, "\u0120unt": 8202, "\u012002": 8203, "\u0120tuesdaythoughts": 8204, "\u0120ib": 8205, "\u0120cavs": 8206, "itor": 8207, "\u0120flesh": 8208, "\u0120fucks": 8209, "\u0120production": 8210, "\u0120misery": 8211, "\u0120:-(": 8212, "\u0120revolution": 8213, "\u0120bark": 8214, "\u0120km": 8215, "rend": 8216, "\u0120accur": 8217, "\u0120invisible": 8218, "\u0120achieved": 8219, "\u0120claiming": 8220, "\u0120thousand": 8221, "\u0120bears": 8222, "\u0120hoped": 8223, "\u0120beside": 8224, "\u0120nz": 8225, "\u0120nost": 8226, "aka": 8227, "\u0120disability": 8228, "\u0120curse": 8229, "\u0120focusing": 8230, "\u0120wallet": 8231, "\u0120journalist": 8232, "\u0120resolve": 8233, "wear": 8234, "\u0120wherever": 8235, "\u0120ze": 8236, "\u0120iq": 8237, "\u0120shud": 8238, "\u0120ker": 8239, "text": 8240, "\u0120symb": 8241, "\u0120exposed": 8242, "fy": 8243, "rom": 8244, "\u0120twin": 8245, "doing": 8246, "\u0120conduct": 8247, "\u0120cases": 8248, "\u0120glorious": 8249, "\u0120\u00e2\u0122\u013f": 8250, "nament": 8251, "\u0120gust": 8252, "ively": 8253, "\u0120winners": 8254, "coin": 8255, "\u0120accomplished": 8256, "\u0120surrounded": 8257, "\u0120gear": 8258, "\u0120began": 8259, "\u0120visiting": 8260, "\u0120pleased": 8261, "\u0120tub": 8262, "\u0120pound": 8263, "igning": 8264, "\u0120income": 8265, "\u0120demonstr": 8266, "\u0120doin": 8267, "\u0120council": 8268, "\u0120expression": 8269, "\u0120trauma": 8270, "qual": 8271, "\u012042": 8272, "\u0120arch": 8273, "\u0120witnessed": 8274, "\u0120hundreds": 8275, "\u0120potato": 8276, "\u0120sorted": 8277, "\u0120crossed": 8278, "66": 8279, "lost": 8280, "\u0120dement": 8281, "\u0120imo": 8282, "\u0120laundry": 8283, "\u0120explan": 8284, "\u0120struggles": 8285, "\u0120banks": 8286, "\u0120professor": 8287, "\u0120houses": 8288, "inals": 8289, "\u0120bacon": 8290, "\u0120teens": 8291, "udy": 8292, "interest": 8293, "\u0120aur": 8294, "\u0120junk": 8295, "\u0120selfie": 8296, "hist": 8297, "\u0120nol": 8298, "\u0120gt": 8299, "left": 8300, "\u0120fright": 8301, "gets": 8302, "\u0120elite": 8303, "\u0120deeper": 8304, "attered": 8305, "\u0120palest": 8306, "37": 8307, "\u0120lun": 8308, "\u0120nra": 8309, "\u0120haiku": 8310, "\u0120manners": 8311, "\u012095": 8312, "team": 8313, "\u0120divided": 8314, "\u0120tennis": 8315, "vy": 8316, "\u0120rah": 8317, "imm": 8318, "\u0120nowadays": 8319, "\u0120instruct": 8320, "\u0120transl": 8321, "such": 8322, "\u0120bare": 8323, "sey": 8324, "\u0120knocked": 8325, "\u0120january": 8326, "\u0120hindu": 8327, "\u0120sid": 8328, "\u0120daw": 8329, "agan": 8330, "\u0120desires": 8331, "\u0120ohio": 8332, "\u0120sooner": 8333, "\u0120southern": 8334, "kk": 8335, "\u0120nash": 8336, "eting": 8337, "\u0120wrap": 8338, "\u0120deport": 8339, "\u0120jeans": 8340, "\u0120throws": 8341, "\u0120someday": 8342, "hillary": 8343, "\u0120bubble": 8344, "\u0120vulnerable": 8345, "pack": 8346, "\u0120rigg": 8347, "weg": 8348, "together": 8349, "\u0120invent": 8350, "\u0120jerk": 8351, "curren": 8352, "rad": 8353, "\u0120theory": 8354, "\u0120hain": 8355, "\u0120believer": 8356, "\u0120hills": 8357, "zo": 8358, "eran": 8359, "\u0120plastic": 8360, "\u0120partners": 8361, "\u0120panel": 8362, "looks": 8363, "\u0120biafr": 8364, "\u0120bombs": 8365, "gage": 8366, "pen": 8367, "\u0120foul": 8368, "\u0120toxic": 8369, "\u0120insight": 8370, "\u0120sarcasm": 8371, "\u0120searching": 8372, "burg": 8373, "ruction": 8374, "\u0120tcm": 8375, "\u0120sust": 8376, "\u0120sque": 8377, "\u0120gosh": 8378, "\u0120grows": 8379, "\u0120londonbridge": 8380, "\u0120authentic": 8381, "\u0120spoiled": 8382, "\u0120primary": 8383, "\u0120elev": 8384, "\u0120worstway": 8385, "\u0120sundaymorning": 8386, "\u0120routine": 8387, "bank": 8388, "liter": 8389, "\u0120argue": 8390, "\u0120hiphop": 8391, "\u0120revealed": 8392, "\u0120powers": 8393, "shop": 8394, "\u0120salt": 8395, "\u0120poorly": 8396, "\u0120corporate": 8397, "tot": 8398, "\u0120fate": 8399, "\u0120dull": 8400, "\u0120kudos": 8401, "\u0120uncomfort": 8402, "\u0120finishing": 8403, "\u0120suicidal": 8404, "lif": 8405, "\u0120obst": 8406, "\u0120diam": 8407, "\u0120achievement": 8408, "\u0120commercials": 8409, "wars": 8410, "umes": 8411, "\u0120headed": 8412, "\u0120whitehouse": 8413, "\u0120qur": 8414, "\u0120tracks": 8415, "\u0120federal": 8416, "\u0120aintready": 8417, "\u0120au": 8418, "\u0120dw": 8419, "\u0120fakepresident": 8420, "honi": 8421, "\u0120douch": 8422, "\u0120retr": 8423, "\u0120rice": 8424, "prod": 8425, "\u0120fancy": 8426, "\u01202012": 8427, "\u0120microp": 8428, "least": 8429, "\u0120stfu": 8430, "\u0120libs": 8431, "\u0120shaking": 8432, "\u0120worldwide": 8433, "\u0120supply": 8434, "\u0120discour": 8435, "\u0120jordan": 8436, "\u0120dreaming": 8437, "\u0120lowest": 8438, "\u0120rocks": 8439, "\u0120users": 8440, "wall": 8441, "\u0120trials": 8442, "\u0120blond": 8443, "\u0120hadn": 8444, "\u0120destination": 8445, "\u0120romantic": 8446, "\u0120raped": 8447, "\u0120criminals": 8448, "cour": 8449, "\u0120nite": 8450, "ima": 8451, "lyn": 8452, "\u0120twins": 8453, "\u0120helpl": 8454, "\u0120miami": 8455, "\u0120northkorea": 8456, "party": 8457, "\u0120henry": 8458, "nor": 8459, "\u0120toy": 8460, "\u0120<<": 8461, "\u0120outfit": 8462, "\u012039": 8463, "\u0120reps": 8464, "\u0120viewers": 8465, "\u0120projects": 8466, "\u0120occup": 8467, "\u0120priorities": 8468, "esha": 8469, "entr": 8470, "\u0120mumbai": 8471, "his": 8472, "\u0120bones": 8473, "\u0120fyi": 8474, "\u0120nag": 8475, "\u0120jet": 8476, "\u0120arab": 8477, "haven": 8478, "\u0120boots": 8479, "\u0120bedroom": 8480, "\u0120entertaining": 8481, "bill": 8482, "dem": 8483, "\u0120bash": 8484, "\u0120bachel": 8485, "\u0120nj": 8486, "oft": 8487, "\u0120terrified": 8488, "\u0120pokemon": 8489, "sell": 8490, "\u0120bru": 8491, "\u0120engage": 8492, "\u0120rescue": 8493, "onymous": 8494, "\u0120ky": 8495, "\u0120carpool": 8496, "\u0120mindful": 8497, "asp": 8498, "\u0120vit": 8499, "\u0120repair": 8500, "\u0120divorce": 8501, "62": 8502, "\u0120gd": 8503, "ici": 8504, "\u0120rc": 8505, "\u0120fold": 8506, "\u0120ske": 8507, "\u0120pand": 8508, "stairs": 8509, "\u0120spit": 8510, "shirt": 8511, "roid": 8512, "\u0120headphones": 8513, "\u0120selfcare": 8514, "\u0120burden": 8515, "\u0120miche": 8516, "\u0120swimming": 8517, "\u0120method": 8518, "\u0120conspiracy": 8519, "\u0120awhile": 8520, "\u0120messi": 8521, "\u0120picks": 8522, "\u0120washed": 8523, "\u0120pant": 8524, "icip": 8525, "\u0120donate": 8526, "hero": 8527, "oma": 8528, "\u0120shield": 8529, "\u0120resort": 8530, "hoo": 8531, "\u0120touching": 8532, "\u0120declare": 8533, "\u0120slightly": 8534, "\u0120caf": 8535, "\u0120chin": 8536, "ums": 8537, "\u0120phenom": 8538, "\u0120joining": 8539, "bour": 8540, "ales": 8541, "uming": 8542, "\u0120brook": 8543, "ueller": 8544, "veland": 8545, "\u0120corinthians": 8546, "\u0120denied": 8547, "\u0120opposition": 8548, "cry": 8549, "reason": 8550, "eda": 8551, "\u0120weg": 8552, "ira": 8553, "\u0120francis": 8554, "\u0120neveragain": 8555, "bruary": 8556, "\u0120delicious": 8557, "\u0120edm": 8558, "\u0120magaz": 8559, "\u0120puert": 8560, "\u0120ipad": 8561, "football": 8562, "\u0120tail": 8563, "iner": 8564, "\u0120han": 8565, "oration": 8566, "\u0120een": 8567, "\u0120demons": 8568, "\u0120testing": 8569, "burn": 8570, "point": 8571, "\u0120ineed": 8572, "\u0120alg": 8573, "\u0120stressful": 8574, "\u0120theresistance": 8575, "\u0120conservatives": 8576, "\u0120hd": 8577, "\u0120carol": 8578, "\u0120cyber": 8579, "\u0120consequences": 8580, "aba": 8581, "abi": 8582, "\u0120supernatural": 8583, "\u0120blanket": 8584, "rup": 8585, "\u0120negoti": 8586, "\u0120linked": 8587, "\u0120aqu": 8588, "\u0120wipe": 8589, "\u0120rings": 8590, "atever": 8591, "\u0120parliament": 8592, "\u0120pointless": 8593, "\u0120completed": 8594, "\u0120pedoph": 8595, "\u0120py": 8596, "opath": 8597, "unts": 8598, "feels": 8599, "\u0120manner": 8600, "\u0120braz": 8601, "\u0120imagination": 8602, "\u0120troubles": 8603, "\u0120economic": 8604, "bound": 8605, "hu": 8606, "post": 8607, "\u0120tuck": 8608, "\u0120ht": 8609, "urally": 8610, "united": 8611, "\u0120overall": 8612, "\u0120criticism": 8613, "\u0120ivanka": 8614, "\u0120pigs": 8615, "\u0120prose": 8616, "\u0120imper": 8617, "\u0120letstalk": 8618, "\u0120install": 8619, "coz": 8620, "\u0120frustrated": 8621, "\u0120woods": 8622, "wtf": 8623, "\u0120doom": 8624, "ilton": 8625, "ules": 8626, "\u0120comed": 8627, "amps": 8628, "\u0120madness": 8629, "\u0120uncomfortable": 8630, "wer": 8631, "rection": 8632, "\u0120digg": 8633, "\u0120wht": 8634, "\u0120hail": 8635, "\u0120abused": 8636, "\u0120outs": 8637, "\u0120burst": 8638, "incol": 8639, "\u0120resources": 8640, "\u0120twe": 8641, "\u0120spark": 8642, "employ": 8643, "\u0120smash": 8644, "\u0120hopeful": 8645, "\u0120explos": 8646, "\u0120acceptance": 8647, "\u0120guests": 8648, "michael": 8649, "\u0120dads": 8650, "spent": 8651, "\u0120dedicated": 8652, "\u0120chronicpain": 8653, "wali": 8654, "\u0120exchange": 8655, "\u0120guid": 8656, "lied": 8657, "\u0120swift": 8658, "\u0120eaten": 8659, "\u0120dumbass": 8660, "\u0120premium": 8661, "depression": 8662, "81": 8663, "agate": 8664, "\u0120spite": 8665, "\u0120letters": 8666, "\u0120405": 8667, "\u0120included": 8668, "high": 8669, "\u0120thick": 8670, "\u0120pon": 8671, "\u0120playlist": 8672, "\u0120server": 8673, "\u0120ironic": 8674, "\u0120suggestions": 8675, "cere": 8676, "\u0120roast": 8677, "\u0120phd": 8678, "\u0120olds": 8679, "\u0120learnt": 8680, "dev": 8681, "didn": 8682, "\u0120williams": 8683, "\u0120grocery": 8684, "atically": 8685, "\u0120asian": 8686, "oli": 8687, "\u0120leaks": 8688, "\u0120backwards": 8689, "\u0120scale": 8690, "\u0120worlds": 8691, "\u0120downtown": 8692, "whenever": 8693, "\u012005": 8694, "broken": 8695, "\u0120nomore": 8696, "\u0120utterly": 8697, "\u0120lgbtq": 8698, "mem": 8699, "wife": 8700, "enough": 8701, "arian": 8702, "\u0120blu": 8703, "\u0120appe": 8704, "mares": 8705, "\u0120syn": 8706, "\u0120transparen": 8707, "polit": 8708, "\u0120saudiar": 8709, "\u0120airline": 8710, "literally": 8711, "hot": 8712, "\u0120inher": 8713, "\u0120reck": 8714, "umm": 8715, "olves": 8716, "\u0120queue": 8717, "\u0120intoler": 8718, "\u0120constitu": 8719, "\u0120activities": 8720, "parents": 8721, "lar": 8722, "\u0120laughs": 8723, "\u0120philipp": 8724, "\u0120abundance": 8725, "\u0120pursue": 8726, "\u0120analy": 8727, "\u0120exit": 8728, "\u0120bruh": 8729, "\u0120belt": 8730, "\u0120cheek": 8731, "\u0120shouting": 8732, "\u0120treas": 8733, "hib": 8734, "isp": 8735, "\u0120meals": 8736, "\u0120lemon": 8737, "\u0120surprising": 8738, "\u0120semester": 8739, "\u0120whining": 8740, "\u0120frag": 8741, "\u0120kindly": 8742, "uther": 8743, "\u0120links": 8744, "york": 8745, "online": 8746, "\u0120cb": 8747, "\u0120kap": 8748, "\u0120blues": 8749, "\u0120protecting": 8750, "ae": 8751, "cant": 8752, "\u0120enthus": 8753, "\u0120tournament": 8754, "\u0120defeated": 8755, "\u0120encounter": 8756, "pretty": 8757, "rich": 8758, "\u0120nik": 8759, "\u0120valley": 8760, "aped": 8761, "\u0120explo": 8762, "\u0120skype": 8763, "lu": 8764, "\u0120socks": 8765, "\u0120mayweather": 8766, "\u0120refuses": 8767, "\u0120yawn": 8768, "\u0120npm": 8769, "\u0120snake": 8770, "\u0120legisl": 8771, "\u0120colleagues": 8772, "\u0120rainy": 8773, "\u0120provided": 8774, "\u0120tempt": 8775, "card": 8776, "zy": 8777, "\u0120wi": 8778, "\u0120fart": 8779, "\u0120useful": 8780, "eres": 8781, "\u0120bog": 8782, "\u0120pip": 8783, "\u0120nop": 8784, "\u0120articles": 8785, "\u0120treats": 8786, "something": 8787, "\u0120audio": 8788, "\u0120discipline": 8789, "\u0120duk": 8790, "chan": 8791, "\u0120ku": 8792, "\u0120bombing": 8793, "\u0120todo": 8794, "\u0120lav": 8795, "\u0120gir": 8796, "\u0120frequ": 8797, "dec": 8798, "\u0120intellect": 8799, "hit": 8800, "\u0120file": 8801, "itable": 8802, "almart": 8803, "draw": 8804, "\u0120heavenly": 8805, "\u0120assholes": 8806, "\u0120wenger": 8807, "\u0120sneak": 8808, "\u0120cigare": 8809, "\u0120philosophy": 8810, "rec": 8811, "\u0120cleveland": 8812, "\u0120merc": 8813, "finished": 8814, "giveup": 8815, "\u0120thor": 8816, "\u0120rig": 8817, "\u0120cooper": 8818, "\u0120adjust": 8819, "\u01201278": 8820, "\u0120jealousy": 8821, "\u0120lifted": 8822, "\u0120determination": 8823, "\u0120saints": 8824, "\u0120pul": 8825, "umps": 8826, "\u0120strict": 8827, "tell": 8828, "\u0120midst": 8829, "\u0120lawyer": 8830, "\u0120campus": 8831, "\u0120randomly": 8832, "\u0120sources": 8833, "\u0120wasnt": 8834, "\u0120gained": 8835, "lane": 8836, "\u0120cert": 8837, "\u0120anch": 8838, "\u0120reaching": 8839, "\u0120stairs": 8840, "\u0120manu": 8841, "\u0120hallelujah": 8842, "\u0120diamond": 8843, "\u0120pace": 8844, "\u0120jen": 8845, "\u0120unst": 8846, "apes": 8847, "\u0120spare": 8848, "\u0120minded": 8849, "\u0120educate": 8850, "\u0120jumped": 8851, "\u0120limits": 8852, "\u0120finsbury": 8853, "sunday": 8854, "tion": 8855, "\u0120mud": 8856, "\u0120whore": 8857, "\u0120meh": 8858, "whatever": 8859, "\u0120strip": 8860, "\u0120gameofth": 8861, "\u0120saudiarabia": 8862, "\u0120mh": 8863, "\u0120sober": 8864, "emen": 8865, "\u0120stealing": 8866, "\u0120individuals": 8867, "xual": 8868, "\u0120tix": 8869, "\u0120lifeis": 8870, "\u0120sympathy": 8871, "\u0120bid": 8872, "alph": 8873, "\u0120clubs": 8874, "\u0120optimism": 8875, "200": 8876, "\u0120fred": 8877, "\u0120leaf": 8878, "\u0120brian": 8879, "\u0120monsters": 8880, "\u0120testimony": 8881, "\u0120bik": 8882, "league": 8883, "\u0120unit": 8884, "club": 8885, "\u0120sob": 8886, "\u0120donnie": 8887, "\u0120blat": 8888, "update": 8889, "\u0120persons": 8890, "\u012004": 8891, "\u0120tactics": 8892, "\u0120arrogant": 8893, "\u0120tes": 8894, "islam": 8895, "\u0120trapped": 8896, "\u0120resil": 8897, "\u0120adhd": 8898, "\u0120giants": 8899, "incoln": 8900, "gm": 8901, "oen": 8902, "\u0120marvel": 8903, "\u0120qoute": 8904, "\u0120rainbow": 8905, "\u0120collab": 8906, "\u0120tools": 8907, "\u0120valuable": 8908, "\u0120mk": 8909, "\u0120whist": 8910, "idk": 8911, "\u0120gettin": 8912, "corn": 8913, "sing": 8914, "inthe": 8915, "\u0120wellbeing": 8916, "\u0120mates": 8917, "ysis": 8918, "phere": 8919, "\u0120voter": 8920, "\u0120subway": 8921, "\u0120shortstory": 8922, "\u0120healed": 8923, "\u0120civilians": 8924, "\u0120carried": 8925, "\u0120skinny": 8926, "\u0120explanation": 8927, "\u0120thirst": 8928, "\u0120cia": 8929, "thed": 8930, "\u0120backs": 8931, "\u0120weekly": 8932, "\u0120richard": 8933, "\u0120widow": 8934, "\u0120dd": 8935, "ummer": 8936, "\u0120strive": 8937, "\u0120recall": 8938, "\u0120addicted": 8939, "\u0120square": 8940, "\u0120gentleman": 8941, "\u0120intimid": 8942, "eve": 8943, "anne": 8944, "\u0120spill": 8945, "\u0120dram": 8946, "\u0120element": 8947, "\u0120chilling": 8948, "\u0120nerd": 8949, "bag": 8950, "yp": 8951, "\u0120reform": 8952, "\u0120rp": 8953, "\u0120lions": 8954, "\u0120worker": 8955, "teen": 8956, "\u0120tests": 8957, "\u0120loveisland": 8958, "\u0120symbol": 8959, "\u0120tut": 8960, "irk": 8961, "ibilities": 8962, "psalm": 8963, "\u0120concentr": 8964, "mess": 8965, "\u0120crown": 8966, "\u012065": 8967, "\u0120cared": 8968, "\u0120instant": 8969, "\u0120minority": 8970, "\u0120lmfa": 8971, "\u0120range": 8972, "\u0120jaw": 8973, "took": 8974, "\u0120strikes": 8975, "\u0120mature": 8976, "encies": 8977, "hall": 8978, "\u0120lone": 8979, "\u0120ine": 8980, "\u0120ric": 8981, "\u0120remem": 8982, "wanted": 8983, "zone": 8984, "\u0120ek": 8985, "\u0120sequ": 8986, "andy": 8987, "pra": 8988, "rier": 8989, "\u0120robot": 8990, "\u0120havent": 8991, "\u0120entitled": 8992, "\u00e2\u0122": 8993, "\u0120soap": 8994, "\u012066": 8995, "\u0120rounds": 8996, "\u0120femdom": 8997, "ew": 8998, "press": 8999, "thest": 9000, "issues": 9001, "\u0120slut": 9002, "comm": 9003, "\u0120submit": 9004, "\u0120motivate": 9005, "\u0120diab": 9006, "\u0120kan": 9007, "\u0120sofa": 9008, "\u0120anyways": 9009, "\u0120decade": 9010, "\u0120meanwhile": 9011, "educated": 9012, "\u0120imma": 9013, "track": 9014, "\u0120increased": 9015, "\u0120reporter": 9016, "\u0120soup": 9017, "oser": 9018, "\u0120seal": 9019, "\u0120decor": 9020, "\u0120advis": 9021, "\u0120cowboys": 9022, "91": 9023, "little": 9024, "\u0120pets": 9025, "\u0120atleast": 9026, "\u0120theirs": 9027, "\u0120opio": 9028, "\u0120kinds": 9029, "covery": 9030, "annon": 9031, "\u0120shoe": 9032, "\u0120shook": 9033, "talking": 9034, "\u0120establish": 9035, "\u0120reference": 9036, "mylife": 9037, "\u0120interviews": 9038, "\u0120bullies": 9039, "\u0120apologies": 9040, "\u0120disgraceful": 9041, "\u0120license": 9042, "jay": 9043, "\u0120jama": 9044, "\u0120terrifying": 9045, "wo": 9046, "\u0120cul": 9047, "\u0120leap": 9048, "group": 9049, "\u0120honored": 9050, "\u0120holyspirit": 9051, "\u0120lonel": 9052, "\u0120veteran": 9053, "\u00e2\u0122\u013e": 9054, "eze": 9055, "inating": 9056, "acher": 9057, "aches": 9058, "\u0120flaw": 9059, "absolutely": 9060, "regard": 9061, "\u0120micropoetry": 9062, "\u0120manh": 9063, "\u0120sincere": 9064, "\u0120records": 9065, "\u0120cookies": 9066, "potus": 9067, "orico": 9068, "\u0120meme": 9069, "\u0120doz": 9070, "\u0120dept": 9071, "\u0120charging": 9072, "\u0120clever": 9073, "\u0120capacity": 9074, "\u0120lasvegasshooting": 9075, "ophobic": 9076, "\u0120guarantee": 9077, "\u0120prophet": 9078, "\u0120vik": 9079, "\u0120scares": 9080, "\u0120carl": 9081, "\u0120memes": 9082, "\u0120lux": 9083, "dale": 9084, "lady": 9085, "\u0120md": 9086, "\u0120clip": 9087, "\u0120covers": 9088, "master": 9089, "remacy": 9090, "books": 9091, "\u0120equally": 9092, "iere": 9093, "rones": 9094, "\u0120weare": 9095, "\u0120ade": 9096, "\u0120decency": 9097, "\u0120weekends": 9098, "\u0120hypocrites": 9099, "\u0120compete": 9100, "\u0120scheduled": 9101, "\u0120stretch": 9102, "\u0120temporary": 9103, "\u0120notifications": 9104, "\u0120craft": 9105, "\u0120110": 9106, "\u0120filthy": 9107, "\u0120virtue": 9108, "\u0120abraham": 9109, "gun": 9110, "\u0120mvp": 9111, "\u0120kam": 9112, "\u0120elsewhere": 9113, "\u0120envy": 9114, "\u0120department": 9115, "\u0120soros": 9116, "\u0120rigged": 9117, "gent": 9118, "iot": 9119, "\u0120hump": 9120, "\u0120lovers": 9121, "\u0120moore": 9122, "\u0120reput": 9123, "lando": 9124, "\u0120meetings": 9125, "\u0120recorded": 9126, "\u0120updated": 9127, "\u0120nak": 9128, "\u0120vip": 9129, "quote": 9130, "\u0120promo": 9131, "\u0120miller": 9132, "\u0120businesses": 9133, "\u0120couldnt": 9134, "\u0120overwhelming": 9135, "airl": 9136, "\u0120wah": 9137, "\u0120dos": 9138, "\u0120shite": 9139, "\u0120yell": 9140, "oppy": 9141, "\u0120canceled": 9142, "wind": 9143, "\u0120wc": 9144, "\u0120hc": 9145, "\u0120dawn": 9146, "alu": 9147, "\u0120joking": 9148, "abad": 9149, "\u0120pledge": 9150, "\u0120resur": 9151, "\u0120medication": 9152, "insp": 9153, "\u0120racial": 9154, "\u0120anticip": 9155, "\u0120penny": 9156, "\u0120juice": 9157, "burgh": 9158, "gotta": 9159, "\u0120allerg": 9160, "\u0120graph": 9161, "\u0120deflect": 9162, "\u0120sites": 9163, "\u0120neighbours": 9164, "\u0120experiencing": 9165, "\u0120snowflake": 9166, "bomb": 9167, "\u0120sams": 9168, "\u0120candle": 9169, "ifies": 9170, "\u0120extr": 9171, "\u012043": 9172, "uggage": 9173, "\u0120hunger": 9174, "\u0120daca": 9175, "\u0120pause": 9176, "\u0120pile": 9177, "\u0120jac": 9178, "endo": 9179, "\u0120lads": 9180, "ascar": 9181, "\u0120pregnancy": 9182, "\u0120wealthy": 9183, "\u0120purchased": 9184, "fol": 9185, "nob": 9186, "eries": 9187, "\u0120wann": 9188, "union": 9189, "\u0120timet": 9190, "\u0120craz": 9191, "\u0120devos": 9192, "\u0120walmart": 9193, "\u0120arena": 9194, "\u0120advers": 9195, "\u0120appeal": 9196, "\u0120answering": 9197, "joe": 9198, "\u0120volume": 9199, "\u0120bravo": 9200, "bird": 9201, "hor": 9202, "\u0120mars": 9203, "\u0120gud": 9204, "\u0120eclipse": 9205, "loved": 9206, "supp": 9207, "\u0120odds": 9208, "yet": 9209, "leman": 9210, "\u0120sue": 9211, "geval": 9212, "\u012047": 9213, "\u0120nightmares": 9214, "manchester": 9215, "\u0120queens": 9216, "\u0120ahca": 9217, "\u0120belongs": 9218, "\u0120overwhelmed": 9219, "\u0120caut": 9220, "\u0120gest": 9221, "icial": 9222, "\u0120openly": 9223, "\u0120replied": 9224, "\u0120cycl": 9225, "ozen": 9226, "tha": 9227, "\u0120resolution": 9228, "\u0120designed": 9229, "isan": 9230, "\u0120semi": 9231, "\u0120tremend": 9232, "gur": 9233, "ija": 9234, "\u0120fare": 9235, "\u0120lincoln": 9236, "\u0120ongeval": 9237, "\u0120italy": 9238, "\u0120billy": 9239, "viol": 9240, "\u0120climatechange": 9241, "hal": 9242, "\u0120hors": 9243, "acles": 9244, "\u0120neur": 9245, "\u0120chant": 9246, "\u0120outstanding": 9247, "seen": 9248, "active": 9249, "\u0120confusion": 9250, "\u0120cleaned": 9251, "\u0120protests": 9252, "-)": 9253, "gop": 9254, "\u0120tel": 9255, "\u0120sna": 9256, "\u0120alp": 9257, "\u0120farm": 9258, "voer": 9259, "oenix": 9260, "iors": 9261, "low": 9262, "eno": 9263, "\u0120conce": 9264, "ofgod": 9265, "\u0120xfactor": 9266, "instead": 9267, "\u0120arguing": 9268, "\u0120grenfell": 9269, "vention": 9270, "\u0120wud": 9271, "\u0120trophy": 9272, "\u0120frozen": 9273, "igo": 9274, "\u0120coke": 9275, "yourown": 9276, "\u0120homie": 9277, "\u0120extremism": 9278, "\u0120mol": 9279, "\u0120bibl": 9280, "tho": 9281, "uting": 9282, "\u0120cham": 9283, "obia": 9284, "\u0120legends": 9285, "prayer": 9286, "\u0120phrase": 9287, "\u0120tube": 9288, "\u0120tod": 9289, "\u0120scumb": 9290, "\u0120obstr": 9291, "grateful": 9292, "exist": 9293, "\u0120bree": 9294, "adi": 9295, "vervoer": 9296, "\u0120jane": 9297, "\u0120newyork": 9298, "\u0120superb": 9299, "\u0120slavery": 9300, "\u0120passengers": 9301, "\u0120wegvervoer": 9302, "\u0120rnc": 9303, "\u0120deaf": 9304, "\u0120believers": 9305, "\u0120feeding": 9306, "\u0120triple": 9307, "\u0120neighbour": 9308, "\u0120yankees": 9309, "mill": 9310, "pur": 9311, "\u0120hehe": 9312, "\u0120loan": 9313, "\u012046": 9314, "\u0120badass": 9315, "\u0120entr": 9316, "\u0120pattern": 9317, "\u0120qualified": 9318, "amay": 9319, "inform": 9320, "\u0120pops": 9321, "\u0120rall": 9322, "\u0120kent": 9323, "\u0120insist": 9324, "forever": 9325, "\u0120therap": 9326, "\u0120whatsapp": 9327, "due": 9328, "usal": 9329, "\u0120dwell": 9330, "ano": 9331, "aser": 9332, "\u0120stigma": 9333, "\u0120saves": 9334, "\u0120ensure": 9335, "\u0120joyful": 9336, "\u0120teaches": 9337, "\u0120sensitive": 9338, "\u0120announcement": 9339, "\u0120ax": 9340, "\u0120mma": 9341, "\u0120pope": 9342, "\u0120yg": 9343, "\u0120deeds": 9344, "\u0120password": 9345, "\u0120races": 9346, "crazy": 9347, "\u0120mentality": 9348, "\u0120bitcoin": 9349, "\u0120collusion": 9350, "\u0120ramad": 9351, "\u0120bul": 9352, "\u0120lt": 9353, "\u0120nudes": 9354, "\u0120coinc": 9355, "\u0120snl": 9356, "\u0120bashing": 9357, "limited": 9358, "\u0120judgment": 9359, "\u0120uncertain": 9360, "customers": 9361, "ador": 9362, "\u0120device": 9363, "\u0120unne": 9364, "\u0120bron": 9365, "\u0120clap": 9366, "success": 9367, "\u0120rapist": 9368, "paid": 9369, "\u0120european": 9370, "\u0120oscar": 9371, "\u0120sponsor": 9372, "\u0120nephew": 9373, "wd": 9374, "lley": 9375, "yster": 9376, "\u0120tested": 9377, "\u0120brains": 9378, "christmas": 9379, "\u0120lyn": 9380, "\u0120luggage": 9381, "\u0120oz": 9382, "\u0120reset": 9383, "aza": 9384, "\u0120acqu": 9385, "\u0120region": 9386, "\u0120judging": 9387, "\u0120district": 9388, "\u0120storms": 9389, "wolf": 9390, "\u0120sow": 9391, "\u0120gord": 9392, "\u0120rational": 9393, "\u0120kal": 9394, "\u0120chain": 9395, "\u0120marks": 9396, "\u0120counsel": 9397, "\u0120lifeless": 9398, "\u0120closet": 9399, "rah": 9400, "\u0120gif": 9401, "\u0120itunes": 9402, "market": 9403, "laim": 9404, "mil": 9405, "\u0120mueller": 9406, "\u0120dl": 9407, "\u0120yess": 9408, "alife": 9409, "\u0120goss": 9410, "\u0120weigh": 9411, "iva": 9412, "\u0120agents": 9413, "\u0120emotionally": 9414, "\u0120cdn": 9415, "\u0120finsburypark": 9416, "jn": 9417, "inal": 9418, "ref": 9419, "\u0120pric": 9420, "\u0120vr": 9421, "oyd": 9422, "\u0120transg": 9423, "\u0120conversations": 9424, "inho": 9425, "\u0120gap": 9426, "icts": 9427, "\u0120stats": 9428, "\u0120conven": 9429, "\u0120refere": 9430, "\u0120dealt": 9431, "\u0120fireworks": 9432, "\u0120sucked": 9433, "\u0120affects": 9434, "iance": 9435, "\u0120cn": 9436, "\u0120android": 9437, "\u0120liby": 9438, "\u0120loop": 9439, "endless": 9440, "\u0120recip": 9441, "\u0120waves": 9442, "\u0120sharp": 9443, "tower": 9444, "obama": 9445, "izon": 9446, "\u0120straw": 9447, "\u0120spicer": 9448, "\u0120bore": 9449, "\u0120gary": 9450, "\u0120enforce": 9451, "\u0120refres": 9452, "\u0120disappear": 9453, "\u0120scores": 9454, "\u0120appearance": 9455, "\u0120satisfied": 9456, "\u0120couples": 9457, "\u0120joseph": 9458, "rise": 9459, "\u0120fits": 9460, "\u0120onelove": 9461, "\u0120drank": 9462, "\u0120contain": 9463, "\u0120unemploy": 9464, "which": 9465, "\u0120helpme": 9466, "\u0120wellness": 9467, "\u012085": 9468, "\u0120hella": 9469, "\u0120hyper": 9470, "\u0120kicks": 9471, "\u0120courageous": 9472, "question": 9473, "reet": 9474, "\u0120oo": 9475, "isive": 9476, "elife": 9477, "\u0120shipping": 9478, "\u0120gran": 9479, "\u0120mornings": 9480, "bate": 9481, "cling": 9482, "\u0120oak": 9483, "abis": 9484, "\u0120beta": 9485, "\u0120failures": 9486, "\u0120swing": 9487, "\u0120bbq": 9488, "\u0120naturally": 9489, "\u0120beaten": 9490, "\u0120robbed": 9491, "\u0120broadband": 9492, "dh": 9493, "\u0120maker": 9494, "\u0120bait": 9495, "\u0120bcoz": 9496, "\u0120fires": 9497, "\u0120ana": 9498, "\u0120enlight": 9499, "\u0120afl": 9500, "\u0120redeem": 9501, "\u0120cowardly": 9502, "\u0120rejected": 9503, "\u0120promotion": 9504, "bid": 9505, "\u0120donny": 9506, "\u0120flower": 9507, "\u0120roman": 9508, "tos": 9509, "\u0120toast": 9510, "\u0120nada": 9511, "\u0120belly": 9512, "\u0120ry": 9513, "uments": 9514, "\u0120roots": 9515, "\u012072": 9516, "\u0120retired": 9517, "\u0120stepping": 9518, "\u0120bhai": 9519, "\u0120ccot": 9520, "\u0120navy": 9521, "\u0120og": 9522, "\u0120altr": 9523, "\u0120permission": 9524, "anks": 9525, "\u0120papers": 9526, "\u0120hammer": 9527, "\u0120royal": 9528, "\u0120consistent": 9529, "\u0120theater": 9530, "hings": 9531, "\u0120grip": 9532, "\u0120complicated": 9533, "\u0120clouds": 9534, "\u0120tb": 9535, "\u0120dunk": 9536, "\u0120logo": 9537, "\u0120happily": 9538, "flight": 9539, "blood": 9540, "\u0120visited": 9541, "\u0120commentary": 9542, "\u0120bastard": 9543, "nite": 9544, "almost": 9545, "\u0120kas": 9546, "\u0120bugs": 9547, "\u0120restr": 9548, "\u0120strengthen": 9549, "\u0120hunting": 9550, "\u0120nashville": 9551, "\u0120tied": 9552, "gold": 9553, "\u0120magical": 9554, "\u0120confusing": 9555, "\u0120burned": 9556, "\u0120jerry": 9557, "km": 9558, "\u0120hired": 9559, "\u0120pow": 9560, "ante": 9561, "\u0120noon": 9562, "\u0120phoenix": 9563, "\u0120psycho": 9564, "\u0120hashtags": 9565, "mons": 9566, "\u0120niece": 9567, "\u0120pains": 9568, "\u0120retail": 9569, "\u0120forgetting": 9570, "\u0120increasing": 9571, "\u0120daniel": 9572, "currently": 9573, "must": 9574, "\u0120hast": 9575, "\u0120fet": 9576, "\u0120nascar": 9577, "ads": 9578, "stone": 9579, "peech": 9580, "astr": 9581, "ifer": 9582, "\u0120athlete": 9583, "\u0120fascist": 9584, "\u0120michigan": 9585, "rome": 9586, "\u0120hater": 9587, "adise": 9588, "\u0120february": 9589, "ivia": 9590, "\u012051": 9591, "\u0120blocks": 9592, "\u0120spotify": 9593, "\u0120trading": 9594, "\u0120mexican": 9595, "\u0120executive": 9596, "\u0120universal": 9597, "\u0120uniform": 9598, "\u0120liye": 9599, "\u0120goose": 9600, "\u0120menu": 9601, "\u0120forest": 9602, "\u0120anxietyproblems": 9603, "\u0120jacket": 9604, "\u0120shameless": 9605, "orrect": 9606, "\u0120rapper": 9607, "\u0120haunted": 9608, "hh": 9609, "pse": 9610, "\u0120borders": 9611, "allah": 9612, "\u0120vag": 9613, "perience": 9614, "\u0120appropriate": 9615, "forms": 9616, "loving": 9617, "\u0120800": 9618, "\u0120instit": 9619, "attan": 9620, "\u0120cafe": 9621, "rock": 9622, "\u0120tin": 9623, "\u0120dave": 9624, "icals": 9625, "\u0120trum": 9626, "stud": 9627, "ocide": 9628, "series": 9629, "hammad": 9630, "\u0120performing": 9631, "\u0120threatening": 9632, "\u0120impressive": 9633, "\u0120tackle": 9634, "bud": 9635, "hands": 9636, "\u0120hence": 9637, "\u0120ds": 9638, "\u0120luther": 9639, "\u0120pir": 9640, "\u0120nun": 9641, "ista": 9642, "\u0120troops": 9643, "\u0120waters": 9644, "addock": 9645, "\u0120eliminate": 9646, "super": 9647, "\u0120cbs": 9648, "omuch": 9649, "\u0120eats": 9650, "\u0120getout": 9651, "mental": 9652, "heim": 9653, "\u012057": 9654, "\u0120ministry": 9655, "\u0120meditate": 9656, "\u0120footage": 9657, "evil": 9658, "\u0120eternity": 9659, "\u0120gameofthrones": 9660, "\u0120loneliness": 9661, "->": 9662, "\u0120wore": 9663, "\u0120libt": 9664, "\u0120comprom": 9665, "\u0120grr": 9666, "\u0120secrets": 9667, "\u0120presidents": 9668, "\u0120returning": 9669, "\u0120images": 9670, "\u0120claimed": 9671, "\u0120combat": 9672, "mond": 9673, "ses": 9674, "\u0120gp": 9675, "\u0120gem": 9676, "cher": 9677, "\u0120fries": 9678, "\u0120defence": 9679, "offs": 9680, "guess": 9681, "green": 9682, "\u0120discussing": 9683, "\u0120liqu": 9684, "\u0120emer": 9685, "\u0120insults": 9686, "\u0120breast": 9687, "fold": 9688, "\u0120solutions": 9689, "\u0120magazine": 9690, "tel": 9691, "\u0120alab": 9692, "\u0120awaken": 9693, "\u0120proving": 9694, "lessly": 9695, "\u01202020": 9696, "\u0120detail": 9697, "\u0120advertising": 9698, "\u0120emoji": 9699, "\u0120hint": 9700, "\u0120injustice": 9701, "\u0120beard": 9702, "una": 9703, "sho": 9704, "\u0120slay": 9705, "\u0120anime": 9706, "weak": 9707, "jaja": 9708, "\u0120bucket": 9709, "\u0120migraine": 9710, "72": 9711, "\u0120bits": 9712, "\u0120bands": 9713, "\u0120stalled": 9714, "\u0120agency": 9715, "\u012052": 9716, "\u0120positivevibes": 9717, "\u0120masters": 9718, "\u0120clarity": 9719, "\u0120predictable": 9720, "\u0120tas": 9721, "\u0120ald": 9722, "\u0120andy": 9723, "\u0120italian": 9724, "than": 9725, "\u0120cheering": 9726, "deal": 9727, "\u0120preparing": 9728, "\u0120survived": 9729, "\u0120cate": 9730, "\u0120gaga": 9731, "aration": 9732, "\u0120rus": 9733, "\u0120rack": 9734, "\u0120fees": 9735, "\u0120cruz": 9736, "athan": 9737, "roit": 9738, "\u0120russi": 9739, "\u0120mosque": 9740, "\u0120operation": 9741, "\u0120jeremy": 9742, "\u0120significant": 9743, "89": 9744, "\u0120ns": 9745, "\u0120kathy": 9746, "\u0120adore": 9747, "\u0120appalling": 9748, "\u0120restore": 9749, "\u0120steven": 9750, "uctive": 9751, "\u0120interests": 9752, "\u0120bonus": 9753, "welcome": 9754, "positive": 9755, "\u0120mant": 9756, "esians": 9757, "\u0120albert": 9758, "\u0120;-)": 9759, "\u0120flick": 9760, "\u0120percent": 9761, "\u0120prophecy": 9762, "\u0120>>": 9763, "\u0120publicly": 9764, "\u0120replies": 9765, "\u0120immature": 9766, "\u0120revelation": 9767, "mouth": 9768, "wan": 9769, "\u0120bry": 9770, "\u0120dvd": 9771, "\u0120patch": 9772, "arre": 9773, "stick": 9774, "\u0120prize": 9775, "\u0120orlando": 9776, "\u0120evol": 9777, "\u0120gamer": 9778, "\u0120dipl": 9779, "\u0120pilot": 9780, "\u0120kore": 9781, "\u0120context": 9782, "forward": 9783, "\u0120ohh": 9784, "\u0120guessing": 9785, "\u0120holes": 9786, "\u0120puertorico": 9787, "\u0120yemen": 9788, "\u0120gul": 9789, "\u0120replay": 9790, "\u0120uneducated": 9791, "apse": 9792, "izer": 9793, "\u0120shoulders": 9794, "\u0120appla": 9795, "\u0120veget": 9796, "\u0120debates": 9797, "\u0120melania": 9798, "\u0120suspended": 9799, "\u0120jazz": 9800, "\u0120seattle": 9801, "endum": 9802, "\u0120pean": 9803, "\u0120arts": 9804, "\u0120disconne": 9805, "\u0120retweets": 9806, "ications": 9807, "\u0120franch": 9808, "\u0120maj": 9809, "\u0120strongest": 9810, "ields": 9811, "\u0120merely": 9812, "safe": 9813, "\u0120mutual": 9814, "\u0120dishonest": 9815, "\u0120guidance": 9816, "core": 9817, "gam": 9818, "\u0120sane": 9819, "imo": 9820, "\u0120kd": 9821, "\u0120entry": 9822, "\u0120trained": 9823, "\u0120het": 9824, "\u0120nxt": 9825, "\u0120fighters": 9826, "\u0120directed": 9827, "\u0120bien": 9828, "london": 9829, "\u0120nause": 9830, "anded": 9831, "\u0120spy": 9832, "empl": 9833, "\u0120slim": 9834, "\u0120acct": 9835, "ucing": 9836, "\u0120accountable": 9837, "\u0120drawing": 9838, "\u0120kissing": 9839, "\u0120desperately": 9840, "\u0120blonde": 9841, "\u0120brazil": 9842, "kh": 9843, "sucks": 9844, "tob": 9845, "yard": 9846, "\u0120qui": 9847, "\u0120intel": 9848, "\u0120threatened": 9849, "\u0120empire": 9850, "\u0120inlove": 9851, "\u0120bee": 9852, "sex": 9853, "\u0120whoop": 9854, "\u0120boobs": 9855, "\u0120urge": 9856, "\u0120compreh": 9857, "\u0120respectful": 9858, "\u0120syd": 9859, "\u0120rooms": 9860, "compl": 9861, "\u0120internal": 9862, "\u0120spook": 9863, "doesn": 9864, "\u0120discrimination": 9865, "\u0120refreshing": 9866, "cat": 9867, "fans": 9868, "hearing": 9869, "wins": 9870, "\u0120\u00e0\u00b8": 9871, "\u0120horn": 9872, "lea": 9873, "lem": 9874, "\u0120lej": 9875, "\u0120cries": 9876, "\u0120600": 9877, "\u0120postp": 9878, "\u0120breakdown": 9879, "\u0120superior": 9880, "\u0120annual": 9881, "\u0120steam": 9882, "\u0120murderer": 9883, "\u0120burnt": 9884, "\u0120encouragement": 9885, "\u0120neighborhood": 9886, "\u0120anthony": 9887, "\u0120sincerely": 9888, "\u0120}": 9889, "\u0120saint": 9890, "\u0120lv": 9891, "\u0120ucl": 9892, "\u0120reduced": 9893, "\u0120spray": 9894, "\u0120dragon": 9895, "\u0120affirm": 9896, "\u0120attractive": 9897, "\u0120vomit": 9898, "\u0120sits": 9899, "\u0120mong": 9900, "osphere": 9901, "champ": 9902, "\u0120cripp": 9903, "\u0120systems": 9904, "\u0120graduation": 9905, "\u0120attempts": 9906, "74": 9907, "erved": 9908, "\u0120muse": 9909, "\u0120cens": 9910, "\u0120gan": 9911, "\u0120shld": 9912, "\u0120shirts": 9913, "shot": 9914, "\u0120longest": 9915, "\u0120stepped": 9916, "terrorism": 9917, "\u0120slaves": 9918, "\u0120quran": 9919, "uits": 9920, "\u0120peak": 9921, "\u0120backed": 9922, "\u0120medal": 9923, "\u0120regrets": 9924, "\u0120statements": 9925, "\u0120barbar": 9926, "\u0120celebs": 9927, "\u0120syrian": 9928, "\u0120journalists": 9929, "\u0120lmfao": 9930, "airlines": 9931, "hmm": 9932, "huge": 9933, "rol": 9934, "keys": 9935, "\u0120leeds": 9936, "\u0120unlimited": 9937, "iffin": 9938, "aping": 9939, "\u0120needing": 9940, "awards": 9941, "\u0120packing": 9942, "\u0120helpless": 9943, "\u0120apt": 9944, "\u0120anc": 9945, "\u0120lib": 9946, "othy": 9947, "\u0120elector": 9948, "\u0120confess": 9949, "\u0120samsung": 9950, "\u0120gossip": 9951, "cow": 9952, "\u0120mb": 9953, "\u0120behave": 9954, "\u0120shakes": 9955, "\u0120hears": 9956, "\u0120exter": 9957, "early": 9958, "\u0120providing": 9959, "\u0120protesting": 9960, "\u0120sympath": 9961, "500": 9962, "93": 9963, "agger": 9964, "\u0120wonders": 9965, "\u0120bestfriend": 9966, "\u0120asses": 9967, "\u0120headline": 9968, "\u0120sword": 9969, "\u0120filter": 9970, "\u0120ordering": 9971, "\u0120motivational": 9972, "\u0120rallies": 9973, "\u0120libya": 9974, "tired": 9975, "\u0120hog": 9976, "\u0120gum": 9977, "isi": 9978, "already": 9979, "\u0120rud": 9980, "lying": 9981, "\u0120clothing": 9982, "\u0120taxi": 9983, "\u0120geek": 9984, "\u0120supremacist": 9985, "\u0120priceless": 9986, "\u0120dol": 9987, "\u0120loveyou": 9988, "\u0120philly": 9989, "\u0120compar": 9990, "\u0120bullet": 9991, "\u0120discount": 9992, "expl": 9993, "\u0120length": 9994, "\u0120reputation": 9995, "fish": 9996, "\u0120tamp": 9997, "\u0120lamb": 9998, "itb": 9999, "\u0120justified": 10000, "\u0120vibe": 10001, "\u0120leak": 10002, "tried": 10003, "\u0120urdu": 10004, "pak": 10005, "\u0120trips": 10006, "\u0120vida": 10007, "\u0120diwali": 10008, "\u0120vocab": 10009, "\u0120airlines": 10010, "\u0120manhattan": 10011, "qa": 10012, "\u0120pills": 10013, "\u0120rabb": 10014, "\u0120ralph": 10015, "\u0120idont": 10016, "\u0120raven": 10017, "\u0120intended": 10018, "\u0120boxes": 10019, "\u0120passionate": 10020, "\u0120ultim": 10021, "\u0120affairs": 10022, "\u0120punishment": 10023, "\u0120celtics": 10024, "bear": 10025, "mitted": 10026, "arity": 10027, "\u0120lob": 10028, "\u0120abroad": 10029, "\u0120arabia": 10030, "2018": 10031, "\u0120crushed": 10032, "\u0120candidates": 10033, "\u0120cousins": 10034, "dul": 10035, "\u0120dms": 10036, "\u0120dhoni": 10037, "\u0120anna": 10038, "\u0120anonymous": 10039, "oted": 10040, "term": 10041, "\u0120candles": 10042, "ilm": 10043, "\u0120confront": 10044, "hair": 10045, "\u0120prec": 10046, "\u0120badservice": 10047, "\u0120doubts": 10048, "\u0120darkest": 10049, "\u0120accurate": 10050, "\u0120thugs": 10051, "\u0120dou": 10052, "\u0120nin": 10053, "\u0120frame": 10054, "\u0120vig": 10055, "ickets": 10056, "\u0120flags": 10057, "\u0120perseverance": 10058, "\u0120wim": 10059, "\u0120bie": 10060, "\u0120barn": 10061, "itz": 10062, "\u0120ist": 10063, "\u0120stones": 10064, "\u0120fri": 10065, "orette": 10066, "\u0120millenn": 10067, "month": 10068, "\u0120responding": 10069, "\u0120eagles": 10070, "ker": 10071, "\u0120lung": 10072, "\u0120soil": 10073, "\u0120explore": 10074, "\u0120johnny": 10075, "\u0120bowling": 10076, "\u0120satisfaction": 10077, "\u0120bald": 10078, "\u0120fid": 10079, "uri": 10080, "proud": 10081, "\u0120depos": 10082, "\u0120transport": 10083, "\u0120btwn": 10084, "voice": 10085, "\u0120amongst": 10086, "children": 10087, "\u0120manipul": 10088, "\u0120fib": 10089, "bra": 10090, "\u0120conscience": 10091, "\u0120metro": 10092, "\u0120sucking": 10093, "\u0120140": 10094, "strugg": 10095, "\u0120retirement": 10096, "gow": 10097, "\u0120mylife": 10098, "\u0120heels": 10099, "\u0120withdraw": 10100, "\u012053": 10101, "\u0120prayed": 10102, "\u0120salty": 10103, "\u0120reminding": 10104, "\u0120duke": 10105, "\u0120admitted": 10106, "livesmatter": 10107, "\u0120constituents": 10108, "\u0120wld": 10109, "onia": 10110, "\u0120np": 10111, "\u0120gore": 10112, "osure": 10113, "\u0120slip": 10114, "\u0120mainstream": 10115, "\u0120closest": 10116, "\u0120deck": 10117, "\u0120spur": 10118, "\u0120watches": 10119, "\u0120poors": 10120, "brother": 10121, "\u0120experts": 10122, "\u0120deepest": 10123, "\u0120senators": 10124, "saves": 10125, "\u0120identify": 10126, "lon": 10127, "mong": 10128, "\u0120mouse": 10129, "\u0120dor": 10130, "\u0120gn": 10131, "vegas": 10132, "\u0120heav": 10133, "oung": 10134, "\u0120bruce": 10135, "\u0120adorable": 10136, "\u012098": 10137, "\u0120interact": 10138, "\u0120sickness": 10139, "\u0120brainw": 10140, "moment": 10141, "\u0120determine": 10142, "\u0120investigate": 10143, "leaders": 10144, "business": 10145, "fk": 10146, "\u0120fir": 10147, "\u0120segment": 10148, "aknee": 10149, "\u0120strongly": 10150, "\u0120distraction": 10151, "holm": 10152, "\u0120vampire": 10153, "rt": 10154, "\u0120dans": 10155, "\u0120liv": 10156, "\u0120lovemy": 10157, "\u0120presents": 10158, "\u0120roommate": 10159, "\u0120presentation": 10160, "\u0120familiar": 10161, "muslim": 10162, "\u0120digging": 10163, "rat": 10164, "\u0120dn": 10165, "\u0120jai": 10166, "cci": 10167, "\u0120reads": 10168, "\u0120understands": 10169, "\u0120patrick": 10170, "fucking": 10171, "\u0120feliz": 10172, "\u0120hmu": 10173, "\u0120pardon": 10174, "piece": 10175, "\u0120pj": 10176, "icy": 10177, "entially": 10178, "\u012059": 10179, "\u0120remark": 10180, "\u0120fixing": 10181, "\u0120flew": 10182, "puth": 10183, "tobe": 10184, "enjoy": 10185, "\u0120naw": 10186, "\u0120stated": 10187, "\u0120vic": 10188, "\u0120appt": 10189, "\u0120dreamt": 10190, "\u0120remembering": 10191, "ugged": 10192, "\u0120appreciation": 10193, "\u0120purple": 10194, "\u0120mcgregor": 10195, "\u0120sticking": 10196, "\u0120blogger": 10197, "poor": 10198, "\u0120thief": 10199, "\u0120hath": 10200, "\u0120itmovie": 10201, "\u0120ramp": 10202, "\u0120mein": 10203, "\u0120realtalk": 10204, "anged": 10205, "\u0120challenging": 10206, "\u0120shelter": 10207, "\u0120harsh": 10208, "\u0120sexually": 10209, "\u0120engagement": 10210, "\u0120religions": 10211, "\u0120battles": 10212, "\u0120actorslife": 10213, "atable": 10214, "\u0120toys": 10215, "\u0120gates": 10216, "\u0120beware": 10217, "\u0120necess": 10218, "\u0120lov": 10219, "\u0120allies": 10220, "igue": 10221, "umph": 10222, "\u0120sometime": 10223, "\u0120austin": 10224, "\u0120gag": 10225, "\u0120rome": 10226, "\u0120rib": 10227, "\u0120haz": 10228, "ige": 10229, "\u0120crappy": 10230, "\u0120imwith": 10231, "\u0120kisses": 10232, "inate": 10233, "\u0120sant": 10234, "\u0120dys": 10235, "\u0120blows": 10236, "actually": 10237, "\u0120remake": 10238, "\u0120heartbreaking": 10239, "otesters": 10240, "\u0120travelling": 10241, "\u0120entirely": 10242, "\u0120switched": 10243, "\u0120devastated": 10244, "\u0120sustain": 10245, "\u0120ramadan": 10246, "\u0120hoy": 10247, "\u0120shark": 10248, "\u0120blvd": 10249, "\u0120stroke": 10250, "\u0120largest": 10251, "\u0120atmosphere": 10252, "\u0120tremendous": 10253, "\u0120{": 10254, "\u0120firing": 10255, "\u0120deadly": 10256, "\u0120counts": 10257, "\u0120gunna": 10258, "\u012012807": 10259, "\u0120dorm": 10260, "osa": 10261, "\u0120vids": 10262, "\u0120sayin": 10263, "\u0120spew": 10264, "\u0120compens": 10265, "\u0120refusing": 10266, "\u0120earthqu": 10267, "\u0120programme": 10268, "\u0120resolved": 10269, "fm": 10270, "iam": 10271, "\u0120yuck": 10272, "vere": 10273, "\u0120insulting": 10274, "hole": 10275, "\u0120kneel": 10276, "\u0120detroit": 10277, "\u0120charlot": 10278, "customerservice": 10279, "\u0120jj": 10280, "\u0120shep": 10281, "ansas": 10282, "\u0120scoring": 10283, "pton": 10284, "\u0120potter": 10285, "\u0120billions": 10286, "\u0120communities": 10287, "\u0120debut": 10288, "\u0120village": 10289, "\u0120virginia": 10290, "\u0120whitesupremac": 10291, "hab": 10292, "lie": 10293, "\u0120nad": 10294, "uster": 10295, "agr": 10296, "quality": 10297, "\u0120instantly": 10298, "\u0120casual": 10299, "\u0120referring": 10300, "\u0120confirmation": 10301, "bourne": 10302, "\u0120ought": 10303, "\u0120stere": 10304, "\u0120meets": 10305, "arded": 10306, "ully": 10307, "\u0120xox": 10308, "\u0120depth": 10309, "\u0120feeds": 10310, "probs": 10311, "\u0120nailed": 10312, "\u0120atlanta": 10313, "respons": 10314, "\u0120tgif": 10315, "paper": 10316, "yers": 10317, "\u0120parade": 10318, "writer": 10319, "\u0120rocking": 10320, "\u0120autumn": 10321, "ordered": 10322, "\u0120katie": 10323, "\u0120passenger": 10324, "\u0120taco": 10325, "\u0120cannabis": 10326, "qualified": 10327, "\u0120unnecessary": 10328, "\u0120gad": 10329, "\u0120whine": 10330, "\u0120behappy": 10331, "\u0120jung": 10332, "\u0120overnight": 10333, "enses": 10334, "\u0120leftist": 10335, "\u0120filling": 10336, "\u0120engineer": 10337, "\u0120principles": 10338, "\u0120thebachel": 10339, "kar": 10340, "uing": 10341, "\u0120bail": 10342, "\u0120kah": 10343, "\u0120worn": 10344, "esteem": 10345, "cient": 10346, "\u0120jesussaves": 10347, "balls": 10348, "\u0120bbuk": 10349, "\u0120burns": 10350, "\u0120horses": 10351, "\u0120categ": 10352, "\u0120fuk": 10353, "\u0120pats": 10354, "ulu": 10355, "semb": 10356, "\u0120loveit": 10357, "\u0120livepd": 10358, "\u0120saddest": 10359, "\u0120checks": 10360, "backs": 10361, "\u0120mummy": 10362, "\u0120correctly": 10363, "\u0120savage": 10364, "\u0120sj": 10365, "\u0120mute": 10366, "ental": 10367, "\u0120chains": 10368, "block": 10369, "dened": 10370, "\u0120nurses": 10371, "\u0120thug": 10372, "\u0120cfc": 10373, "\u0120lent": 10374, "\u0120blink": 10375, "\u0120assess": 10376, "\u0120evolution": 10377, "\u0120adds": 10378, "\u0120nerves": 10379, "wenan": 10380, "bone": 10381, "\u0120ole": 10382, "\u0120forcing": 10383, "\u0120unlock": 10384, "arest": 10385, "\u0120aged": 10386, "umpy": 10387, "\u0120cringe": 10388, "awesome": 10389, "\u0120perf": 10390, "\u0120continually": 10391, "\u0120whisper": 10392, "ario": 10393, "aday": 10394, "\u0120voy": 10395, "\u0120accent": 10396, "\u0120deliber": 10397, "\u0120buried": 10398, "\u0120tolerate": 10399, "vpak": 10400, "\u0120automatically": 10401, "hawks": 10402, "\u0120nca": 10403, "\u0120jar": 10404, "\u0120pron": 10405, "\u0120dismiss": 10406, "\u0120attending": 10407, "\u0120carbon": 10408, "mean": 10409, "\u0120fearless": 10410, "\u0120ideal": 10411, "aii": 10412, "\u0120survival": 10413, "\u0120paypigs": 10414, "starting": 10415, "77": 10416, "sick": 10417, "\u0120dna": 10418, "\u0120chop": 10419, "\u0120television": 10420, "\u0120backing": 10421, "\u0120acted": 10422, "\u0120viewing": 10423, "\u0120riot": 10424, "\u0120freakin": 10425, "\u0120eww": 10426, "violence": 10427, "jan": 10428, "\u0120auss": 10429, "aman": 10430, "rence": 10431, "\u0120instinct": 10432, "\u0120kneeling": 10433, "\u0120londonattack": 10434, "\u0120despair": 10435, "\u0120teenage": 10436, "\u0120crawl": 10437, "\u0120lb": 10438, "chair": 10439, "umbs": 10440, "\u0120degr": 10441, "asses": 10442, "\u0120followme": 10443, "\u0120wished": 10444, "\u0120salary": 10445, "\u0120massacre": 10446, "\u0120banana": 10447, "\u0120calend": 10448, "\u0120fairy": 10449, "\u0120produced": 10450, "\u0120japanese": 10451, "\u0120bastards": 10452, "\u0120charlieputh": 10453, "\u0120arrogance": 10454, "\u0120bakwenan": 10455, "\u0120assignment": 10456, "qt": 10457, "rog": 10458, "\u0120mitch": 10459, "\u0120stare": 10460, "\u0120myth": 10461, "soon": 10462, "\u0120wayne": 10463, "\u0120damaged": 10464, "\u0120possibility": 10465, "\u0120filming": 10466, "confidence": 10467, "profess": 10468, "itated": 10469, "\u0120ink": 10470, "\u0120brid": 10471, "\u0120cryst": 10472, "\u0120solved": 10473, "\u0120injuries": 10474, "\u0120cookie": 10475, "\u0120technical": 10476, "\u0120cuddle": 10477, "tour": 10478, "\u0120bn": 10479, "esc": 10480, "\u0120nas": 10481, "\u0120notification": 10482, "\u0120committ": 10483, "\u0120basement": 10484, "\u0120communicate": 10485, "\u0120shootings": 10486, "\u0120protected": 10487, "\u0120includes": 10488, "\u0120bleed": 10489, "\u0120software": 10490, "test": 10491, "\u0120bund": 10492, "\u0120native": 10493, "\u0120porque": 10494, "\u0120abandon": 10495, "\u0120lahore": 10496, "\u0120wks": 10497, "\u0120flex": 10498, "\u0120pup": 10499, "ema": 10500, "\u0120evry": 10501, "\u0120lacking": 10502,
[...]
